memory_initialization_radix=2;
memory_initialization_vector=
111011011011011111011011000010100011101000011100111111110000000100000010
111111011111111000000111111111110000010000000000000010010000101000001110
111110001111100011110100000000000000000100000000000101110101111000101110
000000100000000100000010110101010000101111011000000000000000000000000000
000000000000000000000000111101000000000100000111000101110110100100110011
000000000000000000000000000000000000000000000000000000000000000000000001
000001111111011100000010000010000000011111101101111111111111111111111111
000000010000000000000000001101111110111100101011000011010001100000010100
000000100000011000000101111110011110110011110100111111010000011011111111
000011010000011100001000111101010000010100001001111100001011010111101000
000000000000000000000000111111011111111111111011000000001111000100010101
000000000000000000000000000000000000000000000000000000000000000000000000
