memory_initialization_radix=2;
memory_initialization_vector=
000000000000000000000000000000000000000000000000000000000000000000000000000101100101111100010011000000000000000000000000000000000000000000000000000000000000000000000000001000000110000000000100000000000000000000000000000000000000000000000000000000000000000011111111111110100100101101011110
000000000000000000000000000000000000000000000000000000000000000000000000001001101110111010001011000000000000000000000000000000000000000000000000000000000000000000000000001101101110000101101000000000000000000000000000000000000000000000000000000000000000000000000000000100011100010110010000
000000000000000000000000000000000000000000000000000000000000000000000000001001101101001000110111000000000000000000000000000000000000000000000000000000000000000000000000001010100001110111010010000000000000000000000000000000000000000000000000000000000000000000000000000111001011110011110100
000000000000000000000000000000000000000000000000000000000000000000000000001101010001011000010101000000000000000000000000000000000000000000000000000000000000000011111111111011000000111000011101000000000000000000000000000000000000000000000000000000000000000011111111111111111111111101000101
000000000000000000000000000000000000000000000000000000000000000011111111111111111111000110101001000000000000000000000000000000000000000000000000000000000000000011111111111001100110010010100010000000000000000000000000000000000000000000000000000000000000000000000000000110101111100111110001
000000000000000000000000000000000000000000000000000000000000000011111111111111101100101101101001000000000000000000000000000000000000000000000000000000000000000011111111111111010011011110001010000000000000000000000000000000000000000000000000000000000000000000000000000000000110001100101000
000000000000000000000000000000000000000000000000000000000000000011111111111011100101011110111110000000000000000000000000000000000000000000000000000000000000000000000000000001110011100010001000000000000000000000000000000000000000000000000000000000000000000000000000000101110001001101110111
000000000000000000000000000000000000000000000000000000000000000011111111111111101111100101001101000000000000000000000000000000000000000000000000000000000000000000000000000101101101000011110001000000000000000000000000000000000000000000000000000000000000000000000000000111000100101001100110
000000000000000000000000000000000000000000000000000000000000000011111111111010111110010001001101000000000000000000000000000000000000000000000000000000000000000000000000001000001000111110110011000000000000000000000000000000000000000000000000000000000000000011111111111000000011100000000000
000000000000000000000000000000000000000000000000000000000000000011111111111110111001100101110100000000000000000000000000000000000000000000000000000000000000000011111111111110000111010001001111000000000000000000000000000000000000000000000000000000000000000000000000001001110010011001000101
000000000000000000000000000000000000000000000000000000000000000000000000000000000000000000000000000000000000000000000000000000000000000000000000000000000000000000000000000100101001101101010101000000000000000000000000000000000000000000000000000000000000000000000000000101010100011001000111
000000000000000000000000000000000000000000000000000000000000000000000000000000000000000000000000000000000000000000000000000000000000000000000000000000000000000000000000000000000000000000000000000000000000000000000000000000000000000000000000000000000000000000000000000000000000000000000000
000000000010110100100110000010010000000000000110110110100000101100000000000011010011111100000111000000000000101111100100010101010000000000000100110000000010101000000000000001011000111010001100111111111111111100000010011110010000000000001100100011111101000011111111111111111101010000001101
000000000000000000110010110111100000000000000000000111100101111011111111111111111110101001011000111111111111111111101010101110011111111111111001110111110110010100000000000010110010100101011000000000000000010100111011100100110000000000000100110001011111110111111111111111111110111000111100
111111111111101010001001000111101111111111111101011000000111011000000000000010110001110101100010000000000000000000000100011111110000000000001010111100110101010100000000000110000100110111001110111111111111101110100100001111100000000000000000111110001101100000000000000000001110001011010110
000000000000000000000000000000000000000000000000000000000000000000000000000000000000000000000000000000000000000000000000000000001111111111111101001001111100111000000000000011000011011010001011000000000000010011110100100101110000000000001010001101011111001000000000000010100111011011110110
000000000111011110101110101110100000000001101110110001101100101100000000011110101101000000111101000000000111110001011110000000010000000010000000111001001110001000000000100011010111101011010010000000000111001110110101000000110000000010000110111011001010100100000000011010100001010001110000
000000000000000000000000000000000000000000000000000000000000000000000000100100100000100001010000000000001001001101000010000000010000000010000000000011011010111100000000011110011000110110010000000000000111110100011000101100010000000010010100110101111011001000000000011011101110011101011000
