memory_initialization_radix=2;
memory_initialization_vector=
000000111111110100000000000001010000001000000101111111110000000100000001
000011100000000011110010111111101111111100000001000001010001000100010010
000000001111001111111000111111101111100011111010000000000000001000000000
000000001111111100000011110101100011010011110000000000000000000000000000
000000000000000000000000111111000000001100000000111110011101001111101111
000000000000000000000000000000000000000000000000000000000000000000000001
000011101111001000000000000010100000100011101010111111101111101111111110
000000000000000000000000001001111101001100010100000010010010011000010110
000010011111111111111011111111110000001011111110110110001110101000000010
000100010000101100000010111101011111111000010000000000101110111011111101
000000000000000000000000111110001111111111111110111100111111001100011011
000000000000000000000000000000000000000000000000000000000000000000000000
111111010000111011111011111110010000101011111110111110100000001111111111
000000000000000000000000000000001111000100000000000110101110110000000000
111111000000001000001101000000001111010111111111111101111110111100001110
000000000000000000000000000000001111100111110100111111110000101111110101
111001010000100111010010110110111101111001001010000101000110000011111110
000000010000000100000001000000011111100000001010001101101111011100000000
111101111100100111111111000000000000110001011001000000100000100100001010
000000000000000000000000000000001111111011101011000000110000110101010011
101001010001000111100001111000101111011100010111001100001110100000000010
000000011111111000000001000000001111101011010101000001010000001000000000
111110000010101011101010000000001111001100010010000100101101101111001010
000000000000000000000000000000001111001000100110111100001110001001010010
