memory_initialization_radix=2;
memory_initialization_vector=
111001111010001011000100111100111011101111011001111111110000000100000001
000010101111111111110111000000010000101100000110000000000000101100000101
000000000000000100000001000000010000000011111111000001110001101100001110
111110101111101011111100111101110010110100000101000000000000000000000000
000000000000000000000001000000101111110000000001111111001110101011110111
000000000000000000000000000000000000000000000000000000000000000000000001
000000101111010000001011000000100000101111110110111111111111110111111101
000000000000000000000000000100001101010011101101111110001111011011110111
000000100000110100000010000001100001000000001001111101000000011011111101
001000110010010100100000111111000000101000000100000100010001101100011000
000000000000000000000000111111110000001011111110111010101110111000100000
000000000000000000000000000000000000000000000000000000000000000000000000
000000001111011111111111000000011110110111111111111111110000000111111111
000000000000000000000000000000001111000011111111111101111110110100000000
111111111111101000010011000000001111100000000011111110001111101011110010
000000000000000000000000000000000000100111111001111111110000011011111001
000101001010011000000011000000111101010011010111111100000010110100000000
000000010000000100000000000000000001001111110000000101011111011100000000
111000110001011100001011111111110000111000100100000000010000001111100010
000000000000000000000000000000000001100000010010000110000000101000000110
001101101110001010111111111111110010101111101001110110101110000100000000
000000000000000000000000000000001111000111010001110111011101111100000000
111101101110010100001001000000000010110100001000000001111100010000011111
000000000000000000000000000000000001001111001011111111011111111101011010
