memory_initialization_radix=2;
memory_initialization_vector=
001000100111011101000010001001110111111101010010111111101111111011111111
111010011111000100100110111111001111001011111010000100100111000000101011
000110100100011000101100000000010000100100000100111110011110010011110010
000000100000100100000110110001100001101111010101000000000000000000000000
000000000000000000000001111110011111110011111010000111110111111101000110
000000000000000000000000000000000000000100000000000000000000000000000000
111100111111011011101111001001010000011011011000111111110000010100000000
000000000000000000000000010101101100011000101101111100101101001011101000
000000001110100011111000000100000011100000100001111101011110111111110111
111110101110011011110101111010001111100100001000000000101010110111110011
000000000000000000000000000000100000001100000000111011111110010000111101
000000000000000000000000000000000000000000000000000000000000000000000000
110011111111101000000000000010110000100100011011000000111111110000000000
000000000000000000000000000000000000010100000001000000100000011100000000
010011100101000011101100000000000000001011110011111111000000101110000010
000000000000000000000000000000001111110111111111111110111111111011111110
000111101100111000001101100110000001101011111000001100011100010111111101
000000001111111100000001111111111111101011011101111100110001100111111111
001000010000100100001010000000001101111100110101111000100001010101000001
000000000000000000000000000000000011011101000111111110100000110000000011
110100111100101000010010111101010001000100000101111110001101011011111101
000000011111111100000000000000001110101001000111000001011111100100000000
000000100001011100011000000000000001001011100010000110000001110011111110
000000000000000000000000000000000001111010111000111101000010011000011101
