memory_initialization_radix=2;
memory_initialization_vector=
000000000010110100100110000010010000000000000110110110100000101100000000000011010011111100000111000000000000101111100100010101010000000000000100110000000010101000000000000001011000111010001100111111111111111100000010011110010000000000001100100011111101000011111111111111111101010000001101
000000000000000000110010110111100000000000000000000111100101111011111111111111111110101001011000111111111111111111101010101110011111111111111001110111110110010100000000000010110010100101011000000000000000010100111011100100110000000000000100110001011111110111111111111111111110111000111100
111111111111101010001001000111101111111111111101011000000111011000000000000010110001110101100010000000000000000000000100011111110000000000001010111100110101010100000000000110000100110111001110111111111111101110100100001111100000000000000000111110001101100000000000000000001110001011010110
000000000000000000000000000000000000000000000000000000000000000000000000000000000000000000000000000000000000000000000000000000001111111111111101001001111100111000000000000011000011011010001011000000000000010011110100100101110000000000001010001101011111001000000000000010100111011011110110
