memory_initialization_radix=2;
memory_initialization_vector=
111110101111111111111111111101110001101100000010111111101111111011111101
000111100000001011111111111010010000000100000001000000000000000100000000
111010110001100100000011111110101111001111111110111111111111111100000000
000010100000011111111001000100111111111111111001111101001111101100000010
