memory_initialization_radix=2;
memory_initialization_vector=
111001100000001100000001000110101111110000000000000000111111111100000001
000100110000110011101101000100010000011111111000111011001111101100000100
000001000000010011111010000111000000101111110000111011111111101000000100
111101111111111000000110111010101111111000000101000010110000001100000010
