memory_initialization_radix=2;
memory_initialization_vector=
000011001111110111110111001100011111101011010100000011101111110011110111
000000000000000100000000000000000000000000000000000000000000000000000000
111101101111110111111010111010010101000000000011000000100000000111111101
000000000000000000000000000000000000000000000000000000000000000000000000
