memory_initialization_radix=2;
memory_initialization_vector=
111111110000000100000000000010001100111100000001111111010000010111111111
000000000000000000000000000000000000000000000000000000000000000000000000
111111101111011111111111110111110100111000001011111111001111110111111111
000000000000000000000000000000000000000000000000000000000000000000000000
