memory_initialization_radix=2;
memory_initialization_vector=
001101011111110011111111110100110000000000000001111110110000010100000000
000000000000000000000000000000000000000000000000000000000000000000000000
111000101111011100010011111110111110110000000101000011010000101000000010
000000000000000000000000000000000000000000000000000000000000000000000000
