memory_initialization_radix=2;
memory_initialization_vector=
111011111101000111101101000001000000100100000101000010100010101000001101
011010001111000011110000111100000000010100000010111100010000000011110111
000011000000001111111000000011000000001011111011111101011111111000000011
111110111111111000001001110110111111110100101001111110011111110000001001
