memory_initialization_radix=2;
memory_initialization_vector=
111111111111110111111111001100110000001100000001111110101111111100000000
111001111101100011110111111111010000001000000010000110100010100100000101
001110101111100111111000111111011111110011111110111101110000000011111110
111111101111111011111111111111011111101111111111111111111111111000000001
