memory_initialization_radix=2;
memory_initialization_vector=
000010000010011000000001110010000000101100000110111110010000010011111111
000000000000000000000000000000000000000000000000000000000000000000000000
000000000000000000000000000000000000000000000000000000000000000000000000
000000000000000000000000000000000000000000000000000000000000000000000000
