memory_initialization_radix=2;
memory_initialization_vector=
000000011111111111111111000010000000000011111111111111111111111111111111
000000000000000000000000000000000000000000000000000000000000000000000000
111101010000110011110010010001111000001001011011000011101100110000001100
000011100000001011111001000011101111111011111101111101011111111100000001
