memory_initialization_radix=2;
memory_initialization_vector=
011001010110010101100101011001010110010101100101010010100100111101001010
011001010110010101100101011001010110010101100101001110110100010101000010
011001010110010101100101011001010110010101100101011100101000111110000000
011001010110010101100101011001010110010101100101101011001100010110110110
011001010110010101100101011001010110010101100101101100101011110110101101
011001010110010101100101011001010110010101100101101011101011101010100111
011001010110010101100101011001010110010101100101011011000111100101110000
011001010110010101100101011001010110010101100101010000100101010001010110
011001010110010101100101011001010110010101100101010000110101101101011110
011001010110010101100101011001010110010101100101010010100110111001101001
011001010110010101100101011001010110010101100101001101010100111101000100
011001010110010101100101011001010110010101100101010001010101110001000111
011001010110010101100101011001010110010101100101011001010110101001010100
011001010110010101100101011001010110010101100101011010010110011101001001
011001010110010101100101011001010110010101100101010110110101110101000011
011001010110010101100101011001010110010101100101010011000101011101000100
011001010110010101100101011001010110010101100101001111010100011100111011
011001010110010101100101011001010110010101100101011100011000111010010011
011001010110010101100101011001010110010101100101010000100101001101010110
011001010110010101100101011001010110010101100101001010110110001101100011
011001010110010101100101011001010110010101100101001010100101011101010100
011001010110010101100101011001010110010101100101001110110101000101000100
011001010110010101100101011001010110010101100101010100010101011101001000
011001010110010101100101011001010110010101100101010011000101100001001111
011001010110010101100101011001010110010101100101010110010110011101100100
011001010110010101100101011001010110010101100101010011010101101101011101
011001010110010101100101011001010110010101100101010101010101110101010111
011001010110010101100101011001010110010101100101010011100101111001010000
011001010110010101100101011001010110010101100101010100010111010001110000
011001010110010101100101011001010110010101100101001111010111101001111011
011001010110010101100101011001010110010101100101011011001000011110000010
011001010110010101100101011001010110010101100101010101000110011001010001
011001010110010101100101011001010110010101100101011011111000111110001000
011001010110010101100101011001010110010101100101100000001010010110101011
011001010110010101100101011001010110010101100101011011111001011110010100
011001010110010101100101011001010110010101100101011011011001001110010010
011001010110010101100101011001010110010101100101011000010110110101011011
011001010110010101100101011001010110010101100101011100000111110101101111
011001010110010101100101011001010110010101100101011100111000100010000110
011001010110010101100101011001010110010101100101011110111001110010010010
011001010110010101100101011001010110010101100101100000011001110010010011
011001010110010101100101011001010110010101100101011101001000100101110111
011001010110010101100101011001010110010101100101011110011001110110011000
011001010110010101100101011001010110010101100101011010110111110001101101
011001010110010101100101011001010110010101100101011101101001011010001101
011001010110010101100101011001010110010101100101011101001001011110001100
011001010110010101100101011001010110010101100101011101001000100101111000
011001010110010101100101011001010110010101100101011111011010001110011101
011001010110010101100101011001010110010101100101100000101001010010000111
011001010110010101100101011001010110010101100101100011111010001010100000
011001010110010101100101011001010110010101100101100001001001101110001000
011001010110010101100101011001010110010101100101100100001010000110010111
011001010110010101100101011001010110010101100101011101011001110110001101
011001010110010101100101011001010110010101100101100011001001111010010101
011001010110010101100101011001010110010101100101110001101101010111010001
011001010110010101100101011001010110010101100101101001111011010010101000
011001010110010101100101011001010110010101100101011110101001110010001100
011001010110010101100101011001010110010101100101011110011010001010010101
011001010110010101100101011001010110010101100101100110011010011010011100
011001010110010101100101011001010110010101100101010110111001011110001111
011001010110010101100101011001010110010101100101100100001001101010000110
011001010110010101100101011001010110010101100101100100001001110010000010
011001010110010101100101011001010110010101100101011110011001011110000100
011001010110010101100101011001010110010101100101100001001001010010000100
011001010110010101100101011001010110010101100101011111011000111001110111
011001010110010101100101011001010110010101100101100001101001110110001001
011001010110010101100101011001010110010101100101011000011000101001111011
011001010110010101100101011001010110010101100101100000001001101010001011
011001010110010101100101011001010110010101100101011110111010001010010011
011001010110010101100101011001010110010101100101011010101010000010001111
011001010110010101100101011001010110010101100101011101011001110010001101
011001010110010101100101011001010110010101100101100010001000101101110110
011001010110010101100101011001010110010101100101011010111001000001111111
011001010110010101100101011001010110010101100101101011011010101010010110
011001010110010101100101011001010110010101100101011001010110010101100101
011001010110010101100101011001010110010101100101011101010111110001101101
011001010110010101100101011001010110010101100101100001101000001101111010
011001010110010101100101011001010110010101100101001110010011110100110001
011001010110010101100101011001010110010101100101010010100100101101000011
011001010110010101100101011001010110010101100101001011100011101000111001
011001010110010101100101011001010110010101100101010010000100000100110101
011001010110010101100101011001010110010101100101010000110100100100111010
011001010110010101100101011001010110010101100101011000000101010101000001
011001010110010101100101011001010110010101100101010011110110011001101000
011001010110010101100101011001010110010101100101010001110100111001001010
011001010110010101100101011001010110010101100101001100010100101000111010
011001010110010101100101011001010110010101100101001111010101000101010011
011001010110010101100101011001010110010101100101001100010100110101000100
011001010110010101100101011001010110010101100101010000010100110101001010
011001010110010101100101011001010110010101100101010001000101000101000111
011001010110010101100101011001010110010101100101011100000111100001100110
011001010110010101100101011001010110010101100101011010110110011101011010
011001010110010101100101011001010110010101100101011101101000101010010101
011001010110010101100101011001010110010101100101010101000110101101101000
011001010110010101100101011001010110010101100101011010100111001001011101
011001010110010101100101011001010110010101100101001110000101010101000110
011001010110010101100101011001010110010101100101001111100110010001100000
011001010110010101100101011001010110010101100101001110000101110101110010
011001010110010101100101011001010110010101100101010000010110100101101000
011001010110010101100101011001010110010101100101010011000110101001100100
011001010110010101100101011001010110010101100101010111000110110001100111
011001010110010101100101011001010110010101100101010110010111001001110000
011001010110010101100101011001010110010101100101010101100111111101111101
011001010110010101100101011001010110010101100101011001011000100110000000
011001010110010101100101011001010110010101100101010111010111010101101011
011001010110010101100101011001010110010101100101010111110110101101011100
011001010110010101100101011001010110010101100101011010101001001010001100
011001010110010101100101011001010110010101100101011111101010011010110000
011001010110010101100101011001010110010101100101011011001000101010000010
011001010110010101100101011001010110010101100101011100111001100110010100
011001010110010101100101011001010110010101100101011010110111111101110010
011001010110010101100101011001010110010101100101011101001001110010010101
011001010110010101100101011001010110010101100101011100111001001110001101
011001010110010101100101011001010110010101100101011011110111100001110001
011001010110010101100101011001010110010101100101011110101001100010010001
011001010110010101100101011001010110010101100101011100100111111001110111
011001010110010101100101011001010110010101100101011001001000001101110000
011001010110010101100101011001010110010101100101011100111001110010001111
011001010110010101100101011001010110010101100101011100111000001001110001
011001010110010101100101011001010110010101100101011101111001100110010001
011001010110010101100101011001010110010101100101011101111001001010000100
011001010110010101100101011001010110010101100101011110011001101010010000
011001010110010101100101011001010110010101100101011101011010001010011011
011001010110010101100101011001010110010101100101011000000110010101010100
011001010110010101100101011001010110010101100101011100001000100101101110
011001010110010101100101011001010110010101100101011011101010001010011010
011001010110010101100101011001010110010101100101100101001001001101111010
011001010110010101100101011001010110010101100101100000101010000110001111
011001010110010101100101011001010110010101100101100000001001011010001011
011001010110010101100101011001010110010101100101011100000111100001101101
011001010110010101100101011001010110010101100101100101011011001010111000
011001010110010101100101011001010110010101100101100100001010101010101101
011001010110010101100101011001010110010101100101011111001001011010001001
011001010110010101100101011001010110010101100101011110101001011110001011
011001010110010101100101011001010110010101100101100011111011000010101111
011001010110010101100101011001010110010101100101100100001000111001110110
011001010110010101100101011001010110010101100101011101011001001001111000
011001010110010101100101011001010110010101100101100001111001101010000011
011001010110010101100101011001010110010101100101100010011010100110010110
011001010110010101100101011001010110010101100101011101001000010101110101
011001010110010101100101011001010110010101100101011111111001110110001001
011001010110010101100101011001010110010101100101011111111001011110000100
011001010110010101100101011001010110010101100101100100111001100110000100
011001010110010101100101011001010110010101100101011100011000101101111011
011001010110010101100101011001010110010101100101100001001001000101111110
011001010110010101100101011001010110010101100101100000011000111101111001
011001010110010101100101011001010110010101100101011110111001001101111110
011001010110010101100101011001010110010101100101011111111001001110000001
011001010110010101100101011001010110010101100101100011011001001110000000
011001010110010101100101011001010110010101100101011001010110010101100101
011001010110010101100101011001010110010101100101100010011000001101101000
011001010110010101100101011001010110010101100101010111110111000001110110
011001010110010101100101011001010110010101100101001101110100110001001101
011001010110010101100101011001010110010101100101001100100100011001000000
011001010110010101100101011001010110010101100101010110100100111100111111
011001010110010101100101011001010110010101100101001110100100000100110010
011001010110010101100101011001010110010101100101001111100100000100110110
011001010110010101100101011001010110010101100101010110100111000110000010
011001010110010101100101011001010110010101100101101001111011001110110010
011001010110010101100101011001010110010101100101001101100100000000110110
011001010110010101100101011001010110010101100101010101110101100101001101
011001010110010101100101011001010110010101100101101000001001100001111010
011001010110010101100101011001010110010101100101011111010111101001010110
011001010110010101100101011001010110010101100101010011000101010001000101
011001010110010101100101011001010110010101100101001110010100101001000010
011001010110010101100101011001010110010101100101010011100111010101111011
011001010110010101100101011001010110010101100101100001001011001010111010
011001010110010101100101011001010110010101100101011011101010100011000000
011001010110010101100101011001010110010101100101001111010101110001100000
011001010110010101100101011001010110010101100101011001010111101101111001
011001010110010101100101011001010110010101100101011000000110011001010111
011001010110010101100101011001010110010101100101001101010101110001010100
011001010110010101100101011001010110010101100101001110000101011001001100
011001010110010101100101011001010110010101100101010000010101110001010000
011001010110010101100101011001010110010101100101010111100110111101100101
011001010110010101100101011001010110010101100101010110110111000101110001
011001010110010101100101011001010110010101100101010110010110010101100000
011001010110010101100101011001010110010101100101010101000110001101010101
011001010110010101100101011001010110010101100101011010010111010001100010
011001010110010101100101011001010110010101100101011100001000001001110110
011001010110010101100101011001010110010101100101011100001000011001110010
011001010110010101100101011001010110010101100101011010011000101110001010
011001010110010101100101011001010110010101100101011001010111010001101001
011001010110010101100101011001010110010101100101011100111000101101111110
011001010110010101100101011001010110010101100101011000000110111101100000
011001010110010101100101011001010110010101100101011011111000111110000011
011001010110010101100101011001010110010101100101011010001000001001110110
011001010110010101100101011001010110010101100101011100001000100101111101
011001010110010101100101011001010110010101100101011011100111001001010011
011001010110010101100101011001010110010101100101011011100111011001100011
011001010110010101100101011001010110010101100101011010111001010010001011
011001010110010101100101011001010110010101100101010111110111011101100011
011001010110010101100101011001010110010101100101011011111000000101110001
011001010110010101100101011001010110010101100101011101001000011001110001
011001010110010101100101011001010110010101100101011100101001000110000011
011001010110010101100101011001010110010101100101011100011000000001101011
011001010110010101100101011001010110010101100101011100001001100010001100
011001010110010101100101011001010110010101100101011111010111110101110001
011001010110010101100101011001010110010101100101011100011000110001111110
011001010110010101100101011001010110010101100101101010011011001110100010
011001010110010101100101011001010110010101100101011001001010001010011000
011001010110010101100101011001010110010101100101011010101010010110011011
011001010110010101100101011001010110010101100101011010011000011001110111
011001010110010101100101011001010110010101100101011010111000100101111000
011001010110010101100101011001010110010101100101011100101001101010001100
011001010110010101100101011001010110010101100101100001101010010110011101
011001010110010101100101011001010110010101100101011101010111000001100001
011001010110010101100101011001010110010101100101100111011010000110011011
011001010110010101100101011001010110010101100101101000011011100110110101
011001010110010101100101011001010110010101100101100000111001101110100000
011001010110010101100101011001010110010101100101011111111001100110001001
011001010110010101100101011001010110010101100101100001011001100110000010
011001010110010101100101011001010110010101100101100000101000110101110101
011001010110010101100101011001010110010101100101100010011010000010001101
011001010110010101100101011001010110010101100101011100001001100010000111
011001010110010101100101011001010110010101100101011110101000110101111001
011001010110010101100101011001010110010101100101100000001001000010000000
011001010110010101100101011001010110010101100101011111101000110101111011
011001010110010101100101011001010110010101100101011100011000001101110010
011001010110010101100101011001010110010101100101011111001000101001110111
011001010110010101100101011001010110010101100101011111101000111101111010
011001010110010101100101011001010110010101100101100010001010010110010100
011001010110010101100101011001010110010101100101011111101010010110010000
011001010110010101100101011001010110010101100101011111001010000110010000
011001010110010101100101011001010110010101100101011001010110010101100101
011001010110010101100101011001010110010101100101010111100110111101110100
011001010110010101100101011001010110010101100101010101110110011101101001
011001010110010101100101011001010110010101100101100011111000011001110110
011001010110010101100101011001010110010101100101001111010101011001010100
011001010110010101100101011001010110010101100101001110110100101001000010
011001010110010101100101011001010110010101100101001110110100001100111010
011001010110010101100101011001010110010101100101010111000110101001110001
011001010110010101100101011001010110010101100101101001101010000010010000
011001010110010101100101011001010110010101100101010100100101001100110110
011001010110010101100101011001010110010101100101010000010100001100110111
011001010110010101100101011001010110010101100101001101010100011001000001
011001010110010101100101011001010110010101100101010000010100010000111011
011001010110010101100101011001010110010101100101010011100101100101001011
011001010110010101100101011001010110010101100101011110100111010101101100
011001010110010101100101011001010110010101100101011110100111100001101100
011001010110010101100101011001010110010101100101010111010111101010001000
011001010110010101100101011001010110010101100101011111001011001111001001
011001010110010101100101011001010110010101100101011100001001110010101111
011001010110010101100101011001010110010101100101010011010110001001100010
011001010110010101100101011001010110010101100101001101010100111101001000
011001010110010101100101011001010110010101100101001110010101110101010111
011001010110010101100101011001010110010101100101001100110110010101100001
011001010110010101100101011001010110010101100101010010000101101001010010
011001010110010101100101011001010110010101100101011000110110100001011010
011001010110010101100101011001010110010101100101011000110111001001101111
011001010110010101100101011001010110010101100101010011000110111001110000
011001010110010101100101011001010110010101100101010100000111100001110010
011001010110010101100101011001010110010101100101010101110111011001101111
011001010110010101100101011001010110010101100101010110000110010101011000
011001010110010101100101011001010110010101100101010011100101110001001001
011001010110010101100101011001010110010101100101011001011000100010000110
011001010110010101100101011001010110010101100101010111101000101010001110
011001010110010101100101011001010110010101100101011010000111101001100111
011001010110010101100101011001010110010101100101011001011000011010000000
011001010110010101100101011001010110010101100101011011011000010101110110
011001010110010101100101011001010110010101100101011000101000001101111101
011001010110010101100101011001010110010101100101011100101000110010000000
011001010110010101100101011001010110010101100101011100010111011101011111
011001010110010101100101011001010110010101100101011111110111011101100001
011001010110010101100101011001010110010101100101011110101001111010011010
011001010110010101100101011001010110010101100101011101101001101110010000
011001010110010101100101011001010110010101100101010111000111010001011111
011001010110010101100101011001010110010101100101011000100111011001100010
011001010110010101100101011001010110010101100101011010001000100101111001
011001010110010101100101011001010110010101100101011010010111011001100001
011001010110010101100101011001010110010101100101011100101000100001110110
011001010110010101100101011001010110010101100101010111011000100101111100
011001010110010101100101011001010110010101100101010100000110100101011101
011001010110010101100101011001010110010101100101010110101001001010001001
011001010110010101100101011001010110010101100101010111001000101001111010
011001010110010101100101011001010110010101100101010101110111010001100100
011001010110010101100101011001010110010101100101010110101000110101111111
011001010110010101100101011001010110010101100101011011001001000001111111
011001010110010101100101011001010110010101100101011011100111100101011111
011001010110010101100101011001010110010101100101011100101010000110010011
011001010110010101100101011001010110010101100101011111101001100110000110
011001010110010101100101011001010110010101100101100100011001111110010000
011001010110010101100101011001010110010101100101011111111000100001110110
011001010110010101100101011001010110010101100101100110001001100010001110
011001010110010101100101011001010110010101100101100100011000011001101000
011001010110010101100101011001010110010101100101011010100111111101111010
011001010110010101100101011001010110010101100101100110011000100101101011
011001010110010101100101011001010110010101100101011101100110110101010001
011001010110010101100101011001010110010101100101100000100111100101011010
011001010110010101100101011001010110010101100101011111111000011001101111
011001010110010101100101011001010110010101100101011110110111111001100111
011001010110010101100101011001010110010101100101011111111001100010000100
011001010110010101100101011001010110010101100101011011111001001110000000
011001010110010101100101011001010110010101100101100011011010000010001110
011001010110010101100101011001010110010101100101100000101001101010001010
011001010110010101100101011001010110010101100101100010101001111110001110
011001010110010101100101011001010110010101100101100011001001110010000110
011001010110010101100101011001010110010101100101011101101000011001110100
011001010110010101100101011001010110010101100101100010001000101101111001
011001010110010101100101011001010110010101100101011001010110010101100101
011001010110010101100101011001010110010101100101101110011010001110011110
011001010110010101100101011001010110010101100101011001010111101001111001
011001010110010101100101011001010110010101100101011111001010100010110110
011001010110010101100101011001010110010101100101001110100100111101010110
011001010110010101100101011001010110010101100101011000110110111001100011
011001010110010101100101011001010110010101100101010010010110010001100100
011001010110010101100101011001010110010101100101101000001010010110101000
011001010110010101100101011001010110010101100101001110110100110000111100
011001010110010101100101011001010110010101100101001110000100010000111010
011001010110010101100101011001010110010101100101011001000110010001010110
011001010110010101100101011001010110010101100101011110010111010001010011
011001010110010101100101011001010110010101100101011100000111010001011001
011001010110010101100101011001010110010101100101011000111000000010001010
011001010110010101100101011001010110010101100101011111011001101110100011
011001010110010101100101011001010110010101100101010010110101111101010110
011001010110010101100101011001010110010101100101100001101010010010101111
011001010110010101100101011001010110010101100101100100111011010111000100
011001010110010101100101011001010110010101100101011101000111110101110100
011001010110010101100101011001010110010101100101100011111000010101101110
011001010110010101100101011001010110010101100101010101110110100001011011
011001010110010101100101011001010110010101100101001111100101111101011010
011001010110010101100101011001010110010101100101001111000101110001010010
011001010110010101100101011001010110010101100101010111010111101001110111
011001010110010101100101011001010110010101100101010011000110111001101011
011001010110010101100101011001010110010101100101010100000110011101011111
011001010110010101100101011001010110010101100101010011000110000001011011
011001010110010101100101011001010110010101100101011011000110100101010011
011001010110010101100101011001010110010101100101010111010110111101100011
011001010110010101100101011001010110010101100101011000111000100001111101
011001010110010101100101011001010110010101100101011001001000101010000010
011001010110010101100101011001010110010101100101011111011010001110110101
011001010110010101100101011001010110010101100101010100010111010101100100
011001010110010101100101011001010110010101100101011001001000100001111100
011001010110010101100101011001010110010101100101011010111001000110001100
011001010110010101100101011001010110010101100101010111100110111101100010
011001010110010101100101011001010110010101100101011011001001011010001100
011001010110010101100101011001010110010101100101011001010111000101100000
011001010110010101100101011001010110010101100101011011000111000101011101
011001010110010101100101011001010110010101100101011111010111001001011111
011001010110010101100101011001010110010101100101011100101000110110000110
011001010110010101100101011001010110010101100101011100011000100101111010
011001010110010101100101011001010110010101100101011001110111111101101101
011001010110010101100101011001010110010101100101011100101001011110001100
011001010110010101100101011001010110010101100101011100011001000010000010
011001010110010101100101011001010110010101100101011011000111000001010110
011001010110010101100101011001010110010101100101011000001000000101110101
011001010110010101100101011001010110010101100101010111100110110101100001
011001010110010101100101011001010110010101100101011011101001101010010011
011001010110010101100101011001010110010101100101011010101000010101110101
011001010110010101100101011001010110010101100101011011010110111101010011
011001010110010101100101011001010110010101100101011011010110010001001000
011001010110010101100101011001010110010101100101010111110110010001001001
011001010110010101100101011001010110010101100101010111010110111101100000
011001010110010101100101011001010110010101100101011011001000000101101101
011001010110010101100101011001010110010101100101010110100111010001100001
011001010110010101100101011001010110010101100101011000000111010001011110
011001010110010101100101011001010110010101100101011010110110111001011000
011001010110010101100101011001010110010101100101011011010110110101101001
011001010110010101100101011001010110010101100101011001000111011001100010
011001010110010101100101011001010110010101100101011111100111011001100110
011001010110010101100101011001010110010101100101011010100110010001010111
011001010110010101100101011001010110010101100101100000101000001001101111
011001010110010101100101011001010110010101100101011100000111100101100011
011001010110010101100101011001010110010101100101011100100111110001100011
011001010110010101100101011001010110010101100101011111101000000101100011
011001010110010101100101011001010110010101100101011100110111010001011110
011001010110010101100101011001010110010101100101011100110111110101100111
011001010110010101100101011001010110010101100101011101010111011001100010
011001010110010101100101011001010110010101100101100010101000101101101111
011001010110010101100101011001010110010101100101011010110111110101100011
011001010110010101100101011001010110010101100101100010001001000001111100
011001010110010101100101011001010110010101100101011111101000100101101111
011001010110010101100101011001010110010101100101100001101001011101111111
011001010110010101100101011001010110010101100101100001001000101001110010
011001010110010101100101011001010110010101100101011001010110010101100101
011001010110010101100101011001010110010101100101010001100100011101000011
011001010110010101100101011001010110010101100101010011100110000001101100
011001010110010101100101011001010110010101100101010101110110110101101111
011001010110010101100101011001010110010101100101010110000111010101110111
011001010110010101100101011001010110010101100101011000011000111010100010
011001010110010101100101011001010110010101100101010011110101110001011000
011001010110010101100101011001010110010101100101011111000111100101100111
011001010110010101100101011001010110010101100101100001100111110101100010
011001010110010101100101011001010110010101100101010011110100111000111001
011001010110010101100101011001010110010101100101010000110100011100111011
011001010110010101100101011001010110010101100101010111000110010001011101
011001010110010101100101011001010110010101100101100000011000110001111101
011001010110010101100101011001010110010101100101100001101000110101111111
011001010110010101100101011001010110010101100101101000001100111011010010
011001010110010101100101011001010110010101100101100001011011000111000100
011001010110010101100101011001010110010101100101110100111101011011010100
011001010110010101100101011001010110010101100101010100010111101110101000
011001010110010101100101011001010110010101100101010010100101010101001111
011001010110010101100101011001010110010101100101010010110101011101001010
011001010110010101100101011001010110010101100101011000010111100001101111
011001010110010101100101011001010110010101100101011001110111110001101011
011001010110010101100101011001010110010101100101011111111001000110001000
011001010110010101100101011001010110010101100101010000100110101001101000
011001010110010101100101011001010110010101100101001111110110001101100000
011001010110010101100101011001010110010101100101001111000110010101011100
011001010110010101100101011001010110010101100101010001010111011101110110
011001010110010101100101011001010110010101100101010011100111001001110011
011001010110010101100101011001010110010101100101010110010111101001110000
011001010110010101100101011001010110010101100101010101110111010001100001
011001010110010101100101011001010110010101100101010101110110110101100001
011001010110010101100101011001010110010101100101010110010111001001101100
011001010110010101100101011001010110010101100101011001000111110001101000
011001010110010101100101011001010110010101100101011011101000100001111001
011001010110010101100101011001010110010101100101011000000110111101011110
011001010110010101100101011001010110010101100101011001111000111010000010
011001010110010101100101011001010110010101100101011011000111110001110000
011001010110010101100101011001010110010101100101011011111001100010010000
011001010110010101100101011001010110010101100101011011111000101001111100
011001010110010101100101011001010110010101100101011011110110101001011000
011001010110010101100101011001010110010101100101100000101001100110010010
011001010110010101100101011001010110010101100101011001010111010101011011
011001010110010101100101011001010110010101100101011000110111001001011101
011001010110010101100101011001010110010101100101011110011001001110000110
011001010110010101100101011001010110010101100101011011011001001110001100
011001010110010101100101011001010110010101100101011000100111100001100111
011001010110010101100101011001010110010101100101011010100101101101000101
011001010110010101100101011001010110010101100101010110100100100100101001
011001010110010101100101011001010110010101100101011010100111101101101111
011001010110010101100101011001010110010101100101010100000110110001011101
011001010110010101100101011001010110010101100101010110110111110101101111
011001010110010101100101011001010110010101100101011000101000001001110111
011001010110010101100101011001010110010101100101011000101001010010001001
011001010110010101100101011001010110010101100101010110000111011001100001
011001010110010101100101011001010110010101100101011000110110101101010000
011001010110010101100101011001010110010101100101011001000111000101010110
011001010110010101100101011001010110010101100101011011111000010101110001
011001010110010101100101011001010110010101100101010111100111101101100111
011001010110010101100101011001010110010101100101011001010111111001101110
011001010110010101100101011001010110010101100101010010110111110001110110
011001010110010101100101011001010110010101100101011101001000000101110110
011001010110010101100101011001010110010101100101010111000110011001100111
011001010110010101100101011001010110010101100101011010010110111101100110
011001010110010101100101011001010110010101100101011100111000111001111110
011001010110010101100101011001010110010101100101100001101001101110000111
011001010110010101100101011001010110010101100101011110011000110001110101
011001010110010101100101011001010110010101100101100000011001011110000001
011001010110010101100101011001010110010101100101011010101000100001111000
011001010110010101100101011001010110010101100101010111011000000101110001
011001010110010101100101011001010110010101100101100000101001001010000000
011001010110010101100101011001010110010101100101011100010111110101100100
011001010110010101100101011001010110010101100101100100001000100101101111
011001010110010101100101011001010110010101100101100011011000100001110001
011001010110010101100101011001010110010101100101100001111000011001101001
011001010110010101100101011001010110010101100101011110111000001101100111
011001010110010101100101011001010110010101100101011001010110010101100101
011001010110010101100101011001010110010101100101010110100110000001100101
011001010110010101100101011001010110010101100101100101001000101001101110
011001010110010101100101011001010110010101100101010100100110101001101111
011001010110010101100101011001010110010101100101001111110110011101101100
011001010110010101100101011001010110010101100101010110100110111101110100
011001010110010101100101011001010110010101100101011101011001101010011111
011001010110010101100101011001010110010101100101011000110111000001110010
011001010110010101100101011001010110010101100101010011000101111101100011
011001010110010101100101011001010110010101100101010110100101100101010001
011001010110010101100101011001010110010101100101100011001000001101101111
011001010110010101100101011001010110010101100101011011011000111010001111
011001010110010101100101011001010110010101100101100000111010111010110011
011001010110010101100101011001010110010101100101100001101100010011001111
011001010110010101100101011001010110010101100101100100011100011011010010
011001010110010101100101011001010110010101100101101101111100000110110110
011001010110010101100101011001010110010101100101101000001001011010000001
011001010110010101100101011001010110010101100101100111011001000101111001
011001010110010101100101011001010110010101100101011001000110100001010010
011001010110010101100101011001010110010101100101010010110110010101011100
011001010110010101100101011001010110010101100101010011010110011101100011
011001010110010101100101011001010110010101100101101000111011111110111110
011001010110010101100101011001010110010101100101011010000111000101011011
011001010110010101100101011001010110010101100101010110100110100101011001
011001010110010101100101011001010110010101100101011011000110111101100000
011001010110010101100101011001010110010101100101010010110111100001111001
011001010110010101100101011001010110010101100101010011010111100001111011
011001010110010101100101011001010110010101100101010101100111110101111111
011001010110010101100101011001010110010101100101010101111000000001111011
011001010110010101100101011001010110010101100101011000101001000010010110
011001010110010101100101011001010110010101100101011100011001100010100111
011001010110010101100101011001010110010101100101011001001001000010001110
011001010110010101100101011001010110010101100101010111100111000001100010
011001010110010101100101011001010110010101100101010110110111101001101001
011001010110010101100101011001010110010101100101011010111000110110000011
011001010110010101100101011001010110010101100101011001010111010001011111
011001010110010101100101011001010110010101100101011010110111110101101011
011001010110010101100101011001010110010101100101011010001000001101110100
011001010110010101100101011001010110010101100101011101011001011010001011
011001010110010101100101011001010110010101100101100001111001001101111110
011001010110010101100101011001010110010101100101100001011010100110101001
011001010110010101100101011001010110010101100101011001110111000001100110
011001010110010101100101011001010110010101100101100100111010001110010101
011001010110010101100101011001010110010101100101010111111000000001110010
011001010110010101100101011001010110010101100101011000010100111100111011
011001010110010101100101011001010110010101100101010110000110000001001101
011001010110010101100101011001010110010101100101011000010110101001011000
011001010110010101100101011001010110010101100101011000010101110101000011
011001010110010101100101011001010110010101100101011101000111111101100101
011001010110010101100101011001010110010101100101100000001000010101100110
011001010110010101100101011001010110010101100101010111100111110101101110
011001010110010101100101011001010110010101100101011010010111110001111001
011001010110010101100101011001010110010101100101011100011001100010001101
011001010110010101100101011001010110010101100101011000101000001001101100
011001010110010101100101011001010110010101100101010100000111110001101011
011001010110010101100101011001010110010101100101011010011001000001111010
011001010110010101100101011001010110010101100101011100101000101101110110
011001010110010101100101011001010110010101100101011100101000011001110001
011001010110010101100101011001010110010101100101011101011000111101111000
011001010110010101100101011001010110010101100101011010111000011101110011
011001010110010101100101011001010110010101100101100001101001011110000011
011001010110010101100101011001010110010101100101100000001000110001111010
011001010110010101100101011001010110010101100101100001011000110101111001
011001010110010101100101011001010110010101100101011111011001011010000011
011001010110010101100101011001010110010101100101011111111000110101111000
011001010110010101100101011001010110010101100101011110111001010001111100
011001010110010101100101011001010110010101100101100010001010000010001100
011001010110010101100101011001010110010101100101100000111001101110001010
011001010110010101100101011001010110010101100101011011001000101101110111
011001010110010101100101011001010110010101100101011110111000110101111001
011001010110010101100101011001010110010101100101011101101000100101110001
011001010110010101100101011001010110010101100101011111011000011101110100
011001010110010101100101011001010110010101100101011111011000011001110101
011001010110010101100101011001010110010101100101011011100111110001101011
011001010110010101100101011001010110010101100101100000110111111001100011
011001010110010101100101011001010110010101100101011001010110010101100101
011001010110010101100101011001010110010101100101010110010110010101010101
011001010110010101100101011001010110010101100101010010100111000001111101
011001010110010101100101011001010110010101100101010010100110100101111100
011001010110010101100101011001010110010101100101011101011000000101101100
011001010110010101100101011001010110010101100101010111110111111010001001
011001010110010101100101011001010110010101100101001111000100110001001000
011001010110010101100101011001010110010101100101011101101000001110000001
011001010110010101100101011001010110010101100101011011000110011001000110
011001010110010101100101011001010110010101100101010100100100111101000100
011001010110010101100101011001010110010101100101001111110100001100111010
011001010110010101100101011001010110010101100101011011100110110001010100
011001010110010101100101011001010110010101100101011011010111111001110100
011001010110010101100101011001010110010101100101110101001110000111011110
011001010110010101100101011001010110010101100101100010011010110111000001
011001010110010101100101011001010110010101100101110000111100111111010000
011001010110010101100101011001010110010101100101011101101000011110011011
011001010110010101100101011001010110010101100101100001011000011101111000
011001010110010101100101011001010110010101100101100000001000001001110011
011001010110010101100101011001010110010101100101101011011011101010101011
011001010110010101100101011001010110010101100101101011001011010110100010
011001010110010101100101011001010110010101100101010111100110101001011100
011001010110010101100101011001010110010101100101010011110110111001100101
011001010110010101100101011001010110010101100101010101100111000001100101
011001010110010101100101011001010110010101100101011000100110100101001100
011001010110010101100101011001010110010101100101011011100111000101011000
011001010110010101100101011001010110010101100101010110100110101001100001
011001010110010101100101011001010110010101100101010101010111010001101001
011001010110010101100101011001010110010101100101010110110111110101110011
011001010110010101100101011001010110010101100101010100000110011001011001
011001010110010101100101011001010110010101100101010101000110001001011000
011001010110010101100101011001010110010101100101010110110110101101010001
011001010110010101100101011001010110010101100101011001010111100001101110
011001010110010101100101011001010110010101100101011001111000111010000100
011001010110010101100101011001010110010101100101010101010111011001101011
011001010110010101100101011001010110010101100101010101000111010001100101
011001010110010101100101011001010110010101100101011010001000001101110100
011001010110010101100101011001010110010101100101011000011000011101111110
011001010110010101100101011001010110010101100101010111100110110101010001
011001010110010101100101011001010110010101100101011011110110111001010100
011001010110010101100101011001010110010101100101011001110111000101011111
011001010110010101100101011001010110010101100101011100110111010001011111
011001010110010101100101011001010110010101100101011000100111001001100000
011001010110010101100101011001010110010101100101010101110111011001110001
011001010110010101100101011001010110010101100101010111011001001010001101
011001010110010101100101011001010110010101100101010111001001010010001010
011001010110010101100101011001010110010101100101010111111001001110001010
011001010110010101100101011001010110010101100101011010101001100010010001
011001010110010101100101011001010110010101100101011011011001110010011011
011001010110010101100101011001010110010101100101011111111001011010000111
011001010110010101100101011001010110010101100101011010011000001101101110
011001010110010101100101011001010110010101100101011010010111110101100110
011001010110010101100101011001010110010101100101011100001000000101101011
011001010110010101100101011001010110010101100101011010011000011001110101
011001010110010101100101011001010110010101100101011101011001101110001101
011001010110010101100101011001010110010101100101011000111001011110001010
011001010110010101100101011001010110010101100101011010101001101010001100
011001010110010101100101011001010110010101100101011100101001101010001101
011001010110010101100101011001010110010101100101011100001001011010001000
011001010110010101100101011001010110010101100101011100001001101110001000
011001010110010101100101011001010110010101100101011011101001101010001100
011001010110010101100101011001010110010101100101011110111001100010001010
011001010110010101100101011001010110010101100101100001001001110110001011
011001010110010101100101011001010110010101100101100000001001100010000000
011001010110010101100101011001010110010101100101011110101000110001111000
011001010110010101100101011001010110010101100101011110011001001110000001
011001010110010101100101011001010110010101100101011110101001110010001100
011001010110010101100101011001010110010101100101011101001001110110001011
011001010110010101100101011001010110010101100101011010111001001110000000
011001010110010101100101011001010110010101100101100001011001100010000110
011001010110010101100101011001010110010101100101011010101000111101111100
011001010110010101100101011001010110010101100101011111101001100010000100
011001010110010101100101011001010110010101100101011010011001011010000010
011001010110010101100101011001010110010101100101100000101001110010001010
011001010110010101100101011001010110010101100101100010001001000001111100
011001010110010101100101011001010110010101100101011001010110010101100101
011001010110010101100101011001010110010101100101010111000110101001101100
011001010110010101100101011001010110010101100101011101111000000001101110
011001010110010101100101011001010110010101100101010010000101100101010101
011001010110010101100101011001010110010101100101100111111011010011001100
011001010110010101100101011001010110010101100101010101000110100101100011
011001010110010101100101011001010110010101100101010100010100101000111111
011001010110010101100101011001010110010101100101010000100101001101001000
011001010110010101100101011001010110010101100101010001100100111001000111
011001010110010101100101011001010110010101100101011111000111011101110000
011001010110010101100101011001010110010101100101011010010110100001010001
011001010110010101100101011001010110010101100101010101010110111001101001
011001010110010101100101011001010110010101100101011101111001100010101000
011001010110010101100101011001010110010101100101101011101101111011010111
011001010110010101100101011001010110010101100101111001101101011111000000
011001010110010101100101011001010110010101100101011101100110011001001001
011001010110010101100101011001010110010101100101100011111001100010010011
011001010110010101100101011001010110010101100101101101001101000011000111
011001010110010101100101011001010110010101100101010111110111010101110001
011001010110010101100101011001010110010101100101111000111110111011100100
011001010110010101100101011001010110010101100101011100110111101001100111
011001010110010101100101011001010110010101100101011100110111011001011100
011001010110010101100101011001010110010101100101010100100110110101101000
011001010110010101100101011001010110010101100101010100100110010001010101
011001010110010101100101011001010110010101100101010101100111100001101110
011001010110010101100101011001010110010101100101010110110110001101001111
011001010110010101100101011001010110010101100101011000110111000001100110
011001010110010101100101011001010110010101100101011000010111110101110001
011001010110010101100101011001010110010101100101011001111000000101110111
011001010110010101100101011001010110010101100101010111000111011101101110
011001010110010101100101011001010110010101100101011001111000011101111111
011001010110010101100101011001010110010101100101011011001000000101111010
011001010110010101100101011001010110010101100101010111010110110101011101
011001010110010101100101011001010110010101100101011000010111011001011111
011001010110010101100101011001010110010101100101011000000111011101100110
011001010110010101100101011001010110010101100101011011111000110101111001
011001010110010101100101011001010110010101100101010111000110111001010111
011001010110010101100101011001010110010101100101011000101001001110001000
011001010110010101100101011001010110010101100101011011100111101101101011
011001010110010101100101011001010110010101100101100000011000001001101001
011001010110010101100101011001010110010101100101011010100111100001100000
011001010110010101100101011001010110010101100101100000101011011111000000
011001010110010101100101011001010110010101100101010101111000000001111000
011001010110010101100101011001010110010101100101010011110111100101101101
011001010110010101100101011001010110010101100101010110101000000001101101
011001010110010101100101011001010110010101100101011010001000100101111110
011001010110010101100101011001010110010101100101011010101000100001111010
011001010110010101100101011001010110010101100101010111110111101101101011
011001010110010101100101011001010110010101100101011001011000011110000001
011001010110010101100101011001010110010101100101011010001000100001111010
011001010110010101100101011001010110010101100101010111111000100001111010
011001010110010101100101011001010110010101100101011011011001000010000011
011001010110010101100101011001010110010101100101011001011000111001111111
011001010110010101100101011001010110010101100101011011101000001101101101
011001010110010101100101011001010110010101100101011100101000011101110011
011001010110010101100101011001010110010101100101011010011000101001111010
011001010110010101100101011001010110010101100101011010101001010010000100
011001010110010101100101011001010110010101100101011010111001110010001111
011001010110010101100101011001010110010101100101011001011001100110001010
011001010110010101100101011001010110010101100101011010111001110010001010
011001010110010101100101011001010110010101100101011001111001110010001110
011001010110010101100101011001010110010101100101011100001000101010000010
011001010110010101100101011001010110010101100101011111001001101110001101
011001010110010101100101011001010110010101100101011011001001010010000110
011001010110010101100101011001010110010101100101100000011001011001111110
011001010110010101100101011001010110010101100101011110011001100110000111
011001010110010101100101011001010110010101100101011011001001001110000001
011001010110010101100101011001010110010101100101011111101001101110001001
011001010110010101100101011001010110010101100101011110101001011110000001
011001010110010101100101011001010110010101100101011100111001001110000001
011001010110010101100101011001010110010101100101011011001001000101111011
011001010110010101100101011001010110010101100101100000101001110010000110
011001010110010101100101011001010110010101100101011101011001101010000111
011001010110010101100101011001010110010101100101011011001001010010000011
011001010110010101100101011001010110010101100101011111001001001110000001
011001010110010101100101011001010110010101100101011001010110010101100101
011001010110010101100101011001010110010101100101011011100110111101011101
011001010110010101100101011001010110010101100101010101100111111110010110
011001010110010101100101011001010110010101100101010111000111001010001110
011001010110010101100101011001010110010101100101011010000110111101011010
011001010110010101100101011001010110010101100101011011001001100110011011
011001010110010101100101011001010110010101100101010011010101100001010000
011001010110010101100101011001010110010101100101011011110111000101101100
011001010110010101100101011001010110010101100101100010001000001101101000
011001010110010101100101011001010110010101100101010011000100111001000101
011001010110010101100101011001010110010101100101100000101000100101111011
011001010110010101100101011001010110010101100101011000010110101101111000
011001010110010101100101011001010110010101100101011100001001101010100000
011001010110010101100101011001010110010101100101100010101011010010111010
011001010110010101100101011001010110010101100101100111011010100110101011
011001010110010101100101011001010110010101100101100010001001001010011101
011001010110010101100101011001010110010101100101101110111011110010110010
011001010110010101100101011001010110010101100101011001000111111010000000
011001010110010101100101011001010110010101100101110101001101111011010001
011001010110010101100101011001010110010101100101010101000101110001010001
011001010110010101100101011001010110010101100101010110100101111001010011
011001010110010101100101011001010110010101100101011010000111010101100110
011001010110010101100101011001010110010101100101011110011000000001110000
011001010110010101100101011001010110010101100101011010010110111101011101
011001010110010101100101011001010110010101100101010110110111000001100100
011001010110010101100101011001010110010101100101010111010111100101101111
011001010110010101100101011001010110010101100101011010100111001001100101
011001010110010101100101011001010110010101100101010010110100110100110111
011001010110010101100101011001010110010101100101010110110110011101010100
011001010110010101100101011001010110010101100101010100010101110101000111
011001010110010101100101011001010110010101100101010110010101110101001100
011001010110010101100101011001010110010101100101010110100110011101011001
011001010110010101100101011001010110010101100101010111111000001010000010
011001010110010101100101011001010110010101100101011000101000110110000111
011001010110010101100101011001010110010101100101011010011000011001111011
011001010110010101100101011001010110010101100101011000110111101001101001
011001010110010101100101011001010110010101100101011010101000001101110110
011001010110010101100101011001010110010101100101010111110111011001101000
011001010110010101100101011001010110010101100101100001101000010101110010
011001010110010101100101011001010110010101100101011111100111100001011110
011001010110010101100101011001010110010101100101011000110111101001101011
011001010110010101100101011001010110010101100101001111100101101001010001
011001010110010101100101011001010110010101100101010101001000110010000100
011001010110010101100101011001010110010101100101010110111000111110000110
011001010110010101100101011001010110010101100101010100101001000010000100
011001010110010101100101011001010110010101100101011000101001011010001101
011001010110010101100101011001010110010101100101011000001001011110001110
011001010110010101100101011001010110010101100101011011011001100010010001
011001010110010101100101011001010110010101100101011001111001010010001111
011001010110010101100101011001010110010101100101011011101000101001111010
011001010110010101100101011001010110010101100101011111111000111101111101
011001010110010101100101011001010110010101100101011011101000010101110001
011001010110010101100101011001010110010101100101011010101000000101101011
011001010110010101100101011001010110010101100101011101001001000001111100
011001010110010101100101011001010110010101100101011011101001001101111111
011001010110010101100101011001010110010101100101011100111000110001111000
011001010110010101100101011001010110010101100101011110111001001001111100
011001010110010101100101011001010110010101100101011100011000011101110010
011001010110010101100101011001010110010101100101011001111000011101110111
011001010110010101100101011001010110010101100101011100011001011110000110
011001010110010101100101011001010110010101100101011101111001110010001101
011001010110010101100101011001010110010101100101011100110111111001111011
011001010110010101100101011001010110010101100101011111111010001010011000
011001010110010101100101011001010110010101100101011100101001011110000111
011001010110010101100101011001010110010101100101011100101000110001111000
011001010110010101100101011001010110010101100101011101001001001001111110
011001010110010101100101011001010110010101100101011010111001010010000001
011001010110010101100101011001010110010101100101100000011001010010000011
011001010110010101100101011001010110010101100101011101011000111101111010
011001010110010101100101011001010110010101100101011101001000110001111100
011001010110010101100101011001010110010101100101011100011000101001111001
011001010110010101100101011001010110010101100101011110111001011110000110
011001010110010101100101011001010110010101100101011100111001100010001001
011001010110010101100101011001010110010101100101011100101001011110000110
011001010110010101100101011001010110010101100101011100011001010010000011
011001010110010101100101011001010110010101100101011001010110010101100101
011001010110010101100101011001010110010101100101011010001001111010111101
011001010110010101100101011001010110010101100101010110010110101101110110
011001010110010101100101011001010110010101100101010010100101101001011001
011001010110010101100101011001010110010101100101010000010101011101010100
011001010110010101100101011001010110010101100101010001110101101001010011
011001010110010101100101011001010110010101100101011000110101111001010110
011001010110010101100101011001010110010101100101010011110110101001101000
011001010110010101100101011001010110010101100101011010100111101101111111
011001010110010101100101011001010110010101100101101010101010001110011000
011001010110010101100101011001010110010101100101010111110110110110000011
011001010110010101100101011001010110010101100101010001100101100001001111
011001010110010101100101011001010110010101100101011111001010010010110100
011001010110010101100101011001010110010101100101100010101001000010000110
011001010110010101100101011001010110010101100101011010010111101101101100
011001010110010101100101011001010110010101100101011001001000010110001101
011001010110010101100101011001010110010101100101101010101011000110101010
011001010110010101100101011001010110010101100101110000001101000011000010
011001010110010101100101011001010110010101100101100000110111111101100000
011001010110010101100101011001010110010101100101011100110110111101010000
011001010110010101100101011001010110010101100101010101110110100101011110
011001010110010101100101011001010110010101100101010110110111000101101001
011001010110010101100101011001010110010101100101010111000110110101100000
011001010110010101100101011001010110010101100101011001110110011001010011
011001010110010101100101011001010110010101100101011000100110100101010010
011001010110010101100101011001010110010101100101010111010111011001110000
011001010110010101100101011001010110010101100101010100000101100001001000
011001010110010101100101011001010110010101100101010111010111010101100101
011001010110010101100101011001010110010101100101011000000111011101100110
011001010110010101100101011001010110010101100101011000010111011101100100
011001010110010101100101011001010110010101100101011010010111100101100110
011001010110010101100101011001010110010101100101011001110111110001110000
011001010110010101100101011001010110010101100101011101101001000001111101
011001010110010101100101011001010110010101100101011001011000100001111010
011001010110010101100101011001010110010101100101010101100110001001001101
011001010110010101100101011001010110010101100101011010001001011110001110
011001010110010101100101011001010110010101100101011100011001000010001010
011001010110010101100101011001010110010101100101011011101001001110001011
011001010110010101100101011001010110010101100101100010011001011010000010
011001010110010101100101011001010110010101100101011101000110101001010010
011001010110010101100101011001010110010101100101011011101000011101111001
011001010110010101100101011001010110010101100101010111001000101101111111
011001010110010101100101011001010110010101100101010001000111010001101011
011001010110010101100101011001010110010101100101010110011000000001110010
011001010110010101100101011001010110010101100101010111111000110101111100
011001010110010101100101011001010110010101100101010101101000100001111000
011001010110010101100101011001010110010101100101010111001000110001111110
011001010110010101100101011001010110010101100101010111101000100001111011
011001010110010101100101011001010110010101100101011001001000110010000010
011001010110010101100101011001010110010101100101011000101000101101111101
011001010110010101100101011001010110010101100101011010001000100101111010
011001010110010101100101011001010110010101100101011011101000100101110100
011001010110010101100101011001010110010101100101011001011000110001111011
011001010110010101100101011001010110010101100101011000101000111001111111
011001010110010101100101011001010110010101100101011010111001011110000010
011001010110010101100101011001010110010101100101011010011001101010001100
011001010110010101100101011001010110010101100101011011001001110010001010
011001010110010101100101011001010110010101100101011011011001101110001001
011001010110010101100101011001010110010101100101011101011001100110000011
011001010110010101100101011001010110010101100101011100011001000001111100
011001010110010101100101011001010110010101100101011000101000011101110111
011001010110010101100101011001010110010101100101011011110111110001110110
011001010110010101100101011001010110010101100101011101111001000110001000
011001010110010101100101011001010110010101100101011111101001011110000100
011001010110010101100101011001010110010101100101011101011000110001110111
011001010110010101100101011001010110010101100101011011101001100010000110
011001010110010101100101011001010110010101100101011111001001101110001101
011001010110010101100101011001010110010101100101011111011001100110001010
011001010110010101100101011001010110010101100101011001111000101101111000
011001010110010101100101011001010110010101100101011101111001000101111100
011001010110010101100101011001010110010101100101011110011001001110000001
011001010110010101100101011001010110010101100101011110011001010010000011
011001010110010101100101011001010110010101100101011101101001001001111111
011001010110010101100101011001010110010101100101011011001001001110000010
011001010110010101100101011001010110010101100101011011101001001010000001
011001010110010101100101011001010110010101100101011001010110010101100101
011001010110010101100101011001010110010101100101100000000111111001101101
011001010110010101100101011001010110010101100101001111000101011101010100
011001010110010101100101011001010110010101100101010000010101000101000101
011001010110010101100101011001010110010101100101011000100110010001010001
011001010110010101100101011001010110010101100101010000110100111101000111
011001010110010101100101011001010110010101100101010001110101010101001100
011001010110010101100101011001010110010101100101011010000110011101011111
011001010110010101100101011001010110010101100101010001110100111001000000
011001010110010101100101011001010110010101100101001110100100101001000100
011001010110010101100101011001010110010101100101011111110111101001100101
011001010110010101100101011001010110010101100101011011111000100110010101
011001010110010101100101011001010110010101100101001111010110100101110111
011001010110010101100101011001010110010101100101100111111001101010011011
011001010110010101100101011001010110010101100101100011011000111010000001
011001010110010101100101011001010110010101100101111110101110111011100000
011001010110010101100101011001010110010101100101110011111110010111100010
011001010110010101100101011001010110010101100101010110000110101001100000
011001010110010101100101011001010110010101100101011001110110110001011001
011001010110010101100101011001010110010101100101100010101000001001100101
011001010110010101100101011001010110010101100101011000010110011001011001
011001010110010101100101011001010110010101100101010111010110110001011000
011001010110010101100101011001010110010101100101010101010110010001010100
011001010110010101100101011001010110010101100101010111100111011001101110
011001010110010101100101011001010110010101100101011000010110011101010101
011001010110010101100101011001010110010101100101011000000110110101010011
011001010110010101100101011001010110010101100101011000000111111001110110
011001010110010101100101011001010110010101100101010111101000001001111100
011001010110010101100101011001010110010101100101011001001000010110000001
011001010110010101100101011001010110010101100101010110010111011101110000
011001010110010101100101011001010110010101100101011001011000010101111110
011001010110010101100101011001010110010101100101010110110101110101010001
011001010110010101100101011001010110010101100101010101100110101101100001
011001010110010101100101011001010110010101100101011011111000101001111111
011001010110010101100101011001010110010101100101011011010111111101111011
011001010110010101100101011001010110010101100101011011000111101101100110
011001010110010101100101011001010110010101100101010110100110100001010110
011001010110010101100101011001010110010101100101011000101000111110000011
011001010110010101100101011001010110010101100101010110110110011101010011
011001010110010101100101011001010110010101100101011101100110110001010110
011001010110010101100101011001010110010101100101011100111000000001101110
011001010110010101100101011001010110010101100101011010101000101101111110
011001010110010101100101011001010110010101100101010101111000110010000110
011001010110010101100101011001010110010101100101011000001001000010000100
011001010110010101100101011001010110010101100101011010101001011110001010
011001010110010101100101011001010110010101100101010111001000111110000100
011001010110010101100101011001010110010101100101010111111000110010000000
011001010110010101100101011001010110010101100101010111011000100101111010
011001010110010101100101011001010110010101100101011000101000100001110101
011001010110010101100101011001010110010101100101011101011000101101110101
011001010110010101100101011001010110010101100101011000101000000101110010
011001010110010101100101011001010110010101100101010110100111101101101001
011001010110010101100101011001010110010101100101011100100111111101101000
011001010110010101100101011001010110010101100101011100111000101001111000
011001010110010101100101011001010110010101100101011010101000001001110010
011001010110010101100101011001010110010101100101011001111001000101111110
011001010110010101100101011001010110010101100101011011001001011110001000
011001010110010101100101011001010110010101100101011110101010010110100011
011001010110010101100101011001010110010101100101011011001001110110001101
011001010110010101100101011001010110010101100101011100001001111010010010
011001010110010101100101011001010110010101100101011110011001101110011000
011001010110010101100101011001010110010101100101011111001001111110011101
011001010110010101100101011001010110010101100101011011001001011010000011
011001010110010101100101011001010110010101100101011110101001001110000001
011001010110010101100101011001010110010101100101011111011001011010000011
011001010110010101100101011001010110010101100101011010011001011010000011
011001010110010101100101011001010110010101100101011011001001101010001001
011001010110010101100101011001010110010101100101011111101001110110001110
011001010110010101100101011001010110010101100101011100001001011010000100
011001010110010101100101011001010110010101100101011100001000111101111010
011001010110010101100101011001010110010101100101011100111001100010000100
011001010110010101100101011001010110010101100101011110101001100110001000
011001010110010101100101011001010110010101100101011101101001010010000000
011001010110010101100101011001010110010101100101011010101000110101111010
011001010110010101100101011001010110010101100101011101011001000110000001
011001010110010101100101011001010110010101100101011001010110010101100101
011001010110010101100101011001010110010101100101010010011010100110001101
011001010110010101100101011001010110010101100101010011110110011001100110
011001010110010101100101011001010110010101100101011010010110010101010111
011001010110010101100101011001010110010101100101010000010101010001001011
011001010110010101100101011001010110010101100101010001010101011101001010
011001010110010101100101011001010110010101100101010110000101011101000010
011001010110010101100101011001010110010101100101010000010101000101000011
011001010110010101100101011001010110010101100101010110110101100001001011
011001010110010101100101011001010110010101100101011010110110110101011011
011001010110010101100101011001010110010101100101100001101010101010110000
011001010110010101100101011001010110010101100101100001011010100110101011
011001010110010101100101011001010110010101100101011101000111110001101101
011001010110010101100101011001010110010101100101010101000110001001011100
011001010110010101100101011001010110010101100101011101111000101110001111
011001010110010101100101011001010110010101100101110111011100111111000001
011001010110010101100101011001010110010101100101010111010110100101011000
011001010110010101100101011001010110010101100101010101000101111001010000
011001010110010101100101011001010110010101100101010001100101111101010101
011001010110010101100101011001010110010101100101010111000111010101100110
011001010110010101100101011001010110010101100101011001110111100001101000
011001010110010101100101011001010110010101100101100000111000100101110010
011001010110010101100101011001010110010101100101011101111000011101110101
011001010110010101100101011001010110010101100101011000101000110110001001
011001010110010101100101011001010110010101100101010110100110110101100001
011001010110010101100101011001010110010101100101011110010111101001100011
011001010110010101100101011001010110010101100101010111000110111101100000
011001010110010101100101011001010110010101100101010101010110110001011111
011001010110010101100101011001010110010101100101011000110111100001100101
011001010110010101100101011001010110010101100101010110100111001001011111
011001010110010101100101011001010110010101100101010111110111010101100101
011001010110010101100101011001010110010101100101011100011000111110001000
011001010110010101100101011001010110010101100101011010111001001110001110
011001010110010101100101011001010110010101100101011000001000110110000110
011001010110010101100101011001010110010101100101011000000111111101110000
011001010110010101100101011001010110010101100101010111110111101001101110
011001010110010101100101011001010110010101100101011010101000110110000001
011001010110010101100101011001010110010101100101011000100111100101100100
011001010110010101100101011001010110010101100101011001000110010101001000
011001010110010101100101011001010110010101100101010100000101101001000111
011001010110010101100101011001010110010101100101100001001000111101111110
011001010110010101100101011001010110010101100101010110111000000001110101
011001010110010101100101011001010110010101100101011001001000001001110010
011001010110010101100101011001010110010101100101011010001000101001111000
011001010110010101100101011001010110010101100101010111101001000010000000
011001010110010101100101011001010110010101100101011001111001001110001000
011001010110010101100101011001010110010101100101010101111000110110000000
011001010110010101100101011001010110010101100101010111111000110001111011
011001010110010101100101011001010110010101100101010111101000101101111101
011001010110010101100101011001010110010101100101011001111000110001111100
011001010110010101100101011001010110010101100101011001111000011001110101
011001010110010101100101011001010110010101100101011000011000001001110110
011001010110010101100101011001010110010101100101011001011000111101111110
011001010110010101100101011001010110010101100101011011101001000010000001
011001010110010101100101011001010110010101100101011100101001000001111111
011001010110010101100101011001010110010101100101011011101000100101111010
011001010110010101100101011001010110010101100101011100111000110001111101
011001010110010101100101011001010110010101100101011000011000000101110100
011001010110010101100101011001010110010101100101011100001001011010010101
011001010110010101100101011001010110010101100101011011001001001010000110
011001010110010101100101011001010110010101100101011100001000000101111111
011001010110010101100101011001010110010101100101011010001000101010001011
011001010110010101100101011001010110010101100101011100001000110110000000
011001010110010101100101011001010110010101100101011111101001011010000010
011001010110010101100101011001010110010101100101011111001001010010000001
011001010110010101100101011001010110010101100101011100101001011010000011
011001010110010101100101011001010110010101100101011101101001011110000100
011001010110010101100101011001010110010101100101011101101001101110000111
011001010110010101100101011001010110010101100101011100011001001001111110
011001010110010101100101011001010110010101100101011011111001010001111111
011001010110010101100101011001010110010101100101011101101001011010000110
011001010110010101100101011001010110010101100101011100001001100010000111
011001010110010101100101011001010110010101100101011010011001011110000011
011001010110010101100101011001010110010101100101011100011001001010000001
011001010110010101100101011001010110010101100101011101001000111001111110
011001010110010101100101011001010110010101100101011001010110010101100101
011001010110010101100101011001010110010101100101010111001010011010001110
011001010110010101100101011001010110010101100101010001000110001001100001
011001010110010101100101011001010110010101100101010101110111011101111111
011001010110010101100101011001010110010101100101011010000111011001110100
011001010110010101100101011001010110010101100101011001001000010110001011
011001010110010101100101011001010110010101100101010100100110110001101011
011001010110010101100101011001010110010101100101011110011000101110001110
011001010110010101100101011001010110010101100101010100100101011101000100
011001010110010101100101011001010110010101100101010111010110101001101110
011001010110010101100101011001010110010101100101011110010111111101110011
011001010110010101100101011001010110010101100101010010000101111001100010
011001010110010101100101011001010110010101100101100001101001111010101010
011001010110010101100101011001010110010101100101100001001000110110010001
011001010110010101100101011001010110010101100101011101101001100110111011
011001010110010101100101011001010110010101100101101010111100011011001100
011001010110010101100101011001010110010101100101010111100110111101101111
011001010110010101100101011001010110010101100101011110100111101001100011
011001010110010101100101011001010110010101100101010110110110101101100010
011001010110010101100101011001010110010101100101010110000110110001100100
011001010110010101100101011001010110010101100101010110100110110101011111
011001010110010101100101011001010110010101100101011000100110101101100100
011001010110010101100101011001010110010101100101011110110111110001101011
011001010110010101100101011001010110010101100101011100011000000001110011
011001010110010101100101011001010110010101100101011010001001000010010011
011001010110010101100101011001010110010101100101011010010111100001100010
011001010110010101100101011001010110010101100101011011000111001001010101
011001010110010101100101011001010110010101100101011001011000010101110110
011001010110010101100101011001010110010101100101010111101000011001111011
011001010110010101100101011001010110010101100101011000001000101110000001
011001010110010101100101011001010110010101100101011001111000111110001001
011001010110010101100101011001010110010101100101011010011000001101111001
011001010110010101100101011001010110010101100101010111111000001101111000
011001010110010101100101011001010110010101100101010111101000000001110100
011001010110010101100101011001010110010101100101010111111000000001101101
011001010110010101100101011001010110010101100101011011111000110001111001
011001010110010101100101011001010110010101100101011010001000100101111011
011001010110010101100101011001010110010101100101011001111000100001111110
011001010110010101100101011001010110010101100101011010110110101001001100
011001010110010101100101011001010110010101100101010100100110001101010011
011001010110010101100101011001010110010101100101100001101000001001101101
011001010110010101100101011001010110010101100101011010111000010101110101
011001010110010101100101011001010110010101100101011100011000111110000011
011001010110010101100101011001010110010101100101011010111000110101111101
011001010110010101100101011001010110010101100101011011001000110101111110
011001010110010101100101011001010110010101100101011010111000111001111101
011001010110010101100101011001010110010101100101010111111000011001110011
011001010110010101100101011001010110010101100101011010001000011101110111
011001010110010101100101011001010110010101100101011010111000011001110011
011001010110010101100101011001010110010101100101011001011000000101110100
011001010110010101100101011001010110010101100101011010101000100001111001
011001010110010101100101011001010110010101100101011010101000101001111000
011001010110010101100101011001010110010101100101011010111000011101111000
011001010110010101100101011001010110010101100101011001011000110110000000
011001010110010101100101011001010110010101100101011010011001011010001001
011001010110010101100101011001010110010101100101011010101001100010000111
011001010110010101100101011001010110010101100101011011001001010010000111
011001010110010101100101011001010110010101100101011100001001000110000001
011001010110010101100101011001010110010101100101011100111001001010000110
011001010110010101100101011001010110010101100101011110011000111001111100
011001010110010101100101011001010110010101100101011100100111110101111010
011001010110010101100101011001010110010101100101011101111000111110001110
011001010110010101100101011001010110010101100101011011001001010010000111
011001010110010101100101011001010110010101100101011010111001000101111111
011001010110010101100101011001010110010101100101011110111001000101111110
011001010110010101100101011001010110010101100101011101011001001001111111
011001010110010101100101011001010110010101100101011111011001100010001000
011001010110010101100101011001010110010101100101011101011001000110000001
011001010110010101100101011001010110010101100101011100101001011110000110
011001010110010101100101011001010110010101100101011100111001001110000001
011001010110010101100101011001010110010101100101011011001000110101111011
011001010110010101100101011001010110010101100101011011101001000110000001
011001010110010101100101011001010110010101100101011010001001001010000000
011001010110010101100101011001010110010101100101011101011001100010001000
011001010110010101100101011001010110010101100101011100101001011010000011
011001010110010101100101011001010110010101100101011001010110010101100101
011001010110010101100101011001010110010101100101011010011101001010111000
011001010110010101100101011001010110010101100101010100011010010110010011
011001010110010101100101011001010110010101100101011111110111111001100111
011001010110010101100101011001010110010101100101010110100111110001111111
011001010110010101100101011001010110010101100101011000000111001001101001
011001010110010101100101011001010110010101100101011000110111101001110100
011001010110010101100101011001010110010101100101010010100101110001010001
011001010110010101100101011001010110010101100101011111100111111001101000
011001010110010101100101011001010110010101100101100011101000101110000000
011001010110010101100101011001010110010101100101010010100110011001011110
011001010110010101100101011001010110010101100101100110101010101010011100
011001010110010101100101011001010110010101100101100001001001011010010110
011001010110010101100101011001010110010101100101011011000111110101111010
011001010110010101100101011001010110010101100101101001001011000010110011
011001010110010101100101011001010110010101100101010111010110010101011101
011001010110010101100101011001010110010101100101010010100101111001010110
011001010110010101100101011001010110010101100101010110110110010001010001
011001010110010101100101011001010110010101100101011000010110100001010100
011001010110010101100101011001010110010101100101010111010110100101011000
011001010110010101100101011001010110010101100101010010100110011001010010
011001010110010101100101011001010110010101100101010101100110011101010101
011001010110010101100101011001010110010101100101011010000111011001101101
011001010110010101100101011001010110010101100101011100101000100001111010
011001010110010101100101011001010110010101100101011001010111111101110010
011001010110010101100101011001010110010101100101011000010111110001110001
011001010110010101100101011001010110010101100101011001010110101001010110
011001010110010101100101011001010110010101100101011000110111111101110011
011001010110010101100101011001010110010101100101010101010110011101010011
011001010110010101100101011001010110010101100101010110010111011001100011
011001010110010101100101011001010110010101100101010101110111010101100101
011001010110010101100101011001010110010101100101011011001001011110010101
011001010110010101100101011001010110010101100101011000111001000010000110
011001010110010101100101011001010110010101100101011001011000111010000001
011001010110010101100101011001010110010101100101010111101000010101111011
011001010110010101100101011001010110010101100101010111100111000001011011
011001010110010101100101011001010110010101100101010111011000000101110000
011001010110010101100101011001010110010101100101011000001000011101111010
011001010110010101100101011001010110010101100101010101100111000101100000
011001010110010101100101011001010110010101100101010011100101110001000010
011001010110010101100101011001010110010101100101011011010110001101001100
011001010110010101100101011001010110010101100101011010011000110001111110
011001010110010101100101011001010110010101100101010111111000110010000000
011001010110010101100101011001010110010101100101011000111000111110000010
011001010110010101100101011001010110010101100101011000001001000110000011
011001010110010101100101011001010110010101100101011000011001010010000111
011001010110010101100101011001010110010101100101010111101001001010000100
011001010110010101100101011001010110010101100101011000001000110010000000
011001010110010101100101011001010110010101100101011000111000111110000010
011001010110010101100101011001010110010101100101011010001001001010000111
011001010110010101100101011001010110010101100101011110111001010010000111
011001010110010101100101011001010110010101100101011001111000100001110101
011001010110010101100101011001010110010101100101011010111000011001110100
011001010110010101100101011001010110010101100101011000010111111101101110
011001010110010101100101011001010110010101100101011000011000000001101111
011001010110010101100101011001010110010101100101011010001000011001110101
011001010110010101100101011001010110010101100101011011001001101010001010
011001010110010101100101011001010110010101100101011011111001100110001010
011001010110010101100101011001010110010101100101011100011001101010001101
011001010110010101100101011001010110010101100101100001011010000010011110
011001010110010101100101011001010110010101100101011100101000100110001001
011001010110010101100101011001010110010101100101011011101001100010001011
011001010110010101100101011001010110010101100101011011111001001010000011
011001010110010101100101011001010110010101100101011100001001010010000001
011001010110010101100101011001010110010101100101011011011001000001111111
011001010110010101100101011001010110010101100101011100101001100010000100
011001010110010101100101011001010110010101100101011101111001011010000011
011001010110010101100101011001010110010101100101011101111001001110000011
011001010110010101100101011001010110010101100101011100101001001010000000
011001010110010101100101011001010110010101100101011101011001010010000001
011001010110010101100101011001010110010101100101011011001000111001111101
011001010110010101100101011001010110010101100101011100101000110001111100
011001010110010101100101011001010110010101100101011101001001011010000011
011001010110010101100101011001010110010101100101011010111001010010000011
011001010110010101100101011001010110010101100101011011001001010010000010
011001010110010101100101011001010110010101100101011001010110010101100101
011001010110010101100101011001010110010101100101010111011010010110001110
011001010110010101100101011001010110010101100101011001001000010101110101
011001010110010101100101011001010110010101100101010100010110001101100010
011001010110010101100101011001010110010101100101011010010111101101110111
011001010110010101100101011001010110010101100101010100010101111101011010
011001010110010101100101011001010110010101100101010011000110011001100000
011001010110010101100101011001010110010101100101011101100111101101100011
011001010110010101100101011001010110010101100101010001010101001001000001
011001010110010101100101011001010110010101100101010011110101011101000110
011001010110010101100101011001010110010101100101110011011101000111000011
011001010110010101100101011001010110010101100101100101111010010110011100
011001010110010101100101011001010110010101100101011111010111110101101111
011001010110010101100101011001010110010101100101010101101000000110000100
011001010110010101100101011001010110010101100101100011101001110110110001
011001010110010101100101011001010110010101100101100011101000100001110010
011001010110010101100101011001010110010101100101010111010110001001010010
011001010110010101100101011001010110010101100101010110100111001001100101
011001010110010101100101011001010110010101100101011010100111010001101001
011001010110010101100101011001010110010101100101011111010111110001100010
011001010110010101100101011001010110010101100101010111010111000001100111
011001010110010101100101011001010110010101100101011000100111100001101111
011001010110010101100101011001010110010101100101011010011000001110001010
011001010110010101100101011001010110010101100101011000110111001001100010
011001010110010101100101011001010110010101100101011110100111111101100010
011001010110010101100101011001010110010101100101010111000111100101101110
011001010110010101100101011001010110010101100101011010110111101001100100
011001010110010101100101011001010110010101100101100000101000110101110101
011001010110010101100101011001010110010101100101011001000110110001011101
011001010110010101100101011001010110010101100101010111101000101010000001
011001010110010101100101011001010110010101100101011001111001001010001110
011001010110010101100101011001010110010101100101011000101000111110001011
011001010110010101100101011001010110010101100101010111011000101110000000
011001010110010101100101011001010110010101100101010101100111101101101111
011001010110010101100101011001010110010101100101010111111000000001110000
011001010110010101100101011001010110010101100101011011010111110001100010
011001010110010101100101011001010110010101100101011011010110010101001011
011001010110010101100101011001010110010101100101001111100011100000100010
011001010110010101100101011001010110010101100101001101010100011000110010
011001010110010101100101011001010110010101100101001101000100100100110100
011001010110010101100101011001010110010101100101011000010101111001000010
011001010110010101100101011001010110010101100101011011001000111001111111
011001010110010101100101011001010110010101100101011010101001001010000011
011001010110010101100101011001010110010101100101011001111000100001110111
011001010110010101100101011001010110010101100101011001001000100001111010
011001010110010101100101011001010110010101100101011000101000100001110110
011001010110010101100101011001010110010101100101010111110111111001110001
011001010110010101100101011001010110010101100101011010011000000001101111
011001010110010101100101011001010110010101100101011000111000001001110010
011001010110010101100101011001010110010101100101011001011000101001111100
011001010110010101100101011001010110010101100101011000011000100101111000
011001010110010101100101011001010110010101100101011001011000011001110101
011001010110010101100101011001010110010101100101011001111001011110000110
011001010110010101100101011001010110010101100101011010011001001110000011
011001010110010101100101011001010110010101100101011010111000111101111010
011001010110010101100101011001010110010101100101011010011000010101110010
011001010110010101100101011001010110010101100101011000011000011101110011
011001010110010101100101011001010110010101100101011011011000011001110110
011001010110010101100101011001010110010101100101011100101001100010001111
011001010110010101100101011001010110010101100101011010011000000110001001
011001010110010101100101011001010110010101100101011001001000101110010000
011001010110010101100101011001010110010101100101011011011001001010000001
011001010110010101100101011001010110010101100101011100111001011010000111
011001010110010101100101011001010110010101100101011100101001010010000100
011001010110010101100101011001010110010101100101011101101001001110000001
011001010110010101100101011001010110010101100101011001011001000101111110
011001010110010101100101011001010110010101100101011010101001011110000100
011001010110010101100101011001010110010101100101011011101001100110000111
011001010110010101100101011001010110010101100101011101101001011010000011
011001010110010101100101011001010110010101100101011110101001001110000011
011001010110010101100101011001010110010101100101011100101000111001111101
011001010110010101100101011001010110010101100101011101101001000001111111
011001010110010101100101011001010110010101100101011011001000111001111101
011001010110010101100101011001010110010101100101011011011001001010000001
011001010110010101100101011001010110010101100101011101001001100110001001
011001010110010101100101011001010110010101100101011001010110010101100101
011001010110010101100101011001010110010101100101011000111011100110011101
011001010110010101100101011001010110010101100101011010011011011010100010
011001010110010101100101011001010110010101100101101000111001101110001101
011001010110010101100101011001010110010101100101010110000111010001111001
011001010110010101100101011001010110010101100101010010010110111001101100
011001010110010101100101011001010110010101100101010110010110001001011001
011001010110010101100101011001010110010101100101010000010110000001010110
011001010110010101100101011001010110010101100101011101110111101001110101
011001010110010101100101011001010110010101100101010110010110011101011010
011001010110010101100101011001010110010101100101100110011011110011000000
011001010110010101100101011001010110010101100101101010001010000010010100
011001010110010101100101011001010110010101100101010110010110100001011100
011001010110010101100101011001010110010101100101101110001100000110111001
011001010110010101100101011001010110010101100101010011110101010101000110
011001010110010101100101011001010110010101100101011000110110101001011010
011001010110010101100101011001010110010101100101010110110101101001000101
011001010110010101100101011001010110010101100101010100100111000001100100
011001010110010101100101011001010110010101100101011000100110111101100110
011001010110010101100101011001010110010101100101011010000110110101010110
011001010110010101100101011001010110010101100101011011010111100001100000
011001010110010101100101011001010110010101100101010110100110111101011111
011001010110010101100101011001010110010101100101010101100110101001010111
011001010110010101100101011001010110010101100101010111010111000101101011
011001010110010101100101011001010110010101100101100000011000001101110001
011001010110010101100101011001010110010101100101011001000110101101010111
011001010110010101100101011001010110010101100101011100011000101101111111
011001010110010101100101011001010110010101100101011100110111101001100001
011001010110010101100101011001010110010101100101011000100110110101010111
011001010110010101100101011001010110010101100101010111001000001001111001
011001010110010101100101011001010110010101100101011001111000001110000000
011001010110010101100101011001010110010101100101010110010110111001011111
011001010110010101100101011001010110010101100101010110110110101001001111
011001010110010101100101011001010110010101100101010100100101111001001010
011001010110010101100101011001010110010101100101010001100010111100010000
011001010110010101100101011001010110010101100101010001110111100001101101
011001010110010101100101011001010110010101100101010000010110011001010110
011001010110010101100101011001010110010101100101001101100110010101010110
011001010110010101100101011001010110010101100101010011100110001101010000
011001010110010101100101011001010110010101100101010001110101001100111111
011001010110010101100101011001010110010101100101011001011000011101111000
011001010110010101100101011001010110010101100101011000001000001101110010
011001010110010101100101011001010110010101100101011010111001110110001101
011001010110010101100101011001010110010101100101010111001000111110000011
011001010110010101100101011001010110010101100101011011001001011110001001
011001010110010101100101011001010110010101100101010111011000111110000011
011001010110010101100101011001010110010101100101010111101001000110000011
011001010110010101100101011001010110010101100101011011101001000110001000
011001010110010101100101011001010110010101100101011001111000101101111011
011001010110010101100101011001010110010101100101011001000111111101110000
011001010110010101100101011001010110010101100101010100100111100001101001
011001010110010101100101011001010110010101100101011000101000000001110000
011001010110010101100101011001010110010101100101011000101000011101110100
011001010110010101100101011001010110010101100101011000011000100001111010
011001010110010101100101011001010110010101100101011001001001001010000000
011001010110010101100101011001010110010101100101011101001001100110001000
011001010110010101100101011001010110010101100101011011111000111001111100
011001010110010101100101011001010110010101100101011101001000010101110110
011001010110010101100101011001010110010101100101011100011000100101111110
011001010110010101100101011001010110010101100101011100111000101110000010
011001010110010101100101011001010110010101100101011000111000001101101111
011001010110010101100101011001010110010101100101011011011000111110000000
011001010110010101100101011001010110010101100101011100101001110010001001
011001010110010101100101011001010110010101100101011100111001001010000010
011001010110010101100101011001010110010101100101011101101001001010000011
011001010110010101100101011001010110010101100101011101111001001010000010
011001010110010101100101011001010110010101100101011011101001001010000001
011001010110010101100101011001010110010101100101011010111001100010000100
011001010110010101100101011001010110010101100101011000011001001001111111
011001010110010101100101011001010110010101100101011101011001011010000100
011001010110010101100101011001010110010101100101011011001000111101111101
011001010110010101100101011001010110010101100101011011001001000101111111
011001010110010101100101011001010110010101100101011011011001010010000011
011001010110010101100101011001010110010101100101011100011001000110000000
011001010110010101100101011001010110010101100101011011111001010010000011
011001010110010101100101011001010110010101100101011001010110010101100101
011001010110010101100101011001010110010101100101010100011000110001110100
011001010110010101100101011001010110010101100101100110011010101110010001
011001010110010101100101011001010110010101100101010100010110110001100011
011001010110010101100101011001010110010101100101010111010101110101001101
011001010110010101100101011001010110010101100101010100100101111101010110
011001010110010101100101011001010110010101100101010010000110101101101000
011001010110010101100101011001010110010101100101011100100111010001100101
011001010110010101100101011001010110010101100101010010100101011001001101
011001010110010101100101011001010110010101100101011110100111010001100001
011001010110010101100101011001010110010101100101110111111110110011100100
011001010110010101100101011001010110010101100101100010001001101010010101
011001010110010101100101011001010110010101100101011101101000011110001000
011001010110010101100101011001010110010101100101110110001101110011010010
011001010110010101100101011001010110010101100101011011100110101001010100
011001010110010101100101011001010110010101100101010011100110000001010100
011001010110010101100101011001010110010101100101010110010110100001010000
011001010110010101100101011001010110010101100101011111000111110101100010
011001010110010101100101011001010110010101100101010111010110001101001100
011001010110010101100101011001010110010101100101010011110110001101010010
011001010110010101100101011001010110010101100101010111110111010101100110
011001010110010101100101011001010110010101100101010101100101111101001010
011001010110010101100101011001010110010101100101011010000111000001011000
011001010110010101100101011001010110010101100101011001010111111001110001
011001010110010101100101011001010110010101100101011001000111110001101111
011001010110010101100101011001010110010101100101011110100111001001010100
011001010110010101100101011001010110010101100101011010001000100001111100
011001010110010101100101011001010110010101100101010110100111011101101000
011001010110010101100101011001010110010101100101010110010110001101010000
011001010110010101100101011001010110010101100101011010010111001001010111
011001010110010101100101011001010110010101100101011010001000000101110101
011001010110010101100101011001010110010101100101010111101000110110000110
011001010110010101100101011001010110010101100101010001000111100001110010
011001010110010101100101011001010110010101100101010110100100010100100100
011001010110010101100101011001010110010101100101010010010111101001110101
011001010110010101100101011001010110010101100101010010111000001110000001
011001010110010101100101011001010110010101100101010100000111000101100010
011001010110010101100101011001010110010101100101010010100110101001011011
011001010110010101100101011001010110010101100101010010100111110101110110
011001010110010101100101011001010110010101100101010011000110111101100001
011001010110010101100101011001010110010101100101010110110111111101110000
011001010110010101100101011001010110010101100101010111000111111101110001
011001010110010101100101011001010110010101100101011000101000011001111001
011001010110010101100101011001010110010101100101011000111000010101111001
011001010110010101100101011001010110010101100101011000011000100101111101
011001010110010101100101011001010110010101100101010111011000010101110100
011001010110010101100101011001010110010101100101011010001000011101111010
011001010110010101100101011001010110010101100101011010001000100001111000
011001010110010101100101011001010110010101100101011000111000101001111110
011001010110010101100101011001010110010101100101010111101001000001111110
011001010110010101100101011001010110010101100101011001001001000110000000
011001010110010101100101011001010110010101100101011010011000110001111100
011001010110010101100101011001010110010101100101011001111000001101110000
011001010110010101100101011001010110010101100101011010111000010101110100
011001010110010101100101011001010110010101100101011001111000011101111000
011001010110010101100101011001010110010101100101011000101000100101111010
011001010110010101100101011001010110010101100101011001111000110101111110
011001010110010101100101011001010110010101100101011011011001001001111111
011001010110010101100101011001010110010101100101011010001000110001111001
011001010110010101100101011001010110010101100101011011111000111001111011
011001010110010101100101011001010110010101100101011100111001001001111110
011001010110010101100101011001010110010101100101011011011001001010000000
011001010110010101100101011001010110010101100101011011101000111110000000
011001010110010101100101011001010110010101100101011010101001000110000000
011001010110010101100101011001010110010101100101011100001001000001111110
011001010110010101100101011001010110010101100101011011001000110101111101
011001010110010101100101011001010110010101100101011011111001001001111110
011001010110010101100101011001010110010101100101011000111001001101111111
011001010110010101100101011001010110010101100101011110011001100110000111
011001010110010101100101011001010110010101100101011101001001010010000011
011001010110010101100101011001010110010101100101011010001000111001111100
011001010110010101100101011001010110010101100101011100001001011010000011
011001010110010101100101011001010110010101100101011011101001011110000110
011001010110010101100101011001010110010101100101011100001001011010000011
011001010110010101100101011001010110010101100101011010011000111101111101
011001010110010101100101011001010110010101100101011001010110010101100101
011001010110010101100101011001010110010101100101100101011011010010011000
011001010110010101100101011001010110010101100101011011001010000010010010
011001010110010101100101011001010110010101100101100100011001110110010001
011001010110010101100101011001010110010101100101010111100110001101010010
011001010110010101100101011001010110010101100101001110110100111001000011
011001010110010101100101011001010110010101100101010100000101111101010101
011001010110010101100101011001010110010101100101010001110110010101011110
011001010110010101100101011001010110010101100101100010001000011001110100
011001010110010101100101011001010110010101100101011101101001110110011110
011001010110010101100101011001010110010101100101101110101011010010100101
011001010110010101100101011001010110010101100101011100001000001001110111
011001010110010101100101011001010110010101100101101001001010010110011000
011001010110010101100101011001010110010101100101010011000110010101011010
011001010110010101100101011001010110010101100101011001000101111001001100
011001010110010101100101011001010110010101100101010110110110110101011110
011001010110010101100101011001010110010101100101010111010111010001100101
011001010110010101100101011001010110010101100101011000100111010001101000
011001010110010101100101011001010110010101100101011011000110100001010111
011001010110010101100101011001010110010101100101010110110111011001101000
