memory_initialization_radix=2;
memory_initialization_vector=
111100101101011111100110111111111111000011110111111111110000000011111111
111001001111011100100111111110001101111111101100111000011000000010110100
111001111100000111010100000001110001110000010001111111101111011111111000
000010000001100100001110111000010010001011110101000000000000000000000000
000000000000000000000001111111001111110111111110000001001111111100000110
000000001111111100000000000000000000000000000000000000000000000000000000
000001011111101000001101000101010000010011100100000001110000101100001000
000000000000000011111111000110001101011000100100111110001111010011111001
111100011110000011101010111010001001100111001000000000110001010000001100
110110001101001011011101111101100000011011111011111111001111001100000011
000000000000000000000000000001110000111100001100000010101110001100001110
000000000000000000000000000000000000000000000000000000000000000000000000