memory_initialization_radix=2;
memory_initialization_vector=
000000000000000000000000000000000000000000000000000000000000000000000000000101100101111100010011000000000000000000000000000000000000000000000000000000000000000000000000001000000110000000000100000000000000000000000000000000000000000000000000000000000000000011111111111110100100101101011101,
000000000000000000000000000000000000000000000000000000000000000000000000001001101110111010001011000000000000000000000000000000000000000000000000000000000000000000000000001101101110000101101000000000000000000000000000000000000000000000000000000000000000000000000000000100011100010110010000,
000000000000000000000000000000000000000000000000000000000000000000000000001001101101001000110111000000000000000000000000000000000000000000000000000000000000000000000000001010100001110111010010000000000000000000000000000000000000000000000000000000000000000000000000000111001011110011110100,
000000000000000000000000000000000000000000000000000000000000000000000000001101010001011000010101000000000000000000000000000000000000000000000000000000000000000011111111111011000000111000011100000000000000000000000000000000000000000000000000000000000000000011111111111111111111111101000100,
000000000000000000000000000000000000000000000000000000000000000011111111111111111111000110101000000000000000000000000000000000000000000000000000000000000000000011111111111001100110010010100001000000000000000000000000000000000000000000000000000000000000000000000000000110101111100111110001,
000000000000000000000000000000000000000000000000000000000000000011111111111111101100101101101000000000000000000000000000000000000000000000000000000000000000000011111111111111010011011110001001000000000000000000000000000000000000000000000000000000000000000000000000000000000110001100101000,
000000000000000000000000000000000000000000000000000000000000000011111111111011100101011110111101000000000000000000000000000000000000000000000000000000000000000000000000000001110011100010001000000000000000000000000000000000000000000000000000000000000000000000000000000101110001001101110111,
000000000000000000000000000000000000000000000000000000000000000011111111111111101111100101001100000000000000000000000000000000000000000000000000000000000000000000000000000101101101000011110001000000000000000000000000000000000000000000000000000000000000000000000000000111000100101001100110,
000000000000000000000000000000000000000000000000000000000000000011111111111010111110010001001100000000000000000000000000000000000000000000000000000000000000000000000000001000001000111110110011000000000000000000000000000000000000000000000000000000000000000011111111111000000011011111111111,
000000000000000000000000000000000000000000000000000000000000000011111111111110111001100101110011000000000000000000000000000000000000000000000000000000000000000011111111111110000111010001001110000000000000000000000000000000000000000000000000000000000000000000000000001001110010011001000101,
000000000000000000000000000000000000000000000000000000000000000000000000000000000000000000000000000000000000000000000000000000000000000000000000000000000000000000000000000100101001101101010101000000000000000000000000000000000000000000000000000000000000000000000000000101010100011001000111,
000000000000000000000000000000000000000000000000000000000000000000000000000000000000000000000000000000000000000000000000000000000000000000000000000000000000000000000000000000000000000000000000000000000000000000000000000000000000000000000000000000000000000000000000000000000000000000000000,
000000000010110100100110000010010000000000000110110110100000110000000000000011010011111100000111000000000000101111100100010101010000000000000100110000000010101000000000000001011000111010001100111111111111111100000010011110000000000000001100100011111101000011111111111111111101010000001101,
000000000000000000110010110111110000000000000000000111100101111111111111111111111110101001010111111111111111111111101010101110011111111111111001110111110110010000000000000010110010100101011000000000000000010100111011100100110000000000000100110001011111111011111111111111111110111000111100,
111111111111101010001001000111101111111111111101011000000111010100000000000010110001110101100011000000000000000000000100100000000000000000001010111100110101010100000000000110000100110111001110111111111111101110100100001111100000000000000000111110001101100100000000000000001110001011010110,
000000000000000000000000000000000000000000000000000000000000000000000000000000000000000000000000000000000000000000000000000000001111111111111101001001111100111000000000000011000011011010001100000000000000010011110100100110000000000000001010001101011111001100000000000010100111011011110110,
111111111111010110101110101110101111111111101100110001101100101111111111111110001101000000111101111111111111101001011110000000011111111111111110111001001110001000000000000010110111101011010010111111111111000110110101000001000000000000000100111011001010100111111111111010000001010001110000,
000000000000000000000000000000000000000000000000000000000000000000000000000100000000100001010000000000000001000101000010000000011111111111111110000011011010111111111111111101111000110110010000111111111111101100011000101100010000000000010010110101111011001011111111111011001110011101011000;
