memory_initialization_radix=2;
memory_initialization_vector=
111111100001000100001001111111100000111011111100111111110000000000000000,
111111011111100000001010000000100000001000000010111110011111000011110110,
111111110000101100000011111111111111110011111111000000011111111111111110,
111111110000001100000001111001010011001111100011000000000000000000000000,
000000000000000000000000111110010000011100000010111001001000000010111101,
000000000000000000000000000000000000000000000000000000000000000000000000,
111100011101110011011110000010010000101011101110000000001111111100000000,
000000000000000000000000001000011100011100011000000000001111010011111001,
000001100000001000000101111111010000011100000100111011101111111100001000,
000001010000010011111110111110001111101100000111000010011110110100001000,
000000000000000000000000111111100000000100000001000010001111010000000100,
000001011111110000000101000001000010101011111110111111111111111111111111,
000000000000000000000000000000000000000000000001001010011111101100000000,
111111010000000100001010000000001111111011111111000000001111101011001100,
000000000000000000000000000000001111110011111011111111100000001111111111,
000100100000111011110101111111100001001111101111100101100000010000000011,
000000000000000100000000000000000010010111101010111111010001100000000000,
110110110001000111101001000000001110111111111011001001110100110000010111,
000000000000000000000000000000001110111100101011111110011110100000111011,
000010111110010011101110111110101111100011110011111100010001011000000010,
000000000000000000000000000000001110110000001111000010000100010000000000,
000101111110111011100011000000001000000011110111111111011111011011111000,
000000000000000000000000000000000000011111110111111010111111011100001110;
