memory_initialization_radix=2;
memory_initialization_vector=
111111101111010111110110111111001111001111110010111111110000000000000001,
111110000000000000001001000000010000001011111100111110111111110100000000,
000000111111110100000011000000001111111100000001000000011111100111111101,
111111110000000011111011000001000010101111110111000000010000000000000000,
000000000000000000000000000101110011000000101000111100101011110111011101,
000000000000000000000000000000000000000000000000000000000000000000000000,
000101011110100111111110111101100000101100000001000000010000000100000011,
000000000000000000000000111100101101110100001000111110011111011111110110,
111111000000011000000000000001000000001100000010111011110000111000000111,
000000010000101000000010111101101111111000000011000011010001100100010111,
000000000000000000000000111111110000001000000000000101011111111011101001,
111111111111011100000000111111110000110111111101000000000000000111111111,
000000000000000000000000000000001111011100000000000001010000010000000000,
111111111111110100000010000000000000001100000000111111100000010000001100,
000000000000000000000000000000000000100100000010000000010000001000000001,
111110011111110100011011010110010000000000010110111101110000100011111111,
000000001111111111111111000000001111000100001001000111010000000000000001,
000010000010001000010101111111111111011111111101111001101101011000111001,
000000000000000000000000000000000001011100100011000010100000010000000110,
001000000000110011110010000010001111101111011100111110011101001111111110,
000000000000001011111111000000011111110101001000000010001111101100000000,
000011101110001000001110000000010000011100100011111100101111001111110000,
000000000000000000000000000000001110111001100110000001100001011100110100;
