111100011101000111100101000000100001100000001010111111110000000000000000
111110011111011100001110111111001110111111111011111011101000000011000000
111010111100010111011110000001100001001000001011111100111101000011101010
111111111111111000000000110011000010111111110010000000010000000000000000
000000000000000000000000000000000000010100000000000001010010001100010010
000000000000000000000000000000010000000100000001000000000000000000000000
000000001111011111111111001001110000010111010011000000010000001000000010
000000000000000000000000001101111011011100010111000000101111101111111100
000000011110110111110111000111100110100100111110111001101110001111110100
111101111101110011101100111010101111111100001110000011011110001000010000
000000000000000000000000000001000000101100001000111010011101111101000000
000000000000000000000000000000000000000000000000000000000000000000000000
000010000011000111010011110010000000010011110111001100110001101000001000
000000000000000000000000000000001111000011101001111111010001000100000000
110111111110100111111011000000000000110011111010111111010001110001000111
000000000000000000000000000000001101101100010011111111011110101000001110
001101000011100000110000111000111101111010111011111111111110011100000000
000000001111111100000000000000000000100011111000001100010000011000000000
111100110001001100001100111111111111010100101100111011111111101000000001
000000000000000000000000000000001111101010111100000001111111111100011110
111111010000100110001101000110001100011100011101111110111100101111111111
000000001111111111111111000000000000010000000011001011100000101000000000
111111100000111000001011111111111111011100000011111100010001011000010010
000000000000000000000000000000001111001011110010000010000000100111000101
