memory_initialization_radix=2;
memory_initialization_vector=
11111111111111111111001010110111
11111111111111110011110010001101
00000000000001011110100101110101
00000000000010010000010101001100
00000000000001110000101111101100
00000000000001001010001111100101
00000000000000100111111100100101
00000000000000011100110110110100
11111111111111100100111001011111
00000000000000111001111111101000
11111111111111100011000010101001
00000000000000001011000111101001
00000000000001001111001001001101
00000000000001011011001110000000
00000000000001010101010100110001
00000000000000000110100001111000
11111111111111101010101110000101
00000000000001110111000101110010
00000000000000101010111110101101
00000000000010010010000110101001
00000000000010100110001111111010
00000000000000110111111111011101
00000000000001101011110011010001
00000000000001110100100110110000
00000000000000100101010011000000
11111111111111111010101110110101
00000000000000100001100010111101
11111111111101111001110010001100
00000000000001110000011100100001
00000000000001011111100001110111
11111111111111110110110110000000
00000000000001011101000101101101
00000000000001000110001011111010
00000000000000000110011010110100
11111111111111101100100101100110
00000000000001000101010001100011
00000000000000101011100111010101
00000000000000100101111100001000
00000000000001101110100000111100
00000000000000010111000110110010
11111111111111111110111011000001
00000000000001011000101111100011
00000000000001101011001011000100
00000000000001100001000000101110
00000000000001000100101011101011
11111111111111111111001000100000
00000000000001100010000000001011
00000000000001000111000001100111
00000000000001011110011010111000
00000000000001001110010100000011
11111111111101000100100011001110
11111111111111100011110000001111
00000000000000101011110000101111
11111111111111111000000010001010
11111111111111100010111001100111
00000000000001100001101100100010
11111111111111110110001111101100
00000000000100011110000001001111
00000000000001100100000001101000
11111111111111111101000101000000
11111111111111111010010000111100
11111111111111110000011001101101
00000000000001100011110110100001
00000000000001101011000110110101
11111111111111101111110110111011
00000000000001011011101011000101
00000000000010001000101110111000
00000000000000000000110010101000
11111111111111111001100000000101
00000000000000101011110100110000
00000000000000111001101100001101
00000000000001001100101100101100
00000000000010001011111100111010
00000000000000001000000010111110
00000000000001010101101000011001
00000000000001001010000000011000
00000000000000011010011000001100
00000000000000010010110111010100
00000000000010010110110001101100
00000000000000110110101000001001
11111111111111100111000000000011
00000000000000110010100100011101
00000000000000010101011101101000
11111111111111110111110010111010
00000000000000100111010110010101
11111111111111100000110000000010
00000000000001011000100001010000
11111111111111111110000000101110
00000000000000011100001011110011
00000000000001000010000101111111
00000000000001100101111111101101
11111111111111010111010001000001
11111111111111101111110011111110
11111111111111011001111011000010
00000000000001110101100100110001
00000000000000111011010101000010
