memory_initialization_radix=2;
memory_initialization_vector=
10110000
10011101
01000101
10010000
10001111
10010110
10001100
10000101
10001100
01100101
01111001
10001101
10010100
10100101
10000100
01111110
10110000
10011101
01000101
10010000
10001111
10010110
10001100
10000101
10001100
01100101
01111001
10001101
10010100
10100101
10000100
01111110
10110000
10011101
01000101
10010000
10001111
10010110
10001100
10000101
10001100
01100101
01111001
10001101
10010100
10100101
10000100
01111110
10110000
10011101
01000101
10010000
10001111
10010110
10001100
10000101
10001100
01100101
01111001
10001101
10010100
10100101
10000100
01111110
10110000
10011101
01000101
10010000
10001111
10010110
10001100
10000101
10001100
01100101
01111001
10001101
10010100
10100101
10000100
01111110
10110000
10011101
01000101
10010000
10001111
10010110
10001100
10000101
10001100
01100101
01111001
10001101
10010100
10100101
10000100
01111110
10110000
10011101
01000101
10010000
10001111
10010110
10001100
10000101
10001100
01100101
01111001
10001101
10010100
10100101
10000100
01111110
10110000
10011101
01000101
10010000
10001111
10010110
10001100
10000101
10001100
01100101
01111001
10001101
10010100
10100101
10000100
01111110
10110000
10011101
01000101
10010000
10001111
10010110
10001100
10000101
10001100
01100101
01111001
10001101
10010100
10100101
10000100
01111110
10110000
10011101
01000101
10010000
10001111
10010110
10001100
10000101
10001100
01100101
01111001
10001101
10010100
10100101
10000100
01111110
10110000
10011101
01000101
10010000
10001111
10010110
10001100
10000101
10001100
01100101
01111001
10001101
10010100
10100101
10000100
01111110
10110000
10011101
01000101
10010000
10001111
10010110
10001100
10000101
10001100
01100101
01111001
10001101
10010100
10100101
10000100
01111110
10110000
10011101
01000101
10010000
10001111
10010110
10001100
10000101
10001100
01100101
01111001
10001101
10010100
10100101
10000100
01111110
10110000
10011101
01000101
10010000
10001111
10010110
10001100
10000101
10001100
01100101
01111001
10001101
10010100
10100101
10000100
01111110
10110000
10011101
01000101
10010000
10001111
10010110
10001100
10000101
10001100
01100101
01111001
10001101
10010100
10100101
10000100
01111110
10110000
10011101
01000101
10010000
10001111
10010110
10001100
10000101
10001100
01100101
01111001
10001101
10010100
10100101
10000100
01111110
10110000
10011101
01000101
10010000
10001111
10010110
10001100
10000101
10001100
01100101
01111001
10001101
10010100
10100101
10000100
01111110
10110000
10011101
01000101
10010000
10001111
10010110
10001100
10000101
10001100
01100101
01111001
10001101
10010100
10100101
10000100
01111110
10110000
10011101
01000101
10010000
10001111
10010110
10001100
10000101
10001100
01100101
01111001
10001101
10010100
10100101
10000100
01111110
10110000
10011101
01000101
10010000
10001111
10010110
10001100
10000101
10001100
01100101
01111001
10001101
10010100
10100101
10000100
01111110
10110000
10011101
01000101
10010000
10001111
10010110
10001100
10000101
10001100
01100101
01111001
10001101
10010100
10100101
10000100
01111110
10110000
10011101
01000101
10010000
10001111
10010110
10001100
10000101
10001100
01100101
01111001
10001101
10010100
10100101
10000100
01111110
10110000
10011101
01000101
10010000
10001111
10010110
10001100
10000101
10001100
01100101
01111001
10001101
10010100
10100101
10000100
01111110
10110000
10011101
01000101
10010000
10001111
10010110
10001100
10000101
10001100
01100101
01111001
10001101
10010100
10100101
10000100
01111110
10110000
10011101
01000101
10010000
10001111
10010110
10001100
10000101
10001100
01100101
01111001
10001101
10010100
10100101
10000100
01111110
10110000
10011101
01000101
10010000
10001111
10010110
10001100
10000101
10001100
01100101
01111001
10001101
10010100
10100101
10000100
01111110
10110000
10011101
01000101
10010000
10001111
10010110
10001100
10000101
10001100
01100101
01111001
10001101
10010100
10100101
10000100
01111110
10110000
10011101
01000101
10010000
10001111
10010110
10001100
10000101
10001100
01100101
01111001
10001101
10010100
10100101
10000100
01111110
10110000
10011101
01000101
10010000
10001111
10010110
10001100
10000101
10001100
01100101
01111001
10001101
10010100
10100101
10000100
01111110
10110000
10011101
01000101
10010000
10001111
10010110
10001100
10000101
10001100
01100101
01111001
10001101
10010100
10100101
10000100
01111110
10110000
10011101
01000101
10010000
10001111
10010110
10001100
10000101
10001100
01100101
01111001
10001101
10010100
10100101
10000100
01111110
10110000
10011101
01000101
10010000
10001111
10010110
10001100
10000101
10001100
01100101
01111001
10001101
10010100
10100101
10000100
01111110
10110000
10011101
01000101
10010000
10001111
10010110
10001100
10000101
10001100
01100101
01111001
10001101
10010100
10100101
10000100
01111110
10110000
10011101
01000101
10010000
10001111
10010110
10001100
10000101
10001100
01100101
01111001
10001101
10010100
10100101
10000100
01111110
10110000
10011101
01000101
10010000
10001111
10010110
10001100
10000101
10001100
01100101
01111001
10001101
10010100
10100101
10000100
01111110
10110000
10011101
01000101
10010000
10001111
10010110
10001100
10000101
10001100
01100101
01111001
10001101
10010100
10100101
10000100
01111110
10110000
10011101
01000101
10010000
10001111
10010110
10001100
10000101
10001100
01100101
01111001
10001101
10010100
10100101
10000100
01111110
10110000
10011101
01000101
10010000
10001111
10010110
10001100
10000101
10001100
01100101
01111001
10001101
10010100
10100101
10000100
01111110
10110000
10011101
01000101
10010000
10001111
10010110
10001100
10000101
10001100
01100101
01111001
10001101
10010100
10100101
10000100
01111110
10110000
10011101
01000101
10010000
10001111
10010110
10001100
10000101
10001100
01100101
01111001
10001101
10010100
10100101
10000100
01111110
10110000
10011101
01000101
10010000
10001111
10010110
10001100
10000101
10001100
01100101
01111001
10001101
10010100
10100101
10000100
01111110
10110000
10011101
01000101
10010000
10001111
10010110
10001100
10000101
10001100
01100101
01111001
10001101
10010100
10100101
10000100
01111110
10110000
10011101
01000101
10010000
10001111
10010110
10001100
10000101
10001100
01100101
01111001
10001101
10010100
10100101
10000100
01111110
10110000
10011101
01000101
10010000
10001111
10010110
10001100
10000101
10001100
01100101
01111001
10001101
10010100
10100101
10000100
01111110
10110000
10011101
01000101
10010000
10001111
10010110
10001100
10000101
10001100
01100101
01111001
10001101
10010100
10100101
10000100
01111110
10110000
10011101
01000101
10010000
10001111
10010110
10001100
10000101
10001100
01100101
01111001
10001101
10010100
10100101
10000100
01111110
10110000
10011101
01000101
10010000
10001111
10010110
10001100
10000101
10001100
01100101
01111001
10001101
10010100
10100101
10000100
01111110
10110000
10011101
01000101
10010000
10001111
10010110
10001100
10000101
10001100
01100101
01111001
10001101
10010100
10100101
10000100
01111110
10110000
10011101
01000101
10010000
10001111
10010110
10001100
10000101
10001100
01100101
01111001
10001101
10010100
10100101
10000100
01111110
10110000
10011101
01000101
10010000
10001111
10010110
10001100
10000101
10001100
01100101
01111001
10001101
10010100
10100101
10000100
01111110
10110000
10011101
01000101
10010000
10001111
10010110
10001100
10000101
10001100
01100101
01111001
10001101
10010100
10100101
10000100
01111110
10110000
10011101
01000101
10010000
10001111
10010110
10001100
10000101
10001100
01100101
01111001
10001101
10010100
10100101
10000100
01111110
10110000
10011101
01000101
10010000
10001111
10010110
10001100
10000101
10001100
01100101
01111001
10001101
10010100
10100101
10000100
01111110
10110000
10011101
01000101
10010000
10001111
10010110
10001100
10000101
10001100
01100101
01111001
10001101
10010100
10100101
10000100
01111110
10110000
10011101
01000101
10010000
10001111
10010110
10001100
10000101
10001100
01100101
01111001
10001101
10010100
10100101
10000100
01111110
10110000
10011101
01000101
10010000
10001111
10010110
10001100
10000101
10001100
01100101
01111001
10001101
10010100
10100101
10000100
01111110
10110000
10011101
01000101
10010000
10001111
10010110
10001100
10000101
10001100
01100101
01111001
10001101
10010100
10100101
10000100
01111110
10110000
10011101
01000101
10010000
10001111
10010110
10001100
10000101
10001100
01100101
01111001
10001101
10010100
10100101
10000100
01111110
10110000
10011101
01000101
10010000
10001111
10010110
10001100
10000101
10001100
01100101
01111001
10001101
10010100
10100101
10000100
01111110
10110000
10011101
01000101
10010000
10001111
10010110
10001100
10000101
10001100
01100101
01111001
10001101
10010100
10100101
10000100
01111110
10110000
10011101
01000101
10010000
10001111
10010110
10001100
10000101
10001100
01100101
01111001
10001101
10010100
10100101
10000100
01111110
10110000
10011101
01000101
10010000
10001111
10010110
10001100
10000101
10001100
01100101
01111001
10001101
10010100
10100101
10000100
01111110
10110000
10011101
01000101
10010000
10001111
10010110
10001100
10000101
10001100
01100101
01111001
10001101
10010100
10100101
10000100
01111110
10110000
10011101
01000101
10010000
10001111
10010110
10001100
10000101
10001100
01100101
01111001
10001101
10010100
10100101
10000100
01111110
10110000
10011101
01000101
10010000
10001111
10010110
10001100
10000101
10001100
01100101
01111001
10001101
10010100
10100101
10000100
01111110
10110000
10011101
01000101
10010000
10001111
10010110
10001100
10000101
10001100
01100101
01111001
10001101
10010100
10100101
10000100
01111110
10110000
10011101
01000101
10010000
10001111
10010110
10001100
10000101
10001100
01100101
01111001
10001101
10010100
10100101
10000100
01111110
10110000
10011101
01000101
10010000
10001111
10010110
10001100
10000101
10001100
01100101
01111001
10001101
10010100
10100101
10000100
01111110
10110000
10011101
01000101
10010000
10001111
10010110
10001100
10000101
10001100
01100101
01111001
10001101
10010100
10100101
10000100
01111110
10110000
10011101
01000101
10010000
10001111
10010110
10001100
10000101
10001100
01100101
01111001
10001101
10010100
10100101
10000100
01111110
10110000
10011101
01000101
10010000
10001111
10010110
10001100
10000101
10001100
01100101
01111001
10001101
10010100
10100101
10000100
01111110
10110000
10011101
01000101
10010000
10001111
10010110
10001100
10000101
10001100
01100101
01111001
10001101
10010100
10100101
10000100
01111110
10110000
10011101
01000101
10010000
10001111
10010110
10001100
10000101
10001100
01100101
01111001
10001101
10010100
10100101
10000100
01111110
10110000
10011101
01000101
10010000
10001111
10010110
10001100
10000101
10001100
01100101
01111001
10001101
10010100
10100101
10000100
01111110
10110000
10011101
01000101
10010000
10001111
10010110
10001100
10000101
10001100
01100101
01111001
10001101
10010100
10100101
10000100
01111110
10110000
10011101
01000101
10010000
10001111
10010110
10001100
10000101
10001100
01100101
01111001
10001101
10010100
10100101
10000100
01111110
10110000
10011101
01000101
10010000
10001111
10010110
10001100
10000101
10001100
01100101
01111001
10001101
10010100
10100101
10000100
01111110
10110000
10011101
01000101
10010000
10001111
10010110
10001100
10000101
10001100
01100101
01111001
10001101
10010100
10100101
10000100
01111110
10110000
10011101
01000101
10010000
10001111
10010110
10001100
10000101
10001100
01100101
01111001
10001101
10010100
10100101
10000100
01111110
10110000
10011101
01000101
10010000
10001111
10010110
10001100
10000101
10001100
01100101
01111001
10001101
10010100
10100101
10000100
01111110
10110000
10011101
01000101
10010000
10001111
10010110
10001100
10000101
10001100
01100101
01111001
10001101
10010100
10100101
10000100
01111110
10110000
10011101
01000101
10010000
10001111
10010110
10001100
10000101
10001100
01100101
01111001
10001101
10010100
10100101
10000100
01111110
10110000
10011101
01000101
10010000
10001111
10010110
10001100
10000101
10001100
01100101
01111001
10001101
10010100
10100101
10000100
01111110
10110000
10011101
01000101
10010000
10001111
10010110
10001100
10000101
10001100
01100101
01111001
10001101
10010100
10100101
10000100
01111110
10110000
10011101
01000101
10010000
10001111
10010110
10001100
10000101
10001100
01100101
01111001
10001101
10010100
10100101
10000100
01111110
10110000
10011101
01000101
10010000
10001111
10010110
10001100
10000101
10001100
01100101
01111001
10001101
10010100
10100101
10000100
01111110
10110000
10011101
01000101
10010000
10001111
10010110
10001100
10000101
10001100
01100101
01111001
10001101
10010100
10100101
10000100
01111110
10110000
10011101
01000101
10010000
10001111
10010110
10001100
10000101
10001100
01100101
01111001
10001101
10010100
10100101
10000100
01111110
10110000
10011101
01000101
10010000
10001111
10010110
10001100
10000101
10001100
01100101
01111001
10001101
10010100
10100101
10000100
01111110
10110000
10011101
01000101
10010000
10001111
10010110
10001100
10000101
10001100
01100101
01111001
10001101
10010100
10100101
10000100
01111110
10110000
10011101
01000101
10010000
10001111
10010110
10001100
10000101
10001100
01100101
01111001
10001101
10010100
10100101
10000100
01111110
10110000
10011101
01000101
10010000
10001111
10010110
10001100
10000101
10001100
01100101
01111001
10001101
10010100
10100101
10000100
01111110
10110000
10011101
01000101
10010000
10001111
10010110
10001100
10000101
10001100
01100101
01111001
10001101
10010100
10100101
10000100
01111110
10110000
10011101
01000101
10010000
10001111
10010110
10001100
10000101
10001100
01100101
01111001
10001101
10010100
10100101
10000100
01111110
10110000
10011101
01000101
10010000
10001111
10010110
10001100
10000101
10001100
01100101
01111001
10001101
10010100
10100101
10000100
01111110
10110000
10011101
01000101
10010000
10001111
10010110
10001100
10000101
10001100
01100101
01111001
10001101
10010100
10100101
10000100
01111110
10110000
10011101
01000101
10010000
10001111
10010110
10001100
10000101
10001100
01100101
01111001
10001101
10010100
10100101
10000100
01111110
10110000
10011101
01000101
10010000
10001111
10010110
10001100
10000101
10001100
01100101
01111001
10001101
10010100
10100101
10000100
01111110
10110000
10011101
01000101
10010000
10001111
10010110
10001100
10000101
10001100
01100101
01111001
10001101
10010100
10100101
10000100
01111110
10110000
10011101
01000101
10010000
10001111
10010110
10001100
10000101
10001100
01100101
01111001
10001101
10010100
10100101
10000100
01111110
10110000
10011101
01000101
10010000
10001111
10010110
10001100
10000101
10001100
01100101
01111001
10001101
10010100
10100101
10000100
01111110
10110000
10011101
01000101
10010000
10001111
10010110
10001100
10000101
10001100
01100101
01111001
10001101
10010100
10100101
10000100
01111110
10110000
10011101
01000101
10010000
10001111
10010110
10001100
10000101
10001100
01100101
01111001
10001101
10010100
10100101
10000100
01111110
10110000
10011101
01000101
10010000
10001111
10010110
10001100
10000101
10001100
01100101
01111001
10001101
10010100
10100101
10000100
01111110
10110000
10011101
01000101
10010000
10001111
10010110
10001100
10000101
10001100
01100101
01111001
10001101
10010100
10100101
10000100
01111110
10110000
10011101
01000101
10010000
10001111
10010110
10001100
10000101
10001100
01100101
01111001
10001101
10010100
10100101
10000100
01111110
10110000
10011101
01000101
10010000
10001111
10010110
10001100
10000101
10001100
01100101
01111001
10001101
10010100
10100101
10000100
01111110
10110000
10011101
01000101
10010000
10001111
10010110
10001100
10000101
10001100
01100101
01111001
10001101
10010100
10100101
10000100
01111110
10110000
10011101
01000101
10010000
10001111
10010110
10001100
10000101
10001100
01100101
01111001
10001101
10010100
10100101
10000100
01111110
10110000
10011101
01000101
10010000
10001111
10010110
10001100
10000101
10001100
01100101
01111001
10001101
10010100
10100101
10000100
01111110
10110000
10011101
01000101
10010000
10001111
10010110
10001100
10000101
10001100
01100101
01111001
10001101
10010100
10100101
10000100
01111110
10110000
10011101
01000101
10010000
10001111
10010110
10001100
10000101
10001100
01100101
01111001
10001101
10010100
10100101
10000100
01111110
10110000
10011101
01000101
10010000
10001111
10010110
10001100
10000101
10001100
01100101
01111001
10001101
10010100
10100101
10000100
01111110
10110000
10011101
01000101
10010000
10001111
10010110
10001100
10000101
10001100
01100101
01111001
10001101
10010100
10100101
10000100
01111110
10110000
10011101
01000101
10010000
10001111
10010110
10001100
10000101
10001100
01100101
01111001
10001101
10010100
10100101
10000100
01111110
10110000
10011101
01000101
10010000
10001111
10010110
10001100
10000101
10001100
01100101
01111001
10001101
10010100
10100101
10000100
01111110
10110000
10011101
01000101
10010000
10001111
10010110
10001100
10000101
10001100
01100101
01111001
10001101
10010100
10100101
10000100
01111110
10110000
10011101
01000101
10010000
10001111
10010110
10001100
10000101
10001100
01100101
01111001
10001101
10010100
10100101
10000100
01111110
10110000
10011101
01000101
10010000
10001111
10010110
10001100
10000101
10001100
01100101
01111001
10001101
10010100
10100101
10000100
01111110
10110000
10011101
01000101
10010000
10001111
10010110
10001100
10000101
10001100
01100101
01111001
10001101
10010100
10100101
10000100
01111110
10110000
10011101
01000101
10010000
10001111
10010110
10001100
10000101
10001100
01100101
01111001
10001101
10010100
10100101
10000100
01111110
10110000
10011101
01000101
10010000
10001111
10010110
10001100
10000101
10001100
01100101
01111001
10001101
10010100
10100101
10000100
01111110
10110000
10011101
01000101
10010000
10001111
10010110
10001100
10000101
10001100
01100101
01111001
10001101
10010100
10100101
10000100
01111110
10110000
10011101
01000101
10010000
10001111
10010110
10001100
10000101
10001100
01100101
01111001
10001101
10010100
10100101
10000100
01111110
10110000
10011101
01000101
10010000
10001111
10010110
10001100
10000101
10001100
01100101
01111001
10001101
10010100
10100101
10000100
01111110
10110000
10011101
01000101
10010000
10001111
10010110
10001100
10000101
10001100
01100101
01111001
10001101
10010100
10100101
10000100
01111110
10110000
10011101
01000101
10010000
10001111
10010110
10001100
10000101
10001100
01100101
01111001
10001101
10010100
10100101
10000100
01111110
10110000
10011101
01000101
10010000
10001111
10010110
10001100
10000101
10001100
01100101
01111001
10001101
10010100
10100101
10000100
01111110
10110000
10011101
01000101
10010000
10001111
10010110
10001100
10000101
10001100
01100101
01111001
10001101
10010100
10100101
10000100
01111110
10110000
10011101
01000101
10010000
10001111
10010110
10001100
10000101
10001100
01100101
01111001
10001101
10010100
10100101
10000100
01111110
10110000
10011101
01000101
10010000
10001111
10010110
10001100
10000101
10001100
01100101
01111001
10001101
10010100
10100101
10000100
01111110
10110000
10011101
01000101
10010000
10001111
10010110
10001100
10000101
10001100
01100101
01111001
10001101
10010100
10100101
10000100
01111110
10110000
10011101
01000101
10010000
10001111
10010110
10001100
10000101
10001100
01100101
01111001
10001101
10010100
10100101
10000100
01111110
10110000
10011101
01000101
10010000
10001111
10010110
10001100
10000101
10001100
01100101
01111001
10001101
10010100
10100101
10000100
01111110
10110000
10011101
01000101
10010000
10001111
10010110
10001100
10000101
10001100
01100101
01111001
10001101
10010100
10100101
10000100
01111110
10110000
10011101
01000101
10010000
10001111
10010110
10001100
10000101
10001100
01100101
01111001
10001101
10010100
10100101
10000100
01111110
10110000
10011101
01000101
10010000
10001111
10010110
10001100
10000101
10001100
01100101
01111001
10001101
10010100
10100101
10000100
01111110
10110000
10011101
01000101
10010000
10001111
10010110
10001100
10000101
10001100
01100101
01111001
10001101
10010100
10100101
10000100
01111110
10110000
10011101
01000101
10010000
10001111
10010110
10001100
10000101
10001100
01100101
01111001
10001101
10010100
10100101
10000100
01111110
10110000
10011101
01000101
10010000
10001111
10010110
10001100
10000101
10001100
01100101
01111001
10001101
10010100
10100101
10000100
01111110
10110000
10011101
01000101
10010000
10001111
10010110
10001100
10000101
10001100
01100101
01111001
10001101
10010100
10100101
10000100
01111110
10110000
10011101
01000101
10010000
10001111
10010110
10001100
10000101
10001100
01100101
01111001
10001101
10010100
10100101
10000100
01111110
10110000
10011101
01000101
10010000
10001111
10010110
10001100
10000101
10001100
01100101
01111001
10001101
10010100
10100101
10000100
01111110
10110000
10011101
01000101
10010000
10001111
10010110
10001100
10000101
10001100
01100101
01111001
10001101
10010100
10100101
10000100
01111110
10110000
10011101
01000101
10010000
10001111
10010110
10001100
10000101
10001100
01100101
01111001
10001101
10010100
10100101
10000100
01111110
10110000
10011101
01000101
10010000
10001111
10010110
10001100
10000101
10001100
01100101
01111001
10001101
10010100
10100101
10000100
01111110
10110000
10011101
01000101
10010000
10001111
10010110
10001100
10000101
10001100
01100101
01111001
10001101
10010100
10100101
10000100
01111110
10110000
10011101
01000101
10010000
10001111
10010110
10001100
10000101
10001100
01100101
01111001
10001101
10010100
10100101
10000100
01111110
10110000
10011101
01000101
10010000
10001111
10010110
10001100
10000101
10001100
01100101
01111001
10001101
10010100
10100101
10000100
01111110
10110000
10011101
01000101
10010000
10001111
10010110
10001100
10000101
10001100
01100101
01111001
10001101
10010100
10100101
10000100
01111110
10110000
10011101
01000101
10010000
10001111
10010110
10001100
10000101
10001100
01100101
01111001
10001101
10010100
10100101
10000100
01111110
10110000
10011101
01000101
10010000
10001111
10010110
10001100
10000101
10001100
01100101
01111001
10001101
10010100
10100101
10000100
01111110
10110000
10011101
01000101
10010000
10001111
10010110
10001100
10000101
10001100
01100101
01111001
10001101
10010100
10100101
10000100
01111110
10110000
10011101
01000101
10010000
10001111
10010110
10001100
10000101
10001100
01100101
01111001
10001101
10010100
10100101
10000100
01111110
10110000
10011101
01000101
10010000
10001111
10010110
10001100
10000101
10001100
01100101
01111001
10001101
10010100
10100101
10000100
01111110
10110000
10011101
01000101
10010000
10001111
10010110
10001100
10000101
10001100
01100101
01111001
10001101
10010100
10100101
10000100
01111110
10110000
10011101
01000101
10010000
10001111
10010110
10001100
10000101
10001100
01100101
01111001
10001101
10010100
10100101
10000100
01111110
10110000
10011101
01000101
10010000
10001111
10010110
10001100
10000101
10001100
01100101
01111001
10001101
10010100
10100101
10000100
01111110
10110000
10011101
01000101
10010000
10001111
10010110
10001100
10000101
10001100
01100101
01111001
10001101
10010100
10100101
10000100
01111110
10110000
10011101
01000101
10010000
10001111
10010110
10001100
10000101
10001100
01100101
01111001
10001101
10010100
10100101
10000100
01111110
10110000
10011101
01000101
10010000
10001111
10010110
10001100
10000101
10001100
01100101
01111001
10001101
10010100
10100101
10000100
01111110
10110000
10011101
01000101
10010000
10001111
10010110
10001100
10000101
10001100
01100101
01111001
10001101
10010100
10100101
10000100
01111110
10110000
10011101
01000101
10010000
10001111
10010110
10001100
10000101
10001100
01100101
01111001
10001101
10010100
10100101
10000100
01111110
10110000
10011101
01000101
10010000
10001111
10010110
10001100
10000101
10001100
01100101
01111001
10001101
10010100
10100101
10000100
01111110
10110000
10011101
01000101
10010000
10001111
10010110
10001100
10000101
10001100
01100101
01111001
10001101
10010100
10100101
10000100
01111110
10110000
10011101
01000101
10010000
10001111
10010110
10001100
10000101
10001100
01100101
01111001
10001101
10010100
10100101
10000100
01111110
10110000
10011101
01000101
10010000
10001111
10010110
10001100
10000101
10001100
01100101
01111001
10001101
10010100
10100101
10000100
01111110
10110000
10011101
01000101
10010000
10001111
10010110
10001100
10000101
10001100
01100101
01111001
10001101
10010100
10100101
10000100
01111110
10110000
10011101
01000101
10010000
10001111
10010110
10001100
10000101
10001100
01100101
01111001
10001101
10010100
10100101
10000100
01111110
10110000
10011101
01000101
10010000
10001111
10010110
10001100
10000101
10001100
01100101
01111001
10001101
10010100
10100101
10000100
01111110
10110000
10011101
01000101
10010000
10001111
10010110
10001100
10000101
10001100
01100101
01111001
10001101
10010100
10100101
10000100
01111110
10110000
10011101
01000101
10010000
10001111
10010110
10001100
10000101
10001100
01100101
01111001
10001101
10010100
10100101
10000100
01111110
10110000
10011101
01000101
10010000
10001111
10010110
10001100
10000101
10001100
01100101
01111001
10001101
10010100
10100101
10000100
01111110
10110000
10011101
01000101
10010000
10001111
10010110
10001100
10000101
10001100
01100101
01111001
10001101
10010100
10100101
10000100
01111110
10110000
10011101
01000101
10010000
10001111
10010110
10001100
10000101
10001100
01100101
01111001
10001101
10010100
10100101
10000100
01111110
10110000
10011101
01000101
10010000
10001111
10010110
10001100
10000101
10001100
01100101
01111001
10001101
10010100
10100101
10000100
01111110
10110000
10011101
01000101
10010000
10001111
10010110
10001100
10000101
10001100
01100101
01111001
10001101
10010100
10100101
10000100
01111110
10110000
10011101
01000101
10010000
10001111
10010110
10001100
10000101
10001100
01100101
01111001
10001101
10010100
10100101
10000100
01111110
10110000
10011101
01000101
10010000
10001111
10010110
10001100
10000101
10001100
01100101
01111001
10001101
10010100
10100101
10000100
01111110
10110000
10011101
01000101
10010000
10001111
10010110
10001100
10000101
10001100
01100101
01111001
10001101
10010100
10100101
10000100
01111110
10110000
10011101
01000101
10010000
10001111
10010110
10001100
10000101
10001100
01100101
01111001
10001101
10010100
10100101
10000100
01111110
10110000
10011101
01000101
10010000
10001111
10010110
10001100
10000101
10001100
01100101
01111001
10001101
10010100
10100101
10000100
01111110
10110000
10011101
01000101
10010000
10001111
10010110
10001100
10000101
10001100
01100101
01111001
10001101
10010100
10100101
10000100
01111110
10110000
10011101
01000101
10010000
10001111
10010110
10001100
10000101
10001100
01100101
01111001
10001101
10010100
10100101
10000100
01111110
10110000
10011101
01000101
10010000
10001111
10010110
10001100
10000101
10001100
01100101
01111001
10001101
10010100
10100101
10000100
01111110
10110000
10011101
01000101
10010000
10001111
10010110
10001100
10000101
10001100
01100101
01111001
10001101
10010100
10100101
10000100
01111110
10110000
10011101
01000101
10010000
10001111
10010110
10001100
10000101
10001100
01100101
01111001
10001101
10010100
10100101
10000100
01111110
10110000
10011101
01000101
10010000
10001111
10010110
10001100
10000101
10001100
01100101
01111001
10001101
10010100
10100101
10000100
01111110
10110000
10011101
01000101
10010000
10001111
10010110
10001100
10000101
10001100
01100101
01111001
10001101
10010100
10100101
10000100
01111110
10110000
10011101
01000101
10010000
10001111
10010110
10001100
10000101
10001100
01100101
01111001
10001101
10010100
10100101
10000100
01111110
10110000
10011101
01000101
10010000
10001111
10010110
10001100
10000101
10001100
01100101
01111001
10001101
10010100
10100101
10000100
01111110
10110000
10011101
01000101
10010000
10001111
10010110
10001100
10000101
10001100
01100101
01111001
10001101
10010100
10100101
10000100
01111110
10110000
10011101
01000101
10010000
10001111
10010110
10001100
10000101
10001100
01100101
01111001
10001101
10010100
10100101
10000100
01111110
10110000
10011101
01000101
10010000
10001111
10010110
10001100
10000101
10001100
01100101
01111001
10001101
10010100
10100101
10000100
01111110
10110000
10011101
01000101
10010000
10001111
10010110
10001100
10000101
10001100
01100101
01111001
10001101
10010100
10100101
10000100
01111110
10110000
10011101
01000101
10010000
10001111
10010110
10001100
10000101
10001100
01100101
01111001
10001101
10010100
10100101
10000100
01111110
10110000
10011101
01000101
10010000
10001111
10010110
10001100
10000101
10001100
01100101
01111001
10001101
10010100
10100101
10000100
01111110
10110000
10011101
01000101
10010000
10001111
10010110
10001100
10000101
10001100
01100101
01111001
10001101
10010100
10100101
10000100
01111110
10110000
10011101
01000101
10010000
10001111
10010110
10001100
10000101
10001100
01100101
01111001
10001101
10010100
10100101
10000100
01111110
10110000
10011101
01000101
10010000
10001111
10010110
10001100
10000101
10001100
01100101
01111001
10001101
10010100
10100101
10000100
01111110
10110000
10011101
01000101
10010000
10001111
10010110
10001100
10000101
10001100
01100101
01111001
10001101
10010100
10100101
10000100
01111110
10110000
10011101
01000101
10010000
10001111
10010110
10001100
10000101
10001100
01100101
01111001
10001101
10010100
10100101
10000100
01111110
10110000
10011101
01000101
10010000
10001111
10010110
10001100
10000101
10001100
01100101
01111001
10001101
10010100
10100101
10000100
01111110
10110000
10011101
01000101
10010000
10001111
10010110
10001100
10000101
10001100
01100101
01111001
10001101
10010100
10100101
10000100
01111110
10110000
10011101
01000101
10010000
10001111
10010110
10001100
10000101
10001100
01100101
01111001
10001101
10010100
10100101
10000100
01111110
10110000
10011101
01000101
10010000
10001111
10010110
10001100
10000101
10001100
01100101
01111001
10001101
10010100
10100101
10000100
01111110
10110000
10011101
01000101
10010000
10001111
10010110
10001100
10000101
10001100
01100101
01111001
10001101
10010100
10100101
10000100
01111110
10110000
10011101
01000101
10010000
10001111
10010110
10001100
10000101
10001100
01100101
01111001
10001101
10010100
10100101
10000100
01111110
10110000
10011101
01000101
10010000
10001111
10010110
10001100
10000101
10001100
01100101
01111001
10001101
10010100
10100101
10000100
01111110
10110000
10011101
01000101
10010000
10001111
10010110
10001100
10000101
10001100
01100101
01111001
10001101
10010100
10100101
10000100
01111110
10110000
10011101
01000101
10010000
10001111
10010110
10001100
10000101
10001100
01100101
01111001
10001101
10010100
10100101
10000100
01111110
10110000
10011101
01000101
10010000
10001111
10010110
10001100
10000101
10001100
01100101
01111001
10001101
10010100
10100101
10000100
01111110
10110000
10011101
01000101
10010000
10001111
10010110
10001100
10000101
10001100
01100101
01111001
10001101
10010100
10100101
10000100
01111110
10110000
10011101
01000101
10010000
10001111
10010110
10001100
10000101
10001100
01100101
01111001
10001101
10010100
10100101
10000100
01111110
10110000
10011101
01000101
10010000
10001111
10010110
10001100
10000101
10001100
01100101
01111001
10001101
10010100
10100101
10000100
01111110
10110000
10011101
01000101
10010000
10001111
10010110
10001100
10000101
10001100
01100101
01111001
10001101
10010100
10100101
10000100
01111110
10110000
10011101
01000101
10010000
10001111
10010110
10001100
10000101
10001100
01100101
01111001
10001101
10010100
10100101
10000100
01111110
10110000
10011101
01000101
10010000
10001111
10010110
10001100
10000101
10001100
01100101
01111001
10001101
10010100
10100101
10000100
01111110
10110000
10011101
01000101
10010000
10001111
10010110
10001100
10000101
10001100
01100101
01111001
10001101
10010100
10100101
10000100
01111110
10110000
10011101
01000101
10010000
10001111
10010110
10001100
10000101
10001100
01100101
01111001
10001101
10010100
10100101
10000100
01111110
10110000
10011101
01000101
10010000
10001111
10010110
10001100
10000101
10001100
01100101
01111001
10001101
10010100
10100101
10000100
01111110
10110000
10011101
01000101
10010000
10001111
10010110
10001100
10000101
10001100
01100101
01111001
10001101
10010100
10100101
10000100
01111110
10110000
10011101
01000101
10010000
10001111
10010110
10001100
10000101
10001100
01100101
01111001
10001101
10010100
10100101
10000100
01111110
10110000
10011101
01000101
10010000
10001111
10010110
10001100
10000101
10001100
01100101
01111001
10001101
10010100
10100101
10000100
01111110
10110000
10011101
01000101
10010000
10001111
10010110
10001100
10000101
10001100
01100101
01111001
10001101
10010100
10100101
10000100
01111110
10110000
10011101
01000101
10010000
10001111
10010110
10001100
10000101
10001100
01100101
01111001
10001101
10010100
10100101
10000100
01111110
10110000
10011101
01000101
10010000
10001111
10010110
10001100
10000101
10001100
01100101
01111001
10001101
10010100
10100101
10000100
01111110
10110000
10011101
01000101
10010000
10001111
10010110
10001100
10000101
10001100
01100101
01111001
10001101
10010100
10100101
10000100
01111110
10110000
10011101
01000101
10010000
10001111
10010110
10001100
10000101
10001100
01100101
01111001
10001101
10010100
10100101
10000100
01111110
10110000
10011101
01000101
10010000
10001111
10010110
10001100
10000101
10001100
01100101
01111001
10001101
10010100
10100101
10000100
01111110
10110000
10011101
01000101
10010000
10001111
10010110
10001100
10000101
10001100
01100101
01111001
10001101
10010100
10100101
10000100
01111110
10110000
10011101
01000101
10010000
10001111
10010110
10001100
10000101
10001100
01100101
01111001
10001101
10010100
10100101
10000100
01111110
10110000
10011101
01000101
10010000
10001111
10010110
10001100
10000101
10001100
01100101
01111001
10001101
10010100
10100101
10000100
01111110
10110000
10011101
01000101
10010000
10001111
10010110
10001100
10000101
10001100
01100101
01111001
10001101
10010100
10100101
10000100
01111110
10110000
10011101
01000101
10010000
10001111
10010110
10001100
10000101
10001100
01100101
01111001
10001101
10010100
10100101
10000100
01111110
10110000
10011101
01000101
10010000
10001111
10010110
10001100
10000101
10001100
01100101
01111001
10001101
10010100
10100101
10000100
01111110
10110000
10011101
01000101
10010000
10001111
10010110
10001100
10000101
10001100
01100101
01111001
10001101
10010100
10100101
10000100
01111110
10110000
10011101
01000101
10010000
10001111
10010110
10001100
10000101
10001100
01100101
01111001
10001101
10010100
10100101
10000100
01111110
10110000
10011101
01000101
10010000
10001111
10010110
10001100
10000101
10001100
01100101
01111001
10001101
10010100
10100101
10000100
01111110
10110000
10011101
01000101
10010000
10001111
10010110
10001100
10000101
10001100
01100101
01111001
10001101
10010100
10100101
10000100
01111110
10110000
10011101
01000101
10010000
10001111
10010110
10001100
10000101
10001100
01100101
01111001
10001101
10010100
10100101
10000100
01111110
10110000
10011101
01000101
10010000
10001111
10010110
10001100
10000101
10001100
01100101
01111001
10001101
10010100
10100101
10000100
01111110
10110000
10011101
01000101
10010000
10001111
10010110
10001100
10000101
10001100
01100101
01111001
10001101
10010100
10100101
10000100
01111110
10110000
10011101
01000101
10010000
10001111
10010110
10001100
10000101
10001100
01100101
01111001
10001101
10010100
10100101
10000100
01111110
10110000
10011101
01000101
10010000
10001111
10010110
10001100
10000101
10001100
01100101
01111001
10001101
10010100
10100101
10000100
01111110
10110000
10011101
01000101
10010000
10001111
10010110
10001100
10000101
10001100
01100101
01111001
10001101
10010100
10100101
10000100
01111110
10110000
10011101
01000101
10010000
10001111
10010110
10001100
10000101
10001100
01100101
01111001
10001101
10010100
10100101
10000100
01111110
10110000
10011101
01000101
10010000
10001111
10010110
10001100
10000101
10001100
01100101
01111001
10001101
10010100
10100101
10000100
01111110
10110000
10011101
01000101
10010000
10001111
10010110
10001100
10000101
10001100
01100101
01111001
10001101
10010100
10100101
10000100
01111110
10110000
10011101
01000101
10010000
10001111
10010110
10001100
10000101
10001100
01100101
01111001
10001101
10010100
10100101
10000100
01111110
10110000
10011101
01000101
10010000
10001111
10010110
10001100
10000101
10001100
01100101
01111001
10001101
10010100
10100101
10000100
01111110
10110000
10011101
01000101
10010000
10001111
10010110
10001100
10000101
10001100
01100101
01111001
10001101
10010100
10100101
10000100
01111110
10110000
10011101
01000101
10010000
10001111
10010110
10001100
10000101
10001100
01100101
01111001
10001101
10010100
10100101
10000100
01111110
10110000
10011101
01000101
10010000
10001111
10010110
10001100
10000101
10001100
01100101
01111001
10001101
10010100
10100101
10000100
01111110
10110000
10011101
01000101
10010000
10001111
10010110
10001100
10000101
10001100
01100101
01111001
10001101
10010100
10100101
10000100
01111110
10110000
10011101
01000101
10010000
10001111
10010110
10001100
10000101
10001100
01100101
01111001
10001101
10010100
10100101
10000100
01111110
10110000
10011101
01000101
10010000
10001111
10010110
10001100
10000101
10001100
01100101
01111001
10001101
10010100
10100101
10000100
01111110
10110000
10011101
01000101
10010000
10001111
10010110
10001100
10000101
10001100
01100101
01111001
10001101
10010100
10100101
10000100
01111110
10110000
10011101
01000101
10010000
10001111
10010110
10001100
10000101
10001100
01100101
01111001
10001101
10010100
10100101
10000100
01111110
10110000
10011101
01000101
10010000
10001111
10010110
10001100
10000101
10001100
01100101
01111001
10001101
10010100
10100101
10000100
01111110
10110000
10011101
01000101
10010000
10001111
10010110
10001100
10000101
10001100
01100101
01111001
10001101
10010100
10100101
10000100
01111110
10110000
10011101
01000101
10010000
10001111
10010110
10001100
10000101
10001100
01100101
01111001
10001101
10010100
10100101
10000100
01111110
10110000
10011101
01000101
10010000
10001111
10010110
10001100
10000101
10001100
01100101
01111001
10001101
10010100
10100101
10000100
01111110
10110000
10011101
01000101
10010000
10001111
10010110
10001100
10000101
10001100
01100101
01111001
10001101
10010100
10100101
10000100
01111110
10110000
10011101
01000101
10010000
10001111
10010110
10001100
10000101
10001100
01100101
01111001
10001101
10010100
10100101
10000100
01111110
10110000
10011101
01000101
10010000
10001111
10010110
10001100
10000101
10001100
01100101
01111001
10001101
10010100
10100101
10000100
01111110
10110000
10011101
01000101
10010000
10001111
10010110
10001100
10000101
10001100
01100101
01111001
10001101
10010100
10100101
10000100
01111110
10110000
10011101
01000101
10010000
10001111
10010110
10001100
10000101
10001100
01100101
01111001
10001101
10010100
10100101
10000100
01111110
10110000
10011101
01000101
10010000
10001111
10010110
10001100
10000101
10001100
01100101
01111001
10001101
10010100
10100101
10000100
01111110
10110000
10011101
01000101
10010000
10001111
10010110
10001100
10000101
10001100
01100101
01111001
10001101
10010100
10100101
10000100
01111110
10110000
10011101
01000101
10010000
10001111
10010110
10001100
10000101
10001100
01100101
01111001
10001101
10010100
10100101
10000100
01111110
10110000
10011101
01000101
10010000
10001111
10010110
10001100
10000101
10001100
01100101
01111001
10001101
10010100
10100101
10000100
01111110
10110000
10011101
01000101
10010000
10001111
10010110
10001100
10000101
10001100
01100101
01111001
10001101
10010100
10100101
10000100
01111110
10110000
10011101
01000101
10010000
10001111
10010110
10001100
10000101
10001100
01100101
01111001
10001101
10010100
10100101
10000100
01111110
10110000
10011101
01000101
10010000
10001111
10010110
10001100
10000101
10001100
01100101
01111001
10001101
10010100
10100101
10000100
01111110
10110000
10011101
01000101
10010000
10001111
10010110
10001100
10000101
10001100
01100101
01111001
10001101
10010100
10100101
10000100
01111110
10110000
10011101
01000101
10010000
10001111
10010110
10001100
10000101
10001100
01100101
01111001
10001101
10010100
10100101
10000100
01111110
10110000
10011101
01000101
10010000
10001111
10010110
10001100
10000101
10001100
01100101
01111001
10001101
10010100
10100101
10000100
01111110
10110000
10011101
01000101
10010000
10001111
10010110
10001100
10000101
10001100
01100101
01111001
10001101
10010100
10100101
10000100
01111110
10110000
10011101
01000101
10010000
10001111
10010110
10001100
10000101
10001100
01100101
01111001
10001101
10010100
10100101
10000100
01111110
10110000
10011101
01000101
10010000
10001111
10010110
10001100
10000101
10001100
01100101
01111001
10001101
10010100
10100101
10000100
01111110
10110000
10011101
01000101
10010000
10001111
10010110
10001100
10000101
10001100
01100101
01111001
10001101
10010100
10100101
10000100
01111110
10110000
10011101
01000101
10010000
10001111
10010110
10001100
10000101
10001100
01100101
01111001
10001101
10010100
10100101
10000100
01111110
10110000
10011101
01000101
10010000
10001111
10010110
10001100
10000101
10001100
01100101
01111001
10001101
10010100
10100101
10000100
01111110
10110000
10011101
01000101
10010000
10001111
10010110
10001100
10000101
10001100
01100101
01111001
10001101
10010100
10100101
10000100
01111110
10110000
10011101
01000101
10010000
10001111
10010110
10001100
10000101
10001100
01100101
01111001
10001101
10010100
10100101
10000100
01111110
10110000
10011101
01000101
10010000
10001111
10010110
10001100
10000101
10001100
01100101
01111001
10001101
10010100
10100101
10000100
01111110
10110000
10011101
01000101
10010000
10001111
10010110
10001100
10000101
10001100
01100101
01111001
10001101
10010100
10100101
10000100
01111110
10110000
10011101
01000101
10010000
10001111
10010110
10001100
10000101
10001100
01100101
01111001
10001101
10010100
10100101
10000100
01111110
10110000
10011101
01000101
10010000
10001111
10010110
10001100
10000101
10001100
01100101
01111001
10001101
10010100
10100101
10000100
01111110
10110000
10011101
01000101
10010000
10001111
10010110
10001100
10000101
10001100
01100101
01111001
10001101
10010100
10100101
10000100
01111110
10110000
10011101
01000101
10010000
10001111
10010110
10001100
10000101
10001100
01100101
01111001
10001101
10010100
10100101
10000100
01111110
10110000
10011101
01000101
10010000
10001111
10010110
10001100
10000101
10001100
01100101
01111001
10001101
10010100
10100101
10000100
01111110
10110000
10011101
01000101
10010000
10001111
10010110
10001100
10000101
10001100
01100101
01111001
10001101
10010100
10100101
10000100
01111110
10110000
10011101
01000101
10010000
10001111
10010110
10001100
10000101
10001100
01100101
01111001
10001101
10010100
10100101
10000100
01111110
10110000
10011101
01000101
10010000
10001111
10010110
10001100
10000101
10001100
01100101
01111001
10001101
10010100
10100101
10000100
01111110
10110000
10011101
01000101
10010000
10001111
10010110
10001100
10000101
10001100
01100101
01111001
10001101
10010100
10100101
10000100
01111110
10110000
10011101
01000101
10010000
10001111
10010110
10001100
10000101
10001100
01100101
01111001
10001101
10010100
10100101
10000100
01111110
10110000
10011101
01000101
10010000
10001111
10010110
10001100
10000101
10001100
01100101
01111001
10001101
10010100
10100101
10000100
01111110
10110000
10011101
01000101
10010000
10001111
10010110
10001100
10000101
10001100
01100101
01111001
10001101
10010100
10100101
10000100
01111110
10110000
10011101
01000101
10010000
10001111
10010110
10001100
10000101
10001100
01100101
01111001
10001101
10010100
10100101
10000100
01111110
10110000
10011101
01000101
10010000
10001111
10010110
10001100
10000101
10001100
01100101
01111001
10001101
10010100
10100101
10000100
01111110
10110000
10011101
01000101
10010000
10001111
10010110
10001100
10000101
10001100
01100101
01111001
10001101
10010100
10100101
10000100
01111110
10110000
10011101
01000101
10010000
10001111
10010110
10001100
10000101
10001100
01100101
01111001
10001101
10010100
10100101
10000100
01111110
10110000
10011101
01000101
10010000
10001111
10010110
10001100
10000101
10001100
01100101
01111001
10001101
10010100
10100101
10000100
01111110
10110000
10011101
01000101
10010000
10001111
10010110
10001100
10000101
10001100
01100101
01111001
10001101
10010100
10100101
10000100
01111110
10110000
10011101
01000101
10010000
10001111
10010110
10001100
10000101
10001100
01100101
01111001
10001101
10010100
10100101
10000100
01111110
10110000
10011101
01000101
10010000
10001111
10010110
10001100
10000101
10001100
01100101
01111001
10001101
10010100
10100101
10000100
01111110
10110000
10011101
01000101
10010000
10001111
10010110
10001100
10000101
10001100
01100101
01111001
10001101
10010100
10100101
10000100
01111110
10110000
10011101
01000101
10010000
10001111
10010110
10001100
10000101
10001100
01100101
01111001
10001101
10010100
10100101
10000100
01111110
10110000
10011101
01000101
10010000
10001111
10010110
10001100
10000101
10001100
01100101
01111001
10001101
10010100
10100101
10000100
01111110
10110000
10011101
01000101
10010000
10001111
10010110
10001100
10000101
10001100
01100101
01111001
10001101
10010100
10100101
10000100
01111110
10110000
10011101
01000101
10010000
10001111
10010110
10001100
10000101
10001100
01100101
01111001
10001101
10010100
10100101
10000100
01111110
10110000
10011101
01000101
10010000
10001111
10010110
10001100
10000101
10001100
01100101
01111001
10001101
10010100
10100101
10000100
01111110
10110000
10011101
01000101
10010000
10001111
10010110
10001100
10000101
10001100
01100101
01111001
10001101
10010100
10100101
10000100
01111110
10110000
10011101
01000101
10010000
10001111
10010110
10001100
10000101
10001100
01100101
01111001
10001101
10010100
10100101
10000100
01111110
10110000
10011101
01000101
10010000
10001111
10010110
10001100
10000101
10001100
01100101
01111001
10001101
10010100
10100101
10000100
01111110
10110000
10011101
01000101
10010000
10001111
10010110
10001100
10000101
10001100
01100101
01111001
10001101
10010100
10100101
10000100
01111110
10110000
10011101
01000101
10010000
10001111
10010110
10001100
10000101
10001100
01100101
01111001
10001101
10010100
10100101
10000100
01111110
10110000
10011101
01000101
10010000
10001111
10010110
10001100
10000101
10001100
01100101
01111001
10001101
10010100
10100101
10000100
01111110
10110000
10011101
01000101
10010000
10001111
10010110
10001100
10000101
10001100
01100101
01111001
10001101
10010100
10100101
10000100
01111110
10110000
10011101
01000101
10010000
10001111
10010110
10001100
10000101
10001100
01100101
01111001
10001101
10010100
10100101
10000100
01111110
10110000
10011101
01000101
10010000
10001111
10010110
10001100
10000101
10001100
01100101
01111001
10001101
10010100
10100101
10000100
01111110
10110000
10011101
01000101
10010000
10001111
10010110
10001100
10000101
10001100
01100101
01111001
10001101
10010100
10100101
10000100
01111110
10110000
10011101
01000101
10010000
10001111
10010110
10001100
10000101
10001100
01100101
01111001
10001101
10010100
10100101
10000100
01111110
10110000
10011101
01000101
10010000
10001111
10010110
10001100
10000101
10001100
01100101
01111001
10001101
10010100
10100101
10000100
01111110
10110000
10011101
01000101
10010000
10001111
10010110
10001100
10000101
10001100
01100101
01111001
10001101
10010100
10100101
10000100
01111110
10110000
10011101
01000101
10010000
10001111
10010110
10001100
10000101
10001100
01100101
01111001
10001101
10010100
10100101
10000100
01111110
10110000
10011101
01000101
10010000
10001111
10010110
10001100
10000101
10001100
01100101
01111001
10001101
10010100
10100101
10000100
01111110
10110000
10011101
01000101
10010000
10001111
10010110
10001100
10000101
10001100
01100101
01111001
10001101
10010100
10100101
10000100
01111110
10110000
10011101
01000101
10010000
10001111
10010110
10001100
10000101
10001100
01100101
01111001
10001101
10010100
10100101
10000100
01111110
10110000
10011101
01000101
10010000
10001111
10010110
10001100
10000101
10001100
01100101
01111001
10001101
10010100
10100101
10000100
01111110
10110000
10011101
01000101
10010000
10001111
10010110
10001100
10000101
10001100
01100101
01111001
10001101
10010100
10100101
10000100
01111110
10110000
10011101
01000101
10010000
10001111
10010110
10001100
10000101
10001100
01100101
01111001
10001101
10010100
10100101
10000100
01111110
10110000
10011101
01000101
10010000
10001111
10010110
10001100
10000101
10001100
01100101
01111001
10001101
10010100
10100101
10000100
01111110
10110000
10011101
01000101
10010000
10001111
10010110
10001100
10000101
10001100
01100101
01111001
10001101
10010100
10100101
10000100
01111110
10110000
10011101
01000101
10010000
10001111
10010110
10001100
10000101
10001100
01100101
01111001
10001101
10010100
10100101
10000100
01111110
10110000
10011101
01000101
10010000
10001111
10010110
10001100
10000101
10001100
01100101
01111001
10001101
10010100
10100101
10000100
01111110
10110000
10011101
01000101
10010000
10001111
10010110
10001100
10000101
10001100
01100101
01111001
10001101
10010100
10100101
10000100
01111110
10110000
10011101
01000101
10010000
10001111
10010110
10001100
10000101
10001100
01100101
01111001
10001101
10010100
10100101
10000100
01111110
10110000
10011101
01000101
10010000
10001111
10010110
10001100
10000101
10001100
01100101
01111001
10001101
10010100
10100101
10000100
01111110
10110000
10011101
01000101
10010000
10001111
10010110
10001100
10000101
10001100
01100101
01111001
10001101
10010100
10100101
10000100
01111110
10110000
10011101
01000101
10010000
10001111
10010110
10001100
10000101
10001100
01100101
01111001
10001101
10010100
10100101
10000100
01111110
10110000
10011101
01000101
10010000
10001111
10010110
10001100
10000101
10001100
01100101
01111001
10001101
10010100
10100101
10000100
01111110
10110000
10011101
01000101
10010000
10001111
10010110
10001100
10000101
10001100
01100101
01111001
10001101
10010100
10100101
10000100
01111110
10110000
10011101
01000101
10010000
10001111
10010110
10001100
10000101
10001100
01100101
01111001
10001101
10010100
10100101
10000100
01111110
10110000
10011101
01000101
10010000
10001111
10010110
10001100
10000101
10001100
01100101
01111001
10001101
10010100
10100101
10000100
01111110
10110000
10011101
01000101
10010000
10001111
10010110
10001100
10000101
10001100
01100101
01111001
10001101
10010100
10100101
10000100
01111110
10110000
10011101
01000101
10010000
10001111
10010110
10001100
10000101
10001100
01100101
01111001
10001101
10010100
10100101
10000100
01111110
10110000
10011101
01000101
10010000
10001111
10010110
10001100
10000101
10001100
01100101
01111001
10001101
10010100
10100101
10000100
01111110
10110000
10011101
01000101
10010000
10001111
10010110
10001100
10000101
10001100
01100101
01111001
10001101
10010100
10100101
10000100
01111110
10110000
10011101
01000101
10010000
10001111
10010110
10001100
10000101
10001100
01100101
01111001
10001101
10010100
10100101
10000100
01111110
10110000
10011101
01000101
10010000
10001111
10010110
10001100
10000101
10001100
01100101
01111001
10001101
10010100
10100101
10000100
01111110
10110000
10011101
01000101
10010000
10001111
10010110
10001100
10000101
10001100
01100101
01111001
10001101
10010100
10100101
10000100
01111110
10110000
10011101
01000101
10010000
10001111
10010110
10001100
10000101
10001100
01100101
01111001
10001101
10010100
10100101
10000100
01111110
10110000
10011101
01000101
10010000
10001111
10010110
10001100
10000101
10001100
01100101
01111001
10001101
10010100
10100101
10000100
01111110
10110000
10011101
01000101
10010000
10001111
10010110
10001100
10000101
10001100
01100101
01111001
10001101
10010100
10100101
10000100
01111110
10110000
10011101
01000101
10010000
10001111
10010110
10001100
10000101
10001100
01100101
01111001
10001101
10010100
10100101
10000100
01111110
10110000
10011101
01000101
10010000
10001111
10010110
10001100
10000101
10001100
01100101
01111001
10001101
10010100
10100101
10000100
01111110
10110000
10011101
01000101
10010000
10001111
10010110
10001100
10000101
10001100
01100101
01111001
10001101
10010100
10100101
10000100
01111110
10110000
10011101
01000101
10010000
10001111
10010110
10001100
10000101
10001100
01100101
01111001
10001101
10010100
10100101
10000100
01111110
10110000
10011101
01000101
10010000
10001111
10010110
10001100
10000101
10001100
01100101
01111001
10001101
10010100
10100101
10000100
01111110
10110000
10011101
01000101
10010000
10001111
10010110
10001100
10000101
10001100
01100101
01111001
10001101
10010100
10100101
10000100
01111110
10110000
10011101
01000101
10010000
10001111
10010110
10001100
10000101
10001100
01100101
01111001
10001101
10010100
10100101
10000100
01111110
10110000
10011101
01000101
10010000
10001111
10010110
10001100
10000101
10001100
01100101
01111001
10001101
10010100
10100101
10000100
01111110
10110000
10011101
01000101
10010000
10001111
10010110
10001100
10000101
10001100
01100101
01111001
10001101
10010100
10100101
10000100
01111110
10110000
10011101
01000101
10010000
10001111
10010110
10001100
10000101
10001100
01100101
01111001
10001101
10010100
10100101
10000100
01111110
10110000
10011101
01000101
10010000
10001111
10010110
10001100
10000101
10001100
01100101
01111001
10001101
10010100
10100101
10000100
01111110
10110000
10011101
01000101
10010000
10001111
10010110
10001100
10000101
10001100
01100101
01111001
10001101
10010100
10100101
10000100
01111110
10110000
10011101
01000101
10010000
10001111
10010110
10001100
10000101
10001100
01100101
01111001
10001101
10010100
10100101
10000100
01111110
10110000
10011101
01000101
10010000
10001111
10010110
10001100
10000101
10001100
01100101
01111001
10001101
10010100
10100101
10000100
01111110
10110000
10011101
01000101
10010000
10001111
10010110
10001100
10000101
10001100
01100101
01111001
10001101
10010100
10100101
10000100
01111110
10110000
10011101
01000101
10010000
10001111
10010110
10001100
10000101
10001100
01100101
01111001
10001101
10010100
10100101
10000100
01111110
10110000
10011101
01000101
10010000
10001111
10010110
10001100
10000101
10001100
01100101
01111001
10001101
10010100
10100101
10000100
01111110
10110000
10011101
01000101
10010000
10001111
10010110
10001100
10000101
10001100
01100101
01111001
10001101
10010100
10100101
10000100
01111110
10110000
10011101
01000101
10010000
10001111
10010110
10001100
10000101
10001100
01100101
01111001
10001101
10010100
10100101
10000100
01111110
10110000
10011101
01000101
10010000
10001111
10010110
10001100
10000101
10001100
01100101
01111001
10001101
10010100
10100101
10000100
01111110
10110000
10011101
01000101
10010000
10001111
10010110
10001100
10000101
10001100
01100101
01111001
10001101
10010100
10100101
10000100
01111110
10110000
10011101
01000101
10010000
10001111
10010110
10001100
10000101
10001100
01100101
01111001
10001101
10010100
10100101
10000100
01111110
10110000
10011101
01000101
10010000
10001111
10010110
10001100
10000101
10001100
01100101
01111001
10001101
10010100
10100101
10000100
01111110
10110000
10011101
01000101
10010000
10001111
10010110
10001100
10000101
10001100
01100101
01111001
10001101
10010100
10100101
10000100
01111110
10110000
10011101
01000101
10010000
10001111
10010110
10001100
10000101
10001100
01100101
01111001
10001101
10010100
10100101
10000100
01111110
10110000
10011101
01000101
10010000
10001111
10010110
10001100
10000101
10001100
01100101
01111001
10001101
10010100
10100101
10000100
01111110
10110000
10011101
01000101
10010000
10001111
10010110
10001100
10000101
10001100
01100101
01111001
10001101
10010100
10100101
10000100
01111110
10110000
10011101
01000101
10010000
10001111
10010110
10001100
10000101
10001100
01100101
01111001
10001101
10010100
10100101
10000100
01111110
10110000
10011101
01000101
10010000
10001111
10010110
10001100
10000101
10001100
01100101
01111001
10001101
10010100
10100101
10000100
01111110
10110000
10011101
01000101
10010000
10001111
10010110
10001100
10000101
10001100
01100101
01111001
10001101
10010100
10100101
10000100
01111110
10110000
10011101
01000101
10010000
10001111
10010110
10001100
10000101
10001100
01100101
01111001
10001101
10010100
10100101
10000100
01111110
10110000
10011101
01000101
10010000
10001111
10010110
10001100
10000101
10001100
01100101
01111001
10001101
10010100
10100101
10000100
01111110
10110000
10011101
01000101
10010000
10001111
10010110
10001100
10000101
10001100
01100101
01111001
10001101
10010100
10100101
10000100
01111110
10110000
10011101
01000101
10010000
10001111
10010110
10001100
10000101
10001100
01100101
01111001
10001101
10010100
10100101
10000100
01111110
10110000
10011101
01000101
10010000
10001111
10010110
10001100
10000101
10001100
01100101
01111001
10001101
10010100
10100101
10000100
01111110
10110000
10011101
01000101
10010000
10001111
10010110
10001100
10000101
10001100
01100101
01111001
10001101
10010100
10100101
10000100
01111110
10110000
10011101
01000101
10010000
10001111
10010110
10001100
10000101
10001100
01100101
01111001
10001101
10010100
10100101
10000100
01111110
10110000
10011101
01000101
10010000
10001111
10010110
10001100
10000101
10001100
01100101
01111001
10001101
10010100
10100101
10000100
01111110
10110000
10011101
01000101
10010000
10001111
10010110
10001100
10000101
10001100
01100101
01111001
10001101
10010100
10100101
10000100
01111110
10110000
10011101
01000101
10010000
10001111
10010110
10001100
10000101
10001100
01100101
01111001
10001101
10010100
10100101
10000100
01111110
10110000
10011101
01000101
10010000
10001111
10010110
10001100
10000101
10001100
01100101
01111001
10001101
10010100
10100101
10000100
01111110
10110000
10011101
01000101
10010000
10001111
10010110
10001100
10000101
10001100
01100101
01111001
10001101
10010100
10100101
10000100
01111110
10110000
10011101
01000101
10010000
10001111
10010110
10001100
10000101
10001100
01100101
01111001
10001101
10010100
10100101
10000100
01111110
10110000
10011101
01000101
10010000
10001111
10010110
10001100
10000101
10001100
01100101
01111001
10001101
10010100
10100101
10000100
01111110
10110000
10011101
01000101
10010000
10001111
10010110
10001100
10000101
10001100
01100101
01111001
10001101
10010100
10100101
10000100
01111110
10110000
10011101
01000101
10010000
10001111
10010110
10001100
10000101
10001100
01100101
01111001
10001101
10010100
10100101
10000100
01111110
10110000
10011101
01000101
10010000
10001111
10010110
10001100
10000101
10001100
01100101
01111001
10001101
10010100
10100101
10000100
01111110
10110000
10011101
01000101
10010000
10001111
10010110
10001100
10000101
10001100
01100101
01111001
10001101
10010100
10100101
10000100
01111110
10110000
10011101
01000101
10010000
10001111
10010110
10001100
10000101
10001100
01100101
01111001
10001101
10010100
10100101
10000100
01111110
10110000
10011101
01000101
10010000
10001111
10010110
10001100
10000101
10001100
01100101
01111001
10001101
10010100
10100101
10000100
01111110
10110000
10011101
01000101
10010000
10001111
10010110
10001100
10000101
10001100
01100101
01111001
10001101
10010100
10100101
10000100
01111110
10110000
10011101
01000101
10010000
10001111
10010110
10001100
10000101
10001100
01100101
01111001
10001101
10010100
10100101
10000100
01111110
10110000
10011101
01000101
10010000
10001111
10010110
10001100
10000101
10001100
01100101
01111001
10001101
10010100
10100101
10000100
01111110
10110000
10011101
01000101
10010000
10001111
10010110
10001100
10000101
10001100
01100101
01111001
10001101
10010100
10100101
10000100
01111110
10110000
10011101
01000101
10010000
10001111
10010110
10001100
10000101
10001100
01100101
01111001
10001101
10010100
10100101
10000100
01111110
10110000
10011101
01000101
10010000
10001111
10010110
10001100
10000101
10001100
01100101
01111001
10001101
10010100
10100101
10000100
01111110
10110000
10011101
01000101
10010000
10001111
10010110
10001100
10000101
10001100
01100101
01111001
10001101
10010100
10100101
10000100
01111110
10110000
10011101
01000101
10010000
10001111
10010110
10001100
10000101
10001100
01100101
01111001
10001101
10010100
10100101
10000100
01111110
10110000
10011101
01000101
10010000
10001111
10010110
10001100
10000101
10001100
01100101
01111001
10001101
10010100
10100101
10000100
01111110
10110000
10011101
01000101
10010000
10001111
10010110
10001100
10000101
10001100
01100101
01111001
10001101
10010100
10100101
10000100
01111110
10110000
10011101
01000101
10010000
10001111
10010110
10001100
10000101
10001100
01100101
01111001
10001101
10010100
10100101
10000100
01111110
10110000
10011101
01000101
10010000
10001111
10010110
10001100
10000101
10001100
01100101
01111001
10001101
10010100
10100101
10000100
01111110
10110000
10011101
01000101
10010000
10001111
10010110
10001100
10000101
10001100
01100101
01111001
10001101
10010100
10100101
10000100
01111110
10110000
10011101
01000101
10010000
10001111
10010110
10001100
10000101
10001100
01100101
01111001
10001101
10010100
10100101
10000100
01111110
10110000
10011101
01000101
10010000
10001111
10010110
10001100
10000101
10001100
01100101
01111001
10001101
10010100
10100101
10000100
01111110
10110000
10011101
01000101
10010000
10001111
10010110
10001100
10000101
10001100
01100101
01111001
10001101
10010100
10100101
10000100
01111110
10110000
10011101
01000101
10010000
10001111
10010110
10001100
10000101
10001100
01100101
01111001
10001101
10010100
10100101
10000100
01111110
10110000
10011101
01000101
10010000
10001111
10010110
10001100
10000101
10001100
01100101
01111001
10001101
10010100
10100101
10000100
01111110
10110000
10011101
01000101
10010000
10001111
10010110
10001100
10000101
10001100
01100101
01111001
10001101
10010100
10100101
10000100
01111110
10110000
10011101
01000101
10010000
10001111
10010110
10001100
10000101
10001100
01100101
01111001
10001101
10010100
10100101
10000100
01111110
10110000
10011101
01000101
10010000
10001111
10010110
10001100
10000101
10001100
01100101
01111001
10001101
10010100
10100101
10000100
01111110
10110000
10011101
01000101
10010000
10001111
10010110
10001100
10000101
10001100
01100101
01111001
10001101
10010100
10100101
10000100
01111110
10110000
10011101
01000101
10010000
10001111
10010110
10001100
10000101
10001100
01100101
01111001
10001101
10010100
10100101
10000100
01111110
10110000
10011101
01000101
10010000
10001111
10010110
10001100
10000101
10001100
01100101
01111001
10001101
10010100
10100101
10000100
01111110
10110000
10011101
01000101
10010000
10001111
10010110
10001100
10000101
10001100
01100101
01111001
10001101
10010100
10100101
10000100
01111110
10110000
10011101
01000101
10010000
10001111
10010110
10001100
10000101
10001100
01100101
01111001
10001101
10010100
10100101
10000100
01111110
10110000
10011101
01000101
10010000
10001111
10010110
10001100
10000101
10001100
01100101
01111001
10001101
10010100
10100101
10000100
01111110
10110000
10011101
01000101
10010000
10001111
10010110
10001100
10000101
10001100
01100101
01111001
10001101
10010100
10100101
10000100
01111110
10110000
10011101
01000101
10010000
10001111
10010110
10001100
10000101
10001100
01100101
01111001
10001101
10010100
10100101
10000100
01111110
10110000
10011101
01000101
10010000
10001111
10010110
10001100
10000101
10001100
01100101
01111001
10001101
10010100
10100101
10000100
01111110
10110000
10011101
01000101
10010000
10001111
10010110
10001100
10000101
10001100
01100101
01111001
10001101
10010100
10100101
10000100
01111110
10110000
10011101
01000101
10010000
10001111
10010110
10001100
10000101
10001100
01100101
01111001
10001101
10010100
10100101
10000100
01111110
10110000
10011101
01000101
10010000
10001111
10010110
10001100
10000101
10001100
01100101
01111001
10001101
10010100
10100101
10000100
01111110
10110000
10011101
01000101
10010000
10001111
10010110
10001100
10000101
10001100
01100101
01111001
10001101
10010100
10100101
10000100
01111110
10110000
10011101
01000101
10010000
10001111
10010110
10001100
10000101
10001100
01100101
01111001
10001101
10010100
10100101
10000100
01111110
10110000
10011101
01000101
10010000
10001111
10010110
10001100
10000101
10001100
01100101
01111001
10001101
10010100
10100101
10000100
01111110
10110000
10011101
01000101
10010000
10001111
10010110
10001100
10000101
10001100
01100101
01111001
10001101
10010100
10100101
10000100
01111110
10110000
10011101
01000101
10010000
10001111
10010110
10001100
10000101
10001100
01100101
01111001
10001101
10010100
10100101
10000100
01111110
10110000
10011101
01000101
10010000
10001111
10010110
10001100
10000101
10001100
01100101
01111001
10001101
10010100
10100101
10000100
01111110
10110000
10011101
01000101
10010000
10001111
10010110
10001100
10000101
10001100
01100101
01111001
10001101
10010100
10100101
10000100
01111110
10110000
10011101
01000101
10010000
10001111
10010110
10001100
10000101
10001100
01100101
01111001
10001101
10010100
10100101
10000100
01111110
10110000
10011101
01000101
10010000
10001111
10010110
10001100
10000101
10001100
01100101
01111001
10001101
10010100
10100101
10000100
01111110
10110000
10011101
01000101
10010000
10001111
10010110
10001100
10000101
10001100
01100101
01111001
10001101
10010100
10100101
10000100
01111110
10110000
10011101
01000101
10010000
10001111
10010110
10001100
10000101
10001100
01100101
01111001
10001101
10010100
10100101
10000100
01111110
10110000
10011101
01000101
10010000
10001111
10010110
10001100
10000101
10001100
01100101
01111001
10001101
10010100
10100101
10000100
01111110
10110000
10011101
01000101
10010000
10001111
10010110
10001100
10000101
10001100
01100101
01111001
10001101
10010100
10100101
10000100
01111110
10110000
10011101
01000101
10010000
10001111
10010110
10001100
10000101
10001100
01100101
01111001
10001101
10010100
10100101
10000100
01111110
10110000
10011101
01000101
10010000
10001111
10010110
10001100
10000101
10001100
01100101
01111001
10001101
10010100
10100101
10000100
01111110
10110000
10011101
01000101
10010000
10001111
10010110
10001100
10000101
10001100
01100101
01111001
10001101
10010100
10100101
10000100
01111110
10110000
10011101
01000101
10010000
10001111
10010110
10001100
10000101
10001100
01100101
01111001
10001101
10010100
10100101
10000100
01111110
10110000
10011101
01000101
10010000
10001111
10010110
10001100
10000101
10001100
01100101
01111001
10001101
10010100
10100101
10000100
01111110
10110000
10011101
01000101
10010000
10001111
10010110
10001100
10000101
10001100
01100101
01111001
10001101
10010100
10100101
10000100
01111110
10110000
10011101
01000101
10010000
10001111
10010110
10001100
10000101
10001100
01100101
01111001
10001101
10010100
10100101
10000100
01111110
10110000
10011101
01000101
10010000
10001111
10010110
10001100
10000101
10001100
01100101
01111001
10001101
10010100
10100101
10000100
01111110
10110000
10011101
01000101
10010000
10001111
10010110
10001100
10000101
10001100
01100101
01111001
10001101
10010100
10100101
10000100
01111110
10110000
10011101
01000101
10010000
10001111
10010110
10001100
10000101
10001100
01100101
01111001
10001101
10010100
10100101
10000100
01111110
10110000
10011101
01000101
10010000
10001111
10010110
10001100
10000101
10001100
01100101
01111001
10001101
10010100
10100101
10000100
01111110
10110000
10011101
01000101
10010000
10001111
10010110
10001100
10000101
10001100
01100101
01111001
10001101
10010100
10100101
10000100
01111110
10110000
10011101
01000101
10010000
10001111
10010110
10001100
10000101
10001100
01100101
01111001
10001101
10010100
10100101
10000100
01111110
10110000
10011101
01000101
10010000
10001111
10010110
10001100
10000101
10001100
01100101
01111001
10001101
10010100
10100101
10000100
01111110
10110000
10011101
01000101
10010000
10001111
10010110
10001100
10000101
10001100
01100101
01111001
10001101
10010100
10100101
10000100
01111110
10110000
10011101
01000101
10010000
10001111
10010110
10001100
10000101
10001100
01100101
01111001
10001101
10010100
10100101
10000100
01111110
10110000
10011101
01000101
10010000
10001111
10010110
10001100
10000101
10001100
01100101
01111001
10001101
10010100
10100101
10000100
01111110
10110000
10011101
01000101
10010000
10001111
10010110
10001100
10000101
10001100
01100101
01111001
10001101
10010100
10100101
10000100
01111110
10110000
10011101
01000101
10010000
10001111
10010110
10001100
10000101
10001100
01100101
01111001
10001101
10010100
10100101
10000100
01111110
10110000
10011101
01000101
10010000
10001111
10010110
10001100
10000101
10001100
01100101
01111001
10001101
10010100
10100101
10000100
01111110
10110000
10011101
01000101
10010000
10001111
10010110
10001100
10000101
10001100
01100101
01111001
10001101
10010100
10100101
10000100
01111110
10110000
10011101
01000101
10010000
10001111
10010110
10001100
10000101
10001100
01100101
01111001
10001101
10010100
10100101
10000100
01111110
10110000
10011101
01000101
10010000
10001111
10010110
10001100
10000101
10001100
01100101
01111001
10001101
10010100
10100101
10000100
01111110
10110000
10011101
01000101
10010000
10001111
10010110
10001100
10000101
10001100
01100101
01111001
10001101
10010100
10100101
10000100
01111110
10110000
10011101
01000101
10010000
10001111
10010110
10001100
10000101
10001100
01100101
01111001
10001101
10010100
10100101
10000100
01111110
10110000
10011101
01000101
10010000
10001111
10010110
10001100
10000101
10001100
01100101
01111001
10001101
10010100
10100101
10000100
01111110
10110000
10011101
01000101
10010000
10001111
10010110
10001100
10000101
10001100
01100101
01111001
10001101
10010100
10100101
10000100
01111110
10110000
10011101
01000101
10010000
10001111
10010110
10001100
10000101
10001100
01100101
01111001
10001101
10010100
10100101
10000100
01111110
10110000
10011101
01000101
10010000
10001111
10010110
10001100
10000101
10001100
01100101
01111001
10001101
10010100
10100101
10000100
01111110
10110000
10011101
01000101
10010000
10001111
10010110
10001100
10000101
10001100
01100101
01111001
10001101
10010100
10100101
10000100
01111110
10110000
10011101
01000101
10010000
10001111
10010110
10001100
10000101
10001100
01100101
01111001
10001101
10010100
10100101
10000100
01111110
10110000
10011101
01000101
10010000
10001111
10010110
10001100
10000101
10001100
01100101
01111001
10001101
10010100
10100101
10000100
01111110
10110000
10011101
01000101
10010000
10001111
10010110
10001100
10000101
10001100
01100101
01111001
10001101
10010100
10100101
10000100
01111110
10110000
10011101
01000101
10010000
10001111
10010110
10001100
10000101
10001100
01100101
01111001
10001101
10010100
10100101
10000100
01111110
10110000
10011101
01000101
10010000
10001111
10010110
10001100
10000101
10001100
01100101
01111001
10001101
10010100
10100101
10000100
01111110
10110000
10011101
01000101
10010000
10001111
10010110
10001100
10000101
10001100
01100101
01111001
10001101
10010100
10100101
10000100
01111110
10110000
10011101
01000101
10010000
10001111
10010110
10001100
10000101
10001100
01100101
01111001
10001101
10010100
10100101
10000100
01111110
10110000
10011101
01000101
10010000
10001111
10010110
10001100
10000101
10001100
01100101
01111001
10001101
10010100
10100101
10000100
01111110
10110000
10011101
01000101
10010000
10001111
10010110
10001100
10000101
10001100
01100101
01111001
10001101
10010100
10100101
10000100
01111110
10110000
10011101
01000101
10010000
10001111
10010110
10001100
10000101
10001100
01100101
01111001
10001101
10010100
10100101
10000100
01111110
10110000
10011101
01000101
10010000
10001111
10010110
10001100
10000101
10001100
01100101
01111001
10001101
10010100
10100101
10000100
01111110
10110000
10011101
01000101
10010000
10001111
10010110
10001100
10000101
10001100
01100101
01111001
10001101
10010100
10100101
10000100
01111110
10110000
10011101
01000101
10010000
10001111
10010110
10001100
10000101
10001100
01100101
01111001
10001101
10010100
10100101
10000100
01111110
10110000
10011101
01000101
10010000
10001111
10010110
10001100
10000101
10001100
01100101
01111001
10001101
10010100
10100101
10000100
01111110
10110000
10011101
01000101
10010000
10001111
10010110
10001100
10000101
10001100
01100101
01111001
10001101
10010100
10100101
10000100
01111110
10110000
10011101
01000101
10010000
10001111
10010110
10001100
10000101
10001100
01100101
01111001
10001101
10010100
10100101
10000100
01111110
10110000
10011101
01000101
10010000
10001111
10010110
10001100
10000101
10001100
01100101
01111001
10001101
10010100
10100101
10000100
01111110
10110000
10011101
01000101
10010000
10001111
10010110
10001100
10000101
10001100
01100101
01111001
10001101
10010100
10100101
10000100
01111110
10110000
10011101
01000101
10010000
10001111
10010110
10001100
10000101
10001100
01100101
01111001
10001101
10010100
10100101
10000100
01111110
10110000
10011101
01000101
10010000
10001111
10010110
10001100
10000101
10001100
01100101
01111001
10001101
10010100
10100101
10000100
01111110
10110000
10011101
01000101
10010000
10001111
10010110
10001100
10000101
10001100
01100101
01111001
10001101
10010100
10100101
10000100
01111110
10110000
10011101
01000101
10010000
10001111
10010110
10001100
10000101
10001100
01100101
01111001
10001101
10010100
10100101
10000100
01111110
10110000
10011101
01000101
10010000
10001111
10010110
10001100
10000101
10001100
01100101
01111001
10001101
10010100
10100101
10000100
01111110
10110000
10011101
01000101
10010000
10001111
10010110
10001100
10000101
10001100
01100101
01111001
10001101
10010100
10100101
10000100
01111110
10110000
10011101
01000101
10010000
10001111
10010110
10001100
10000101
10001100
01100101
01111001
10001101
10010100
10100101
10000100
01111110
10110000
10011101
01000101
10010000
10001111
10010110
10001100
10000101
10001100
01100101
01111001
10001101
10010100
10100101
10000100
01111110
10110000
10011101
01000101
10010000
10001111
10010110
10001100
10000101
10001100
01100101
01111001
10001101
10010100
10100101
10000100
01111110
10110000
10011101
01000101
10010000
10001111
10010110
10001100
10000101
10001100
01100101
01111001
10001101
10010100
10100101
10000100
01111110
10110000
10011101
01000101
10010000
10001111
10010110
10001100
10000101
10001100
01100101
01111001
10001101
10010100
10100101
10000100
01111110
10110000
10011101
01000101
10010000
10001111
10010110
10001100
10000101
10001100
01100101
01111001
10001101
10010100
10100101
10000100
01111110
10110000
10011101
01000101
10010000
10001111
10010110
10001100
10000101
10001100
01100101
01111001
10001101
10010100
10100101
10000100
01111110
10110000
10011101
01000101
10010000
10001111
10010110
10001100
10000101
10001100
01100101
01111001
10001101
10010100
10100101
10000100
01111110
10110000
10011101
01000101
10010000
10001111
10010110
10001100
10000101
10001100
01100101
01111001
10001101
10010100
10100101
10000100
01111110
10110000
10011101
01000101
10010000
10001111
10010110
10001100
10000101
10001100
01100101
01111001
10001101
10010100
10100101
10000100
01111110
10110000
10011101
01000101
10010000
10001111
10010110
10001100
10000101
10001100
01100101
01111001
10001101
10010100
10100101
10000100
01111110
10110000
10011101
01000101
10010000
10001111
10010110
10001100
10000101
10001100
01100101
01111001
10001101
10010100
10100101
10000100
01111110
10110000
10011101
01000101
10010000
10001111
10010110
10001100
10000101
10001100
01100101
01111001
10001101
10010100
10100101
10000100
01111110
10110000
10011101
01000101
10010000
10001111
10010110
10001100
10000101
10001100
01100101
01111001
10001101
10010100
10100101
10000100
01111110
10110000
10011101
01000101
10010000
10001111
10010110
10001100
10000101
10001100
01100101
01111001
10001101
10010100
10100101
10000100
01111110
10110000
10011101
01000101
10010000
10001111
10010110
10001100
10000101
10001100
01100101
01111001
10001101
10010100
10100101
10000100
01111110
10110000
10011101
01000101
10010000
10001111
10010110
10001100
10000101
10001100
01100101
01111001
10001101
10010100
10100101
10000100
01111110
10110000
10011101
01000101
10010000
10001111
10010110
10001100
10000101
10001100
01100101
01111001
10001101
10010100
10100101
10000100
01111110
10110000
10011101
01000101
10010000
10001111
10010110
10001100
10000101
10001100
01100101
01111001
10001101
10010100
10100101
10000100
01111110
10110000
10011101
01000101
10010000
10001111
10010110
10001100
10000101
10001100
01100101
01111001
10001101
10010100
10100101
10000100
01111110
10110000
10011101
01000101
10010000
10001111
10010110
10001100
10000101
10001100
01100101
01111001
10001101
10010100
10100101
10000100
01111110
10110000
10011101
01000101
10010000
10001111
10010110
10001100
10000101
10001100
01100101
01111001
10001101
10010100
10100101
10000100
01111110
10110000
10011101
01000101
10010000
10001111
10010110
10001100
10000101
10001100
01100101
01111001
10001101
10010100
10100101
10000100
01111110
10110000
10011101
01000101
10010000
10001111
10010110
10001100
10000101
10001100
01100101
01111001
10001101
10010100
10100101
10000100
01111110
10110000
10011101
01000101
10010000
10001111
10010110
10001100
10000101
10001100
01100101
01111001
10001101
10010100
10100101
10000100
01111110
10110000
10011101
01000101
10010000
10001111
10010110
10001100
10000101
10001100
01100101
01111001
10001101
10010100
10100101
10000100
01111110
10110000
10011101
01000101
10010000
10001111
10010110
10001100
10000101
10001100
01100101
01111001
10001101
10010100
10100101
10000100
01111110
10110000
10011101
01000101
10010000
10001111
10010110
10001100
10000101
10001100
01100101
01111001
10001101
10010100
10100101
10000100
01111110
10110000
10011101
01000101
10010000
10001111
10010110
10001100
10000101
10001100
01100101
01111001
10001101
10010100
10100101
10000100
01111110
10110000
10011101
01000101
10010000
10001111
10010110
10001100
10000101
10001100
01100101
01111001
10001101
10010100
10100101
10000100
01111110
10110000
10011101
01000101
10010000
10001111
10010110
10001100
10000101
10001100
01100101
01111001
10001101
10010100
10100101
10000100
01111110
10110000
10011101
01000101
10010000
10001111
10010110
10001100
10000101
10001100
01100101
01111001
10001101
10010100
10100101
10000100
01111110
10110000
10011101
01000101
10010000
10001111
10010110
10001100
10000101
10001100
01100101
01111001
10001101
10010100
10100101
10000100
01111110
10110000
10011101
01000101
10010000
10001111
10010110
10001100
10000101
10001100
01100101
01111001
10001101
10010100
10100101
10000100
01111110
10110000
10011101
01000101
10010000
10001111
10010110
10001100
10000101
10001100
01100101
01111001
10001101
10010100
10100101
10000100
01111110
10110000
10011101
01000101
10010000
10001111
10010110
10001100
10000101
10001100
01100101
01111001
10001101
10010100
10100101
10000100
01111110
10110000
10011101
01000101
10010000
10001111
10010110
10001100
10000101
10001100
01100101
01111001
10001101
10010100
10100101
10000100
01111110
10110000
10011101
01000101
10010000
10001111
10010110
10001100
10000101
10001100
01100101
01111001
10001101
10010100
10100101
10000100
01111110
10110000
10011101
01000101
10010000
10001111
10010110
10001100
10000101
10001100
01100101
01111001
10001101
10010100
10100101
10000100
01111110
10110000
10011101
01000101
10010000
10001111
10010110
10001100
10000101
10001100
01100101
01111001
10001101
10010100
10100101
10000100
01111110
10110000
10011101
01000101
10010000
10001111
10010110
10001100
10000101
10001100
01100101
01111001
10001101
10010100
10100101
10000100
01111110
10110000
10011101
01000101
10010000
10001111
10010110
10001100
10000101
10001100
01100101
01111001
10001101
10010100
10100101
10000100
01111110
10110000
10011101
01000101
10010000
10001111
10010110
10001100
10000101
10001100
01100101
01111001
10001101
10010100
10100101
10000100
01111110
10110000
10011101
01000101
10010000
10001111
10010110
10001100
10000101
10001100
01100101
01111001
10001101
10010100
10100101
10000100
01111110
10110000
10011101
01000101
10010000
10001111
10010110
10001100
10000101
10001100
01100101
01111001
10001101
10010100
10100101
10000100
01111110
10110000
10011101
01000101
10010000
10001111
10010110
10001100
10000101
10001100
01100101
01111001
10001101
10010100
10100101
10000100
01111110
10110000
10011101
01000101
10010000
10001111
10010110
10001100
10000101
10001100
01100101
01111001
10001101
10010100
10100101
10000100
01111110
10110000
10011101
01000101
10010000
10001111
10010110
10001100
10000101
10001100
01100101
01111001
10001101
10010100
10100101
10000100
01111110
10110000
10011101
01000101
10010000
10001111
10010110
10001100
10000101
10001100
01100101
01111001
10001101
10010100
10100101
10000100
01111110
10110000
10011101
01000101
10010000
10001111
10010110
10001100
10000101
10001100
01100101
01111001
10001101
10010100
10100101
10000100
01111110
10110000
10011101
01000101
10010000
10001111
10010110
10001100
10000101
10001100
01100101
01111001
10001101
10010100
10100101
10000100
01111110
10110000
10011101
01000101
10010000
10001111
10010110
10001100
10000101
10001100
01100101
01111001
10001101
10010100
10100101
10000100
01111110
10110000
10011101
01000101
10010000
10001111
10010110
10001100
10000101
10001100
01100101
01111001
10001101
10010100
10100101
10000100
01111110
10110000
10011101
01000101
10010000
10001111
10010110
10001100
10000101
10001100
01100101
01111001
10001101
10010100
10100101
10000100
01111110
10110000
10011101
01000101
10010000
10001111
10010110
10001100
10000101
10001100
01100101
01111001
10001101
10010100
10100101
10000100
01111110
10110000
10011101
01000101
10010000
10001111
10010110
10001100
10000101
10001100
01100101
01111001
10001101
10010100
10100101
10000100
01111110
10110000
10011101
01000101
10010000
10001111
10010110
10001100
10000101
10001100
01100101
01111001
10001101
10010100
10100101
10000100
01111110
10110000
10011101
01000101
10010000
10001111
10010110
10001100
10000101
10001100
01100101
01111001
10001101
10010100
10100101
10000100
01111110
10110000
10011101
01000101
10010000
10001111
10010110
10001100
10000101
10001100
01100101
01111001
10001101
10010100
10100101
10000100
01111110
10110000
10011101
01000101
10010000
10001111
10010110
10001100
10000101
10001100
01100101
01111001
10001101
10010100
10100101
10000100
01111110
10110000
10011101
01000101
10010000
10001111
10010110
10001100
10000101
10001100
01100101
01111001
10001101
10010100
10100101
10000100
01111110
10110000
10011101
01000101
10010000
10001111
10010110
10001100
10000101
10001100
01100101
01111001
10001101
10010100
10100101
10000100
01111110
10110000
10011101
01000101
10010000
10001111
10010110
10001100
10000101
10001100
01100101
01111001
10001101
10010100
10100101
10000100
01111110
10110000
10011101
01000101
10010000
10001111
10010110
10001100
10000101
10001100
01100101
01111001
10001101
10010100
10100101
10000100
01111110
10110000
10011101
01000101
10010000
10001111
10010110
10001100
10000101
10001100
01100101
01111001
10001101
10010100
10100101
10000100
01111110
10110000
10011101
01000101
10010000
10001111
10010110
10001100
10000101
10001100
01100101
01111001
10001101
10010100
10100101
10000100
01111110
10110000
10011101
01000101
10010000
10001111
10010110
10001100
10000101
10001100
01100101
01111001
10001101
10010100
10100101
10000100
01111110
10110000
10011101
01000101
10010000
10001111
10010110
10001100
10000101
10001100
01100101
01111001
10001101
10010100
10100101
10000100
01111110
10110000
10011101
01000101
10010000
10001111
10010110
10001100
10000101
10001100
01100101
01111001
10001101
10010100
10100101
10000100
01111110
10110000
10011101
01000101
10010000
10001111
10010110
10001100
10000101
10001100
01100101
01111001
10001101
10010100
10100101
10000100
01111110
10110000
10011101
01000101
10010000
10001111
10010110
10001100
10000101
10001100
01100101
01111001
10001101
10010100
10100101
10000100
01111110
10110000
10011101
01000101
10010000
10001111
10010110
10001100
10000101
10001100
01100101
01111001
10001101
10010100
10100101
10000100
01111110
10110000
10011101
01000101
10010000
10001111
10010110
10001100
10000101
10001100
01100101
01111001
10001101
10010100
10100101
10000100
01111110
10110000
10011101
01000101
10010000
10001111
10010110
10001100
10000101
10001100
01100101
01111001
10001101
10010100
10100101
10000100
01111110
10110000
10011101
01000101
10010000
10001111
10010110
10001100
10000101
10001100
01100101
01111001
10001101
10010100
10100101
10000100
01111110
10110000
10011101
01000101
10010000
10001111
10010110
10001100
10000101
10001100
01100101
01111001
10001101
10010100
10100101
10000100
01111110
10110000
10011101
01000101
10010000
10001111
10010110
10001100
10000101
10001100
01100101
01111001
10001101
10010100
10100101
10000100
01111110
10110000
10011101
01000101
10010000
10001111
10010110
10001100
10000101
10001100
01100101
01111001
10001101
10010100
10100101
10000100
01111110
10110000
10011101
01000101
10010000
10001111
10010110
10001100
10000101
10001100
01100101
01111001
10001101
10010100
10100101
10000100
01111110
10110000
10011101
01000101
10010000
10001111
10010110
10001100
10000101
10001100
01100101
01111001
10001101
10010100
10100101
10000100
01111110
10110000
10011101
01000101
10010000
10001111
10010110
10001100
10000101
10001100
01100101
01111001
10001101
10010100
10100101
10000100
01111110
10110000
10011101
01000101
10010000
10001111
10010110
10001100
10000101
10001100
01100101
01111001
10001101
10010100
10100101
10000100
01111110
10110000
10011101
01000101
10010000
10001111
10010110
10001100
10000101
10001100
01100101
01111001
10001101
10010100
10100101
10000100
01111110
10110000
10011101
01000101
10010000
10001111
10010110
10001100
10000101
10001100
01100101
01111001
10001101
10010100
10100101
10000100
01111110
10110000
10011101
01000101
10010000
10001111
10010110
10001100
10000101
10001100
01100101
01111001
10001101
10010100
10100101
10000100
01111110
10110000
10011101
01000101
10010000
10001111
10010110
10001100
10000101
10001100
01100101
01111001
10001101
10010100
10100101
10000100
01111110
10110000
10011101
01000101
10010000
10001111
10010110
10001100
10000101
10001100
01100101
01111001
10001101
10010100
10100101
10000100
01111110
10110000
10011101
01000101
10010000
10001111
10010110
10001100
10000101
10001100
01100101
01111001
10001101
10010100
10100101
10000100
01111110
10110000
10011101
01000101
10010000
10001111
10010110
10001100
10000101
10001100
01100101
01111001
10001101
10010100
10100101
10000100
01111110
10110000
10011101
01000101
10010000
10001111
10010110
10001100
10000101
10001100
01100101
01111001
10001101
10010100
10100101
10000100
01111110
10110000
10011101
01000101
10010000
10001111
10010110
10001100
10000101
10001100
01100101
01111001
10001101
10010100
10100101
10000100
01111110
10110000
10011101
01000101
10010000
10001111
10010110
10001100
10000101
10001100
01100101
01111001
10001101
10010100
10100101
10000100
01111110
10110000
10011101
01000101
10010000
10001111
10010110
10001100
10000101
10001100
01100101
01111001
10001101
10010100
10100101
10000100
01111110
10110000
10011101
01000101
10010000
10001111
10010110
10001100
10000101
10001100
01100101
01111001
10001101
10010100
10100101
10000100
01111110
10110000
10011101
01000101
10010000
10001111
10010110
10001100
10000101
10001100
01100101
01111001
10001101
10010100
10100101
10000100
01111110
10110000
10011101
01000101
10010000
10001111
10010110
10001100
10000101
10001100
01100101
01111001
10001101
10010100
10100101
10000100
01111110
10110000
10011101
01000101
10010000
10001111
10010110
10001100
10000101
10001100
01100101
01111001
10001101
10010100
10100101
10000100
01111110
10110000
10011101
01000101
10010000
10001111
10010110
10001100
10000101
10001100
01100101
01111001
10001101
10010100
10100101
10000100
01111110
10110000
10011101
01000101
10010000
10001111
10010110
10001100
10000101
10001100
01100101
01111001
10001101
10010100
10100101
10000100
01111110
10110000
10011101
01000101
10010000
10001111
10010110
10001100
10000101
10001100
01100101
01111001
10001101
10010100
10100101
10000100
01111110
10110000
10011101
01000101
10010000
10001111
10010110
10001100
10000101
10001100
01100101
01111001
10001101
10010100
10100101
10000100
01111110
10110000
10011101
01000101
10010000
10001111
10010110
10001100
10000101
10001100
01100101
01111001
10001101
10010100
10100101
10000100
01111110
10110000
10011101
01000101
10010000
10001111
10010110
10001100
10000101
10001100
01100101
01111001
10001101
10010100
10100101
10000100
01111110
10110000
10011101
01000101
10010000
10001111
10010110
10001100
10000101
10001100
01100101
01111001
10001101
10010100
10100101
10000100
01111110
10110000
10011101
01000101
10010000
10001111
10010110
10001100
10000101
10001100
01100101
01111001
10001101
10010100
10100101
10000100
01111110
10110000
10011101
01000101
10010000
10001111
10010110
10001100
10000101
10001100
01100101
01111001
10001101
10010100
10100101
10000100
01111110
10110000
10011101
01000101
10010000
10001111
10010110
10001100
10000101
10001100
01100101
01111001
10001101
10010100
10100101
10000100
01111110
10110000
10011101
01000101
10010000
10001111
10010110
10001100
10000101
10001100
01100101
01111001
10001101
10010100
10100101
10000100
01111110
10110000
10011101
01000101
10010000
10001111
10010110
10001100
10000101
10001100
01100101
01111001
10001101
10010100
10100101
10000100
01111110
10110000
10011101
01000101
10010000
10001111
10010110
10001100
10000101
10001100
01100101
01111001
10001101
10010100
10100101
10000100
01111110
10110000
10011101
01000101
10010000
10001111
10010110
10001100
10000101
10001100
01100101
01111001
10001101
10010100
10100101
10000100
01111110
10110000
10011101
01000101
10010000
10001111
10010110
10001100
10000101
10001100
01100101
01111001
10001101
10010100
10100101
10000100
01111110
10110000
10011101
01000101
10010000
10001111
10010110
10001100
10000101
10001100
01100101
01111001
10001101
10010100
10100101
10000100
01111110
10110000
10011101
01000101
10010000
10001111
10010110
10001100
10000101
10001100
01100101
01111001
10001101
10010100
10100101
10000100
01111110
10110000
10011101
01000101
10010000
10001111
10010110
10001100
10000101
10001100
01100101
01111001
10001101
10010100
10100101
10000100
01111110
10110000
10011101
01000101
10010000
10001111
10010110
10001100
10000101
10001100
01100101
01111001
10001101
10010100
10100101
10000100
01111110
10110000
10011101
01000101
10010000
10001111
10010110
10001100
10000101
10001100
01100101
01111001
10001101
10010100
10100101
10000100
01111110
10110000
10011101
01000101
10010000
10001111
10010110
10001100
10000101
10001100
01100101
01111001
10001101
10010100
10100101
10000100
01111110
10110000
10011101
01000101
10010000
10001111
10010110
10001100
10000101
10001100
01100101
01111001
10001101
10010100
10100101
10000100
01111110
10110000
10011101
01000101
10010000
10001111
10010110
10001100
10000101
10001100
01100101
01111001
10001101
10010100
10100101
10000100
01111110
10110000
10011101
01000101
10010000
10001111
10010110
10001100
10000101
10001100
01100101
01111001
10001101
10010100
10100101
10000100
01111110
10110000
10011101
01000101
10010000
10001111
10010110
10001100
10000101
10001100
01100101
01111001
10001101
10010100
10100101
10000100
01111110
10110000
10011101
01000101
10010000
10001111
10010110
10001100
10000101
10001100
01100101
01111001
10001101
10010100
10100101
10000100
01111110
10110000
10011101
01000101
10010000
10001111
10010110
10001100
10000101
10001100
01100101
01111001
10001101
10010100
10100101
10000100
01111110
10110000
10011101
01000101
10010000
10001111
10010110
10001100
10000101
10001100
01100101
01111001
10001101
10010100
10100101
10000100
01111110
10110000
10011101
01000101
10010000
10001111
10010110
10001100
10000101
10001100
01100101
01111001
10001101
10010100
10100101
10000100
01111110
10110000
10011101
01000101
10010000
10001111
10010110
10001100
10000101
10001100
01100101
01111001
10001101
10010100
10100101
10000100
01111110
10110000
10011101
01000101
10010000
10001111
10010110
10001100
10000101
10001100
01100101
01111001
10001101
10010100
10100101
10000100
01111110
10110000
10011101
01000101
10010000
10001111
10010110
10001100
10000101
10001100
01100101
01111001
10001101
10010100
10100101
10000100
01111110
10110000
10011101
01000101
10010000
10001111
10010110
10001100
10000101
10001100
01100101
01111001
10001101
10010100
10100101
10000100
01111110
10110000
10011101
01000101
10010000
10001111
10010110
10001100
10000101
10001100
01100101
01111001
10001101
10010100
10100101
10000100
01111110
10110000
10011101
01000101
10010000
10001111
10010110
10001100
10000101
10001100
01100101
01111001
10001101
10010100
10100101
10000100
01111110
10110000
10011101
01000101
10010000
10001111
10010110
10001100
10000101
10001100
01100101
01111001
10001101
10010100
10100101
10000100
01111110
10110000
10011101
01000101
10010000
10001111
10010110
10001100
10000101
10001100
01100101
01111001
10001101
10010100
10100101
10000100
01111110
10110000
10011101
01000101
10010000
10001111
10010110
10001100
10000101
10001100
01100101
01111001
10001101
10010100
10100101
10000100
01111110
10110000
10011101
01000101
10010000
10001111
10010110
10001100
10000101
10001100
01100101
01111001
10001101
10010100
10100101
10000100
01111110
10110000
10011101
01000101
10010000
10001111
10010110
10001100
10000101
10001100
01100101
01111001
10001101
10010100
10100101
10000100
01111110
10110000
10011101
01000101
10010000
10001111
10010110
10001100
10000101
10001100
01100101
01111001
10001101
10010100
10100101
10000100
01111110
10110000
10011101
01000101
10010000
10001111
10010110
10001100
10000101
10001100
01100101
01111001
10001101
10010100
10100101
10000100
01111110
10110000
10011101
01000101
10010000
10001111
10010110
10001100
10000101
10001100
01100101
01111001
10001101
10010100
10100101
10000100
01111110
10110000
10011101
01000101
10010000
10001111
10010110
10001100
10000101
10001100
01100101
01111001
10001101
10010100
10100101
10000100
01111110
10110000
10011101
01000101
10010000
10001111
10010110
10001100
10000101
10001100
01100101
01111001
10001101
10010100
10100101
10000100
01111110
10110000
10011101
01000101
10010000
10001111
10010110
10001100
10000101
10001100
01100101
01111001
10001101
10010100
10100101
10000100
01111110
10110000
10011101
01000101
10010000
10001111
10010110
10001100
10000101
10001100
01100101
01111001
10001101
10010100
10100101
10000100
01111110
10110000
10011101
01000101
10010000
10001111
10010110
10001100
10000101
10001100
01100101
01111001
10001101
10010100
10100101
10000100
01111110
10110000
10011101
01000101
10010000
10001111
10010110
10001100
10000101
10001100
01100101
01111001
10001101
10010100
10100101
10000100
01111110
10110000
10011101
01000101
10010000
10001111
10010110
10001100
10000101
10001100
01100101
01111001
10001101
10010100
10100101
10000100
01111110
10110000
10011101
01000101
10010000
10001111
10010110
10001100
10000101
10001100
01100101
01111001
10001101
10010100
10100101
10000100
01111110
10110000
10011101
01000101
10010000
10001111
10010110
10001100
10000101
10001100
01100101
01111001
10001101
10010100
10100101
10000100
01111110
10110000
10011101
01000101
10010000
10001111
10010110
10001100
10000101
10001100
01100101
01111001
10001101
10010100
10100101
10000100
01111110
10110000
10011101
01000101
10010000
10001111
10010110
10001100
10000101
10001100
01100101
01111001
10001101
10010100
10100101
10000100
01111110
10110000
10011101
01000101
10010000
10001111
10010110
10001100
10000101
10001100
01100101
01111001
10001101
10010100
10100101
10000100
01111110
10110000
10011101
01000101
10010000
10001111
10010110
10001100
10000101
10001100
01100101
01111001
10001101
10010100
10100101
10000100
01111110
10110000
10011101
01000101
10010000
10001111
10010110
10001100
10000101
10001100
01100101
01111001
10001101
10010100
10100101
10000100
01111110
10110000
10011101
01000101
10010000
10001111
10010110
10001100
10000101
10001100
01100101
01111001
10001101
10010100
10100101
10000100
01111110
10110000
10011101
01000101
10010000
10001111
10010110
10001100
10000101
10001100
01100101
01111001
10001101
10010100
10100101
10000100
01111110
10110000
10011101
01000101
10010000
10001111
10010110
10001100
10000101
10001100
01100101
01111001
10001101
10010100
10100101
10000100
01111110
10110000
10011101
01000101
10010000
10001111
10010110
10001100
10000101
10001100
01100101
01111001
10001101
10010100
10100101
10000100
01111110
10110000
10011101
01000101
10010000
10001111
10010110
10001100
10000101
10001100
01100101
01111001
10001101
10010100
10100101
10000100
01111110
10110000
10011101
01000101
10010000
10001111
10010110
10001100
10000101
10001100
01100101
01111001
10001101
10010100
10100101
10000100
01111110
10110000
10011101
01000101
10010000
10001111
10010110
10001100
10000101
10001100
01100101
01111001
10001101
10010100
10100101
10000100
01111110
10110000
10011101
01000101
10010000
10001111
10010110
10001100
10000101
10001100
01100101
01111001
10001101
10010100
10100101
10000100
01111110
10110000
10011101
01000101
10010000
10001111
10010110
10001100
10000101
10001100
01100101
01111001
10001101
10010100
10100101
10000100
01111110
10110000
10011101
01000101
10010000
10001111
10010110
10001100
10000101
10001100
01100101
01111001
10001101
10010100
10100101
10000100
01111110
10110000
10011101
01000101
10010000
10001111
10010110
10001100
10000101
10001100
01100101
01111001
10001101
10010100
10100101
10000100
01111110
10110000
10011101
01000101
10010000
10001111
10010110
10001100
10000101
10001100
01100101
01111001
10001101
10010100
10100101
10000100
01111110
10110000
10011101
01000101
10010000
10001111
10010110
10001100
10000101
10001100
01100101
01111001
10001101
10010100
10100101
10000100
01111110
10110000
10011101
01000101
10010000
10001111
10010110
10001100
10000101
10001100
01100101
01111001
10001101
10010100
10100101
10000100
01111110
10110000
10011101
01000101
10010000
10001111
10010110
10001100
10000101
10001100
01100101
01111001
10001101
10010100
10100101
10000100
01111110
10110000
10011101
01000101
10010000
10001111
10010110
10001100
10000101
10001100
01100101
01111001
10001101
10010100
10100101
10000100
01111110
10110000
10011101
01000101
10010000
10001111
10010110
10001100
10000101
10001100
01100101
01111001
10001101
10010100
10100101
10000100
01111110
10110000
10011101
01000101
10010000
10001111
10010110
10001100
10000101
10001100
01100101
01111001
10001101
10010100
10100101
10000100
01111110
10110000
10011101
01000101
10010000
10001111
10010110
10001100
10000101
10001100
01100101
01111001
10001101
10010100
10100101
10000100
01111110
10110000
10011101
01000101
10010000
10001111
10010110
10001100
10000101
10001100
01100101
01111001
10001101
10010100
10100101
10000100
01111110
10110000
10011101
01000101
10010000
10001111
10010110
10001100
10000101
10001100
01100101
01111001
10001101
10010100
10100101
10000100
01111110
10110000
10011101
01000101
10010000
10001111
10010110
10001100
10000101
10001100
01100101
01111001
10001101
10010100
10100101
10000100
01111110
10110000
10011101
01000101
10010000
10001111
10010110
10001100
10000101
10001100
01100101
01111001
10001101
10010100
10100101
10000100
01111110
10110000
10011101
01000101
10010000
10001111
10010110
10001100
10000101
10001100
01100101
01111001
10001101
10010100
10100101
10000100
01111110
10110000
10011101
01000101
10010000
10001111
10010110
10001100
10000101
10001100
01100101
01111001
10001101
10010100
10100101
10000100
01111110
10110000
10011101
01000101
10010000
10001111
10010110
10001100
10000101
10001100
01100101
01111001
10001101
10010100
10100101
10000100
01111110
10110000
10011101
01000101
10010000
10001111
10010110
10001100
10000101
10001100
01100101
01111001
10001101
10010100
10100101
10000100
01111110
10110000
10011101
01000101
10010000
10001111
10010110
10001100
10000101
10001100
01100101
01111001
10001101
10010100
10100101
10000100
01111110
10110000
10011101
01000101
10010000
10001111
10010110
10001100
10000101
10001100
01100101
01111001
10001101
10010100
10100101
10000100
01111110
10110000
10011101
01000101
10010000
10001111
10010110
10001100
10000101
10001100
01100101
01111001
10001101
10010100
10100101
10000100
01111110
10110000
10011101
01000101
10010000
10001111
10010110
10001100
10000101
10001100
01100101
01111001
10001101
10010100
10100101
10000100
01111110
10110000
10011101
01000101
10010000
10001111
10010110
10001100
10000101
10001100
01100101
01111001
10001101
10010100
10100101
10000100
01111110
10110000
10011101
01000101
10010000
10001111
10010110
10001100
10000101
10001100
01100101
01111001
10001101
10010100
10100101
10000100
01111110
