memory_initialization_radix=2;
memory_initialization_vector=
000000000000000000000000000000000000000000000000000000000000000000000000000101100101111100010011000000000000000000000000000000000000000000000000000000000000000000000000001000000110000000000100000000000000000000000000000000000000000000000000000000000000000011111111111110100100101101011101,
000000000000000000000000000000000000000000000000000000000000000000000000001001101110111010001011000000000000000000000000000000000000000000000000000000000000000000000000001101101110000101101000000000000000000000000000000000000000000000000000000000000000000000000000000100011100010110010000,
000000000000000000000000000000000000000000000000000000000000000000000000001001101101001000110111000000000000000000000000000000000000000000000000000000000000000000000000001010100001110111010010000000000000000000000000000000000000000000000000000000000000000000000000000111001011110011110100,
000000000000000000000000000000000000000000000000000000000000000000000000001101010001011000010101000000000000000000000000000000000000000000000000000000000000000011111111111011000000111000011100000000000000000000000000000000000000000000000000000000000000000011111111111111111111111101000100,
000000000000000000000000000000000000000000000000000000000000000011111111111111111111000110101000000000000000000000000000000000000000000000000000000000000000000011111111111001100110010010100001000000000000000000000000000000000000000000000000000000000000000000000000000110101111100111110001,
000000000000000000000000000000000000000000000000000000000000000011111111111111101100101101101000000000000000000000000000000000000000000000000000000000000000000011111111111111010011011110001001000000000000000000000000000000000000000000000000000000000000000000000000000000000110001100101000,
000000000000000000000000000000000000000000000000000000000000000011111111111011100101011110111101000000000000000000000000000000000000000000000000000000000000000000000000000001110011100010001000000000000000000000000000000000000000000000000000000000000000000000000000000101110001001101110111,
000000000000000000000000000000000000000000000000000000000000000011111111111111101111100101001100000000000000000000000000000000000000000000000000000000000000000000000000000101101101000011110001000000000000000000000000000000000000000000000000000000000000000000000000000111000100101001100110,
000000000000000000000000000000000000000000000000000000000000000011111111111010111110010001001100000000000000000000000000000000000000000000000000000000000000000000000000001000001000111110110011000000000000000000000000000000000000000000000000000000000000000011111111111000000011011111111111,
000000000000000000000000000000000000000000000000000000000000000011111111111110111001100101110011000000000000000000000000000000000000000000000000000000000000000011111111111110000111010001001110000000000000000000000000000000000000000000000000000000000000000000000000001001110010011001000101,
000000000000000000000000000000000000000000000000000000000000000000000000000000000000000000000000000000000000000000000000000000000000000000000000000000000000000000000000000100101001101101010101000000000000000000000000000000000000000000000000000000000000000000000000000101010100011001000111,
000000000000000000000000000000000000000000000000000000000000000000000000000000000000000000000000000000000000000000000000000000000000000000000000000000000000000000000000000000000000000000000000000000000000000000000000000000000000000000000000000000000000000000000000000000000000000000000000,
000000000010110100100110000010010000000000000110110110100000110000000000000011010011111100000111000000000000101111100100010101010000000000000100110000000010101000000000000001011000111010001100111111111111111100000010011110000000000000001100100011111101000011111111111111111101010000001101,
000000000000000000110010110111110000000000000000000111100101111111111111111111111110101001010111111111111111111111101010101110011111111111111001110111110110010000000000000010110010100101011000000000000000010100111011100100110000000000000100110001011111111011111111111111111110111000111100,
111111111111101010001001000111101111111111111101011000000111010100000000000010110001110101100011000000000000000000000100100000000000000000001010111100110101010100000000000110000100110111001110111111111111101110100100001111100000000000000000111110001101100100000000000000001110001011010110,
000000000000000000000000000000000000000000000000000000000000000000000000000000000000000000000000000000000000000000000000000000001111111111111101001001111100111000000000000011000011011010001100000000000000010011110100100110000000000000001010001101011111001100000000000010100111011011110110,
111111111111010110101110101110101111111111101100110001101100101111111111111110001101000000111101111111111111101001011110000000011111111111111110111001001110001000000000000010110111101011010010111111111111000110110101000001000000000000000100111011001010100111111111111010000001010001110000,
000000000000000000000000000000000000000000000000000000000000000000000000000100000000100001010000000000000001000101000010000000011111111111111110000011011010111111111111111101111000110110010000111111111111101100011000101100010000000000010010110101111011001011111111111011001110011101011000,
111111111111111001001110010111110000000000000001110011011011010100000000000000100111111100100101000000000000010010100011111001010000000000000111000010111110110000000000000010010000010101001101000000000000010111101001011101101111111111111111001111001000110011111111111111111111001010110111,
000000000000011101110001011100101111111111111110101010111000010000000000000000000110100001111000000000000000010101010101001100010000000000000101101100111000000000000000000001001111001001001110000000000000000010110001111010101111111111111110001100001010100000000000000000111001111111101000,
000000000000001000011000101111101111111111111111101010111011010000000000000000100101010011000001000000000000011101001001101100000000000000000110101111001101001000000000000000110111111111011110000000000000101001100011111110100000000000001001001000011010100100000000000000101010111110101110,
000000000000010001010100011001001111111111111110110010010110010100000000000000000110011010110101000000000000010001100010111110100000000000000101110100010110110111111111111111110110110110000000000000000000010111111000011110000000000000000111000001110010000111111111111101111001110010001100,
000000000000010001001010111010110000000000000110000100000010111000000000000001101011001011000100000000000000010110001011111001001111111111111111111011101100000000000000000000010111000110110010000000000000011011101000001111010000000000000010010111110000100000000000000000101011100111010110,
111111111111111110000000100010010000000000000010101111000010111111111111111111100011110000001111111111111111010001001000110011100000000000000100111001010000001100000000000001011110011010111000000000000000010001110000011010000000000000000110001000000000110011111111111111111111001000011111,
000000000000011000111101101000011111111111111111000001100110110111111111111111111010010000111100111111111111111111010001001111110000000000000110010000000110100100000000000100011110000001001111111111111111111101100011111010110000000000000110000110110010001011111111111111100010111001100110,
000000000000010011001011001011000000000000000011100110110000110100000000000000101011110100110000111111111111111110011000000001000000000000000000000011001010100000000000000010001000101110111001000000000000010110111010110001011111111111111110111111011011101000000000000001101011000110110110,
111111111111111001110000000000100000000000000011011010100000100100000000000010010110110001101101000000000000000100101101110101000000000000000001101001100000110100000000000001001010000000011001000000000000010101011010000110100000000000000000100000001011111000000000000010001011111100111011,
000000000000010000100001011111110000000000000001110000101111010011111111111111111110000000101101000000000000010110001000010100011111111111111110000011000000001000000000000000100111010110010101111111111111111101111100101110010000000000000001010101110110100100000000000000110010100100011110,
000000000000000000000000000000000000000000000000000000000000000000000000000000000000000000000000000000000000001110110101010000100000000000000111010110010011001011111111111111011001111011000010111111111111111011111100111111011111111111111101011101000100000000000000000001100101111111101101,
000000000000000100010100000001101111111111111010111101001111001100000000000111010001111001000000000000000000001110110111011001100000000000000011110010000110100100000000000000000001011011000110111111111111110010100011010100100000000000001011111100101100001100000000000010110001100011111001,
111111111110111001001001010100101111111111111111111101010101011100000000000011001111101000111000111111111111110110010000111011001111111111110000101100010100110111111111111111110110010100100100000000000000111001000101111110111111111111111110111100001011001100000000000000000011100100111110,
111111111111100111100011000111100000000000000000110001101110011000000000000000010000010001001000111111111111111100000111001101101111111111111110100001101011001000000000000000000001001010101000111111111111101001110001010100100000000000011111100110101101010100000000000010010101101010111101,
111111111111110111101111111001100000000000100101110011011001111100000000000110001100001001100000111111111111101000001110011011001111111111110101101010111011010000000000000011010011111011001010000000000000000100100110110011111111111111110001100111111001011011111111111111111111110111100110,
111111111111110000100001010001101111111111111010000101111110001100000000000001000010100100101001111111111111000110001110010011010000000000001110111011100011000000000000000000000101011000010001000000000000000100011101000010010000000000001101011011101100011000000000000011111010110110001001,
111111111111111101100100011011110000000000010000011110101101110000000000000111001100001011010001000000000000000000110110111000100000000000000011100011010110001011111111111111110001000110010010111111111111111101000101010111010000000000010101011101000101111100000000000000001100000001101100,
111111111111111111101001110110000000000000000001010110011000100000000000000000001110001110110111000000000000011111000110000110111111111111111111011110011110100100000000001100100011101010000001000000000000000000000101100100101111111111111110100000011000101100000000000101100110010111111111,
000000000000110001110110101000111111111111111000001111000001000100000000000000001110100011111000000000000000010101111010100100010000000000001100111101110111000000000000000000110100100111011010000000000000000011010101100000000000000000001100110001011110010000000000000101110110110011110101,
000000000000101110111001010001110000000000000011010011100111001000000000000000101101000100010010000000000000110100111101101011000000000000000110101010010100100100000000000101110101001111001101111111111111111101101010101111010000000000010001001010100010011100000000000000011100111011011111,
111111111111111010011110111011010000000000001000110110000010101000000000000000010110111110000110111111111111110011011100101100000000000000000001000001001110100100000000000011100101111111011101000000000000000000110111010000100000000000001101110001010101001000000000000000011011100101110011,
000000000000000000000000000000000000000000000000000000000000000000000000000000000000000000000000000000000000000101101101011101010000000000010111001110111110000100000000000000000110000000100000000000000010111001011010110000110000000000001101001111001101100011111111111111110001011000011110,
111111111111101110101010110101110000000000000100000011100001000011111111111101110010001101011100111111111111000001011010000111101111111111111101110000010011010111111111111110111001111111010000111111111111000011111100011110000000000000001011001001010111011111111111111001100011001101101000,
111111111111101110000110010000110000000000000100100010011100111100000000000100011100000111001011000000000001110100001010010010110000000000100101111000010011000100000000000000101011101011000010000000000000100011000110011111100000000000000000100010101110111100000000000000000000000000010000,
000000000000000000000000000000000000000000000000000000000000000000000000000000000000000000000000000000000000001010110101001100000000000000000011001010101110001100000000000001011111111000000110000000000000011111001010001110100000000000000010110100000110100111111111111101011010000010010010;
