memory_initialization_radix=2;
memory_initialization_vector=
111100101101011111100110111111111111000011110111111111110000000011111111,
111001001111011100100111111110001101111111101100111000011000000010110100,
111001111100000111010100000001110001110000010001111111101111011111111000,
000010000001100100001110111000010010001011110101000000000000000000000000,
000000000000000000000001111111001111110111111110000001001111111100000110,
000000001111111100000000000000000000000000000000000000000000000000000000,
000001011111101000001101000101010000010011100100000001110000101100001000,
000000000000000011111111000110001101011000100100111110001111010011111001,
111100011110000011101010111010001001100111001000000000110001010000001100,
110110001101001011011101111101100000011011111011111111001111001100000011,
000000000000000000000000000001110000111100001100000010101110001100001110,
111111110000110000110101000010001110111111111010111111111110011000000001,
000000000000000000000000000000000110100000011110111001110001001100000000,
111111101111011011100010000000000000110011101011001110100000010011110101,
000000000000000000000000000000001111101100001010111111101111011100001110,
000111111110101011101010001111100001000111100000010000001111101000000111,
111111110000001100000001111111110010100100110001111111010000000100000010,
111001010000000010110011000000110000100100110010000010010001100111111111,
000000000000000000000000000000000011001111011010111101101010111100000000,
000000000000000000000000000000000000000000000000000000000000000000000000,
000000000000000000000000000000000000000000000000000000000000000000000000,
000000000000000000000000000000000000000000000000000000000000000000000000,
000000000000000000000000000000000000000000000000000000000000000000000000,
000001111111101111101000111110001111100100000010001101101111001111001011,
000000000000000000100010000111111111011010110000111111010010000001000001,
000001001111111000000011000010011111010111101010000101001111101100000000,
000000000000000000011100111101010001101100000011111111011100101111111101,
000011000001001000010010111111111111011000000100000101010000100100000011,
000000000000000011111111111100001111010000011101000010110000100011101101,
111001011110111100000100111110001110101000001011111110100010000100000000,
000000000000000000010001111111110000111011111100000000000000100011111001,
111011011111010000001001000001001110011000000101111100010001110111110111,
000000000000000000001100000000000000011000000001111111010000011000000100,
111010001101101111111000000100010010010000010110000100101111111011100001,
000000000000000011111110111111001111010000011001000011011111111000000010,
111110101111110011110000111100011111110111100001111101101111101111111011,
000000000000000011111100111100101111111100001101000000110000100111110010,
111100110001101110100011010000001110001111111110000011010000100111110000,
000000000000000011101001000100111100001100100001000011111110001100011000,
110111011111111111101011111111110010001111101011110011010000010111011110,
000000000000000000110000000111011101001110011100000101111110010111101110,
000000110000001000000010111011010000000000001101000000110000010011111111,
000000000000000000000110111011000000111111110111111111010000110000000000,
000000000000000000000000000000000000000000000000000000000000000000000000,
000000000000000000000000000000000000000000000000000000000000000000000000,
000010001110000111110010111100100000111011111100110010001111101111111100,
000001000010000111111001111111011101111111100110111111100000100000011010,
111111110000010100001000101111100000010100011001111111101111010100000111,
111010011111110100000000111110000010100111111101010000011111010100100111,
111101110010100000001010111110111111110100001000111011000000000011111110,
000010111111100111111110000101100011001111110001111110011111110100001000,
111100110000010000000101111000110001010000000000000001000000110100000001,
111110100000000011111001111010001111010111111100111110101111110111101110,
111101111111000000000110111110110000100000000011000010010000001011010110,
000100111111101000000101110101000000011111111001000001100000011111111100,
000000000000000000000000111111100000010100000000111110001111100000110011,
111010100010101000111001110101100010011110011111000110101110001111110011,
111011110010101000000011000000001111101011010000111011110000111111101011,
000110001111011000100010111010111111000011100110000111001101110011101001,
111101010001101111001111000001001111100000001010110100001110000000010001,
001000011111001100101110000011101110110000001000110110100000010100001101,
111110010000100000000001111101001101010111111010111011000001110000011000,
111000101111101000001100111001001110101000011111111111111100101011111111,
110110000010101000000001001010011111111000001001110100001101110000000001,
111101110011110000011001001001100001111111011101001001100000010100011110,
001000011101110111101000111110110000100100010100000101011110111100001010,
000000000000000000000000000100110001100001010111000110011110100011010110,
111001110110110000011010000011011111110111010101110010011111000000001111,
111010001110111000011010000111110000101101011100001100011110001100111110,
111100110001001111111000010111000101010111010110110101101110001000011110,
000010010001011100000000111011010000110000000011001100101111011111001010,
000001001111100110111010000011100001110011011001011000111111110111111110,
111010101111110011100001111001000011101000011110001110001100000111010101,
001101110000000000001010111100011111000100010111000100100100100100001110,
010011100001001011111001000010101111110100011011010001001101011000001100,
000101010011001111011100000011110010010001010001111110110000000011100110,
110100101111000000000110001010111110000000000101110011100001100011011111,
000000000000000000000000110100011111001011101010111010110000000101000110,
000000000000000000000000000000000000000000000000000000000000000000000000,
000000000000000000000000000000000000000000000000000000000000000000000000,
000000000000000000000000000000000000000000000000000000000000000000000000,
000000000000000000000000000000000000000000000000000000000000000000000000,
000000000000000000000000000000000000000000000000000000000000000000000000,
000000000000000000000000000000000000000000000000000000000000000000000000,
000000000000000000000000000000000000000000000000000000000000000000000000,
000000000000000000000000000000000000000000000000000000000000000000000000,
000000000000000000000000000000000000000000000000000000000000000000000000,
000000000000000000000000000000000000000000000000000000000000000000000000,
000000000000000000000000000000000000000000000000000000000000000000000000;
