memory_initialization_radix=2;
memory_initialization_vector=
111111101111010111110110111111001111001111110010111111110000000000000001,
111110000000000000001001000000010000001011111100111110111111110100000000,
000000111111110100000011000000001111111100000001000000011111100111111101,
111111110000000011111011000001000010101111110111000000010000000000000000,
000000000000000000000000000101110011000000101000111100101011110111011101,
000000000000000000000000000000000000000000000000000000000000000000000000,
000101011110100111111110111101100000101100000001000000010000000100000011,
000000000000000000000000111100101101110100001000111110011111011111110110,
111111000000011000000000000001000000001100000010111011110000111000000111,
000000010000101000000010111101101111111000000011000011010001100100010111,
000000000000000000000000111111110000001000000000000101011111111011101001,
111111111111011100000000111111110000110111111101000000000000000111111111,
000000000000000000000000000000001111011100000000000001010000010000000000,
111111111111110100000010000000000000001100000000111111100000010000001100,
000000000000000000000000000000000000100100000010000000010000001000000001,
111110011111110100011011010110010000000000010110111101110000100011111111,
000000001111111111111111000000001111000100001001000111010000000000000001,
000010000010001000010101111111111111011111111101111001101101011000111001,
000000000000000000000000000000000001011100100011000010100000010000000110,
001000000000110011110010000010001111101111011100111110011101001111111110,
000000000000001011111111000000011111110101001000000010001111101100000000,
000011101110001000001110000000010000011100100011111100101111001111110000,
000000000000000000000000000000001110111001100110000001100001011100110100,
111111100000011000111000000000011110111011101110000101010000010100011011,
000000000000000011011001110111011110011101001011111111111111101111001000,
111100011111100000000101111111011110111000010010111111100001110100000011,
000000000000000000001000111111110000101111111010000010100000000111111110,
111101010010011111001011111111001110000100001110111011110000001111100000,
000000000000000011110101111101111111000000011010000010111111001100010011,
001001000000101000111001000010011110000100101100111011100000111110111110,
000000000000000011101100111111101111000111100100000010111110100100100000,
111011111110000100001010110110010010111011110101000010110001011000100011,
000000000000000011111010111010011101110000010001000111101110001101000110,
000100100001110000011111001011100010101011011110110010101111111100000100,
000000000000000000011100000111011110011100100101001001011111000111100010,
010100001010000111110101111011001110000000000110111100110000011011110011,
000000000000000000010100111001011100110100000000001010110000111011100111,
111110111111010000010011111100010000111000001110000000110000000011110101,
000000000000000000000100111100100000101100001010000001110000100100000010,
000010001111100111110101000000011111110111111110000000001111111000000010,
000000000000000000000001111111100000101000000110111111110000100100001000,
110110001110010000001011111100010010101100101101111101001110100000011101,
000000000000000011110011111110101100011100010110000101000011000000101001,
111101100000000011110011111110100000001011100101111100011111000111111111,
000000000000000000000101111111001111100100010011000001010000011011101111,
000001001101110000000000000001001111100100000101111011011111001111111000,
000001111110100011111011111100111101111111100101111111010000001011101011,
000000000000000111110111111110010001010011110011000010001111111000000000,
111111011111101011111111111110000001101111111010111010000000100000010010,
000110111111100111111100000011101111110100000001111011001111100011111101,
000010111111110111111100000110100000010100001101000001001111110000000100,
110001000000001100000001000001001111111011111100000000100001000011111100,
111111010000100100010010000001111111111011100110111001101111010100000000,
111110110000111000010101111111101111011100000100000101011111110000001010,
000010111111111100000010110101000000001111111111000001001111001100000110,
000000000000000000000000000011011111100100000101000000001111010100001000,
110100011100011100101110111110100101000111111010111110110010101000101001,
111011001101011001001010111111001111011011110101001110100001001100001011,
001100110000111100001100000001101111111100001110000010110100110011110011,
000000000010011101001000111110001111101011100000111111101110010011101001,
111100010001000100010000000000100100001100010001000101110001100000000001,
000110110010010100011000111111100001001011110101111110000010011111100000,
110111000000001100011001110101000011000011101110111100010010011100001010,
111101111110110100000001111100101110011111010101001010010010001100011110,
000010011110110000101000111110100110000100011101110101100000100000100111,
111100010000100111010011111001110000010111101111110010110000111011111010,
000000000000000000000000111011000000001111101111111001010010110111101011,
101100111111111111100010000110001111010111100111110011011111110100101010,
000111110000010100000011111001011111111111111011001111100000010100010101,
101101010001000100000101001001110010011100010011010011110011011000100011,
000001000110011111010001111111010001100100001011111001010001011000000111,
000000111110111000000000111101100010110111110010000010111111010011101100,
001010011111111011110011111111101101100011111001000011110010000000110011,
000011011110000111100001000101101111100100100110000110001101001111010000,
110111100001010011110101000100000000110011100001110100111101010011111110,
010111101110100110110101111110110001001000011111000001001101111110110011,
111101111111101010111110111111111100110011000011000110001111101100011000,
000000000000000000000000110111101110010000110100111010001110001100000100,
000100110000010111110000000011000001101011111011000011100001011111000100,
111101111100110000001101111101101111000111111111000011100000010111111000,
001101101101010000100010000110100001111100001110111001100100101001000001,
000010011100111111111101000110101111100111111000111100001110100111111010,
000001111111111100011010000001101100011111110101000100001111000000001111,
111101101110010111111101000000011110111011110011111010000000001100001000,
000001110010011011111000110100101111100011011010000010011110010100001111,
001100011111000100000111000110000001100011110001111010001101001011110010,
110011001111000101001010000010100001111001001101001100001111001000110011,
000111110001100000100001111100000010101110101111000000001111100011100111,
000000000000000000000000001001000000010000000011010010101111000011111010;
