memory_initialization_radix=2;
memory_initialization_vector=
000000111111110100000000000001010000001000000101111111110000000100000001,
000011100000000011110010111111101111111100000001000001010001000100010010,
000000001111001111111000111111101111100011111010000000000000001000000000,
000000001111111100000011110101100011010011110000000000000000000000000000,
000000000000000000000000111111000000001100000000111110011101001111101111,
000000000000000000000000000000000000000000000000000000000000000000000001,
000011101111001000000000000010100000100011101010111111101111101111111110,
000000000000000000000000001001111101001100010100000010010010011000010110,
000010011111111111111011111111110000001011111110110110001110101000000010,
000100010000101100000010111101011111111000010000000000101110111011111101,
000000000000000000000000111110001111111111111110111100111111001100011011,
111111010000111011111011111110010000101011111110111110100000001111111111,
000000000000000000000000000000001111000100000000000110101110110000000000,
111111000000001000001101000000001111010111111111111101111110111100001110,
000000000000000000000000000000001111100111110100111111110000101111110101,
111001010000100111010010110110111101111001001010000101000110000011111110,
000000010000000100000001000000011111100000001010001101101111011100000000,
111101111100100111111111000000000000110001011001000000100000100100001010,
000000000000000000000000000000001111111011101011000000110000110101010011,
101001010001000111100001111000101111011100010111001100001110100000000010,
000000011111111000000001000000001111101011010101000001010000001000000000,
111110000010101011101010000000001111001100010010000100101101101111001010,
000000000000000000000000000000001111001000100110111100001110001001010010,
111111010000011111101100000001101111111100000100111101101111110011111011,
000000000000000000000110111101111111011100000001111110011111110100000101,
000001010001110111011101111011101111101100100101111101101111111111110101,
000000000000000000001101110110100001111011110001111101000000110100100000,
111111010000100000001100000000111111111100010100000011100000110100000011,
000000000000000000000011111110111111011100000001000000011100011100001101,
000001101111111100000010000011000000000100010001000011110000011100000001,
000000000000000000000010000010110000100111110100111101110000000100010111,
000001101111011100000011111011111110110100000100000010000000011011101111,
000000000000000000001010000001001110110000010100111110100000010011110111,
111100001110011011111111000010010001010000010110000010011111101011101111,
000000000000000000000111111101111111110000010000000011110000010000000001,
000010111111111000010100001010000001011011100100000001011110101111110000,
000000000000000011111011101011101101010111001001111001000000010100000110,
000010000000011111110101111110100000000100000101000001111110001111111110,
000000000000000011101101111110010000010011110100000110001111100011110100,
111111000000101011110101111111110000100111111101111110100000001111111000,
000000000000000011111111111111011111001011111010111100001111100000000001,
111101001101011100000011111010001101100000001001000010111110011100010001,
000000000000000010111101110000101111111000010011110010101111000011101100,
000001101110001000101000000111000001101011100010111001000011000000001001,
000000000000000001000000000011101110100000110000101001010010000100010101,
000001101110000011111011000111001111001011111110000010000000000111111001,
000001011111100111111111111011000001011011111011111011110000000111110010,
111111000000001100010010111111000001110100010101000000011111101000000001,
111110011111110011110100111110011111000111110110111010100000011000101111,
111110110010000011101100000001010000000000000010111011100000010111111110,
000000111111011111110111000011101111100011111101000111010000010100000011,
111101000000001100000100000000110001011011111100000001100000011100000010,
111111110000100011110111111100111111110111111111000001011111101011101000,
111110101111000000010100111111011111011111111011111011110000000000001101,
110011111111111100000100000100010000000111111011000001000000001100000001,
000000000000000000000000001001011111110100000000111111001111101011111111,
000000110000110111011101101011010011011111100100110110100000010000100100,
000000010000011111110010111100111101101000111001110001101111110000011101,
110010111101101011101101001111000100000100001110001000101111111100010100,
111001010001010000100110110111110000100000010110001100000001111000001101,
111000001101111100110000110111100001110111011011001111000010000111100100,
000001001111010111101100111111110010000011100000000100011110111100101001,
001111011111111001011000000101101101010011111101111111010001110011110000,
001001011111010011010011111111011111111011101000000100110000000111100100,
111101101111111011001000000100101111011100010000110111010001100011000111,
111011111111010111110100111000000000011100100110001101010001001100100100,
000000000000000000000000110000000001010100010010001100011100011101000111,
110101010000111111011000111011000000110100000110000001101101001000100110,
000000101111110111100100111111010000010100001000111000010000000100111011,
000011100110011000010101000010110000101000100000111011001111000111111000,
011001000100111111011111010101010010010011110010111101100000001100000111,
010110000011010100101001000010010010100000001000000001111101001100001101,
000100010000101100101001000001011110101000000110000100000000101000010100,
000011011111110100010000111111010011111011111100111010010000001100000001,
111111001111101101000100000010010000001111100111000011001111011000001111,
000100001111000000011010111111000000100111110011000000001101011000011101,
001000110000111010110000000010011110110100001100000110111110100011100110,
000000000000000000000000000000011110110000000100100010111110000000010010,
000001101111011111111100111111101110110100101110110000011111111000000010,
111001000010100011110000110010001101000100000001000011100001011100001000,
110101010010011011110000111001011110100011110000110111000000010111111110,
111011101111010100000011111000101110000101010111001010001101010100011110,
111110001110111100001111000010100001110101001000111101000000010000110101,
110111000000101000001100001011010010010111000010110100100001001100011111,
000010010000011100011110000010111110110011101010111001100010001100010111,
110010111100110011111000110111110010010011101011000111100001000100101010,
001011100010101010111111000000010000000000011100111011100001001011000110,
111110000001110100001011110001110001100011010111001000100000001011001000,
000000000000000000000000110101010010010100001100100111011110001100010100;
