memory_initialization_radix=2;
memory_initialization_vector=
111011011011011111011011000010100011101000011100111111110000000100000010,
111111011111111000000111111111110000010000000000000010010000101000001110,
111110001111100011110100000000000000000100000000000101110101111000101110,
000000100000000100000010110101010000101111011000000000000000000000000000,
000000000000000000000000111101000000000100000111000101110110100100110011,
000000000000000000000000000000000000000000000000000000000000000000000001,
000001111111011100000010000010000000011111101101111111111111111111111111,
000000010000000000000000001101111110111100101011000011010001100000010100,
000000100000011000000101111110011110110011110100111111010000011011111111,
000011010000011100001000111101010000010100001001111100001011010111101000,
000000000000000000000000111111011111111111111011000000001111000100010101,
000000011101010000000001000001100000010100000010000000010000000011111111,
000000000000000000000000000000000000001000000001000000101111100000000000,
000010110000001100000101000000001111101111111110111111101111000001011011,
000000000000000000000000000000000010100111111001111111110000010111111101,
110111100000100000000110110001100011010100010000111011011111011000000100,
000000010000000100000000000000000010101000100001110100010000010100000000,
110011000000001111101110000000001111001000110011110101111101001011110011,
000000000000000000000000000000001111100100000001001010001101111111001101,
001011000001100011000011110001100000111011101011111110110100101011111111,
111111110000000000000000000000001110111100111011110101001111010000000000,
000100110011001100001100000000010001000011000011000010001110101100010010,
000000000000000000000000000000001111110000010111111110110000100111100011,
000101111101110011101010111100110000000011001101000001100001010011111101,
000000000000000000010011111000110001000000001000000111111111000000001100,
000011010000100000000001000100000000101011111111111101110000100000001011,
000000000000000000010001000010010000000000000010000001111111110111111111,
000000111110110011011001111101000000111111011001000001111111111000001100,
000000000000000000010000000000100000010000001101111100110000011011101110,
000001000000000100001111010000100000011111110100101111011110101111101000,
000000000000000011110011101110100000010111000011111111001111110000100111,
111111110010000011001000001001000001011011101111111111101111011100001000,
000000000000000011111010000001011110011000100111111011111111010000011001,
000001001110010100000000111100110000011000010001111110010000000000001001,
000000000000000000000001111101101110000100000101000101110000110100010001,
111000110001100100011011000000100000000011110110000011101110111111111000,
000000000000000000001101000000010001011100000111111100011100000000010110,
000010000001011111111111111111101111010011101101111111110000010000001011,
000000000000000011111101000001010000110011110111111101001111101111111110,
000001000000101011111011111110110000010100000000111110001111001011101110,
000000000000000000000110111100111101110100000001110111011111000100000011,
111011111100100000111100001111011110011011001111001010111111011000000111,
000000000000000011010111001111001111011111101011000110110000110100010000,
000101100010101100111100000111000001000001111111000111100001000100100101,
000000000000000011100111000111001101111011011100111001001101101100001101,
000001111101111000000011111101111111100000001001000110111110110011110001,
000010101111101111110001000110101011100000111000111111100000100011111010,
000101110000010000001010000100011100100111110010000011001111100100000010,
111100111111101011111100111010111111001111110001001100010000101000010001,
001111001111100000011000000010101111010000000001001001111110111111111101,
111100011111011111111000000111000011110011000010001110111110111100000110,
010100110000010000000010000001010000001111111000000010001110101011110110,
111101100000111000101001000011101111101100001100010111111110110100001000,
111011100010011111100101111111111111111011111011110101011111010000100110,
000000101111101100000101111111000000011011111011000001111110011100000110,
000000000000000000000000111100111110011100001001111111111111001011011010,
110111011111000111101010000011001100110000111111000101010010110011110110,
000011000000001000010001000111010000010011101010110100010010100100010001,
000011111110101000010111000111010001110000100101111011111100011000011001,
111100000011000111100000110101100001110100101000111011011110011100010101,
110111101111110000111011010000011110011011110010000101000001111100001100,
010000101100010000000101001010011111110100010100000111111101000000000011,
111000110000011100000100000001111111000000000111111010100001101100011010,
111011000000010111101001111011011010100000011000000101101100111111111001,
111110101111110100011011110011111111010000000001001110011110011100011111,
001100101110010111000101000001111110000111010110001011000010101011001011,
000000000000000000000000001011010011100100001011000101001111110011110000,
000010001101110111011111001001101110110111010110111100000000011000001001,
101111111111010111110000111101100001011011111100000111000000000011111011,
111101000000001011110001111001101110010000100010101111010001001000010100,
000001101111011000000010000000100000000100001001000101011111010100001100,
111101100000101111111000111000000000111100111100111100101111111000001111,
000101101101111000010010000111000001010011111110000000010001000011110111,
111110101111000000011100000100000001100101111111000000000000111111011011,
000110110000110100000000111110111101110011101110000011110010000000010100,
000111111111110111100111001000101111101000010101110111111110011111101100,
111111101100111111111111111111110111111100001010000000001111111100101110,
000000000000000000000000111100010000010100010100111000100001001100000010,
000010010010010100011101111101001110010101010100111011101110110000001000,
001001101110011111111101111010011110000111101010000011100000100111111111,
111101010001110000010100111111100000011100000000111000111110101000010001,
111011111110010000100110000011100000001111111010111011110000110111110011,
000001110000111100001100111110000000000011011001111110101110110011111011,
111111101100000000011111000001001110100011010001111001111101110000101111,
111101111001100011011111000011010011001111110100111001001110011111110111,
010011111111101111111010000100000000100011110011111010100000011011011101,
000011001111110000010001000000011111101011111001111101001111011100000010,
000101100010001011101111111000110100001100100001000101101110101000000010,
000000000000000000000000000001011111100100000000110101101110010111110001;
