memory_initialization_radix=2;
memory_initialization_vector=
111001111010001011000100111100111011101111011001111111110000000100000001,
000010101111111111110111000000010000101100000110000000000000101100000101,
000000000000000100000001000000010000000011111111000001110001101100001110,
111110101111101011111100111101110010110100000101000000000000000000000000,
000000000000000000000001000000101111110000000001111111001110101011110111,
000000000000000000000000000000000000000000000000000000000000000000000001,
000000101111010000001011000000100000101111110110111111111111110111111101,
000000000000000000000000000100001101010011101101111110001111011011110111,
000000100000110100000010000001100001000000001001111101000000011011111101,
001000110010010100100000111111000000101000000100000100010001101100011000,
000000000000000000000000111111110000001011111110111010101110111000100000,
000000001111011111111111000000011110110111111111111111110000000111111111,
000000000000000000000000000000001111000011111111111101111110110100000000,
111111111111101000010011000000001111100000000011111110001111101011110010,
000000000000000000000000000000000000100111111001111111110000011011111001,
000101001010011000000011000000111101010011010111111100000010110100000000,
000000010000000100000000000000000001001111110000000101011111011100000000,
111000110001011100001011111111110000111000100100000000010000001111100010,
000000000000000000000000000000000001100000010010000110000000101000000110,
001101101110001010111111111111110010101111101001110110101110000100000000,
000000000000000000000000000000001111000111010001110111011101111100000000,
111101101110010100001001000000000010110100001000000001111100010000011111,
000000000000000000000000000000000001001111001011111111011111111101011010,
111001111111111011101001110110101111000100001101000011110001001100000110,
000000000000000011110000000000100001101011100011001001001111011111101110,
111010101110000100000000111011111100110000011001000110100001000000000100,
000000000000000011011001110000010001001011110110110100000001000100010011,
000010101111010100000010111000000000000000001010000011010000000011111101,
000000000000000000001000111110000001001011101011111101110000111100000100,
111101010000000011110010110110000001001100001001001010110000011100010101,
000000000000000000001001001000110000000100001001000101111111100111011011,
111110101111111011111111000101000000000011111101000000111111110000000101,
000000000000000011111001000100011111000100000100111110111111001000000100,
111100110000111000101111110011111100101000000001001011010000110111001110,
000000000000000000100100001000011100000100101010111110110001110111110000,
111111110011100011101000110001100000001000100010110101000000011011011111,
000000000000000000011000110110100000010100001100000000001111101111111110,
000110110000111000010011000110010000010111111011111110011110111111110001,
000000000000000011111110111101111111101100001000111111110000001100001111,
000010111111110011111000111101101111101111111100000000011111111111111011,
000000000000000011111011111101000000011100011010111111100000110000000000,
000001111100001011110010111101101111000100011111101000111110001100011010,
000000000000000011000000000101110100011100111010111011001100101011111011,
000000000000000000000000000000000000000000000000000000000000000000000000,
000000000000000000000000000000000000000000000000000000000000000000000000,
000001001101011000000011111101000000101100000010111111111110111111111101,
000001000000001111111001111101100001000011100010000000100000100000011100,
111111000000011000001000111101100010000111111110000010000000001000000011,
111101001111110100000000111110001011111011111010001000011111101011111011,
000111010000001011111010000001111111100000000010111011111111001111111011,
111110111111110111111010000011110011110100010011110010111111011000000011,
111011010000000111111111111110011111111011111110000001110000100111111011,
111110000000010000011000000000101111100100000100101101001111011000001100,
111101100001101100000110111111010000101011110110000010001111111011001110,
110111111111110000000011001101010000011011111101000001001110100100000100,
000000000000000000000000111110001111101100000110111111111111110000011111,
000100101111110100111100110011100001000011100000000011011110011011111010,
000110000001110000011111000010110000010011111101111011001110111000001100,
001010011110001111111110111000111110100100010011000010011111110100001110,
000101011101011111101011000100100001001100011011000010100010100100010110,
000011010011101000010110111000011111110000010100111100011101111111111011,
110111011011111000110110000000010000111011111100000001001100100000000010,
111111001111011011001010000111000011101000000001111000101111100110111111,
101010000001010000001000000100110010100011110010111111010001110111100100,
111110000001101100110000001001110001011000000111000000001110011100110100,
111111000000011000001010000000101110010111010111000001100010011000101101,
000000000000000000000000000110001101110111111111001111011110110100000000,
000100101111101100000110111000100000011100001111111101101111111111111111,
111010111111011100000101000101011111100011110011110110100001101111110000,
111100011111110011110111111011101111011111110001100000100001101100001111,
111001111110010000100101111111010001000011111100000000011111101100001011,
111101111110101000000011001000000000111011110010111011101111000000101011,
000100000000110100000010000101111111101000010100000101101111111100100101,
000000000001000000000100000010001111100001100000111011111111011011000100,
111111100010011111111110111110110000101000100010111100100000011011110100,
111001011110101000000101111111001111011000000111111110011110110011110001,
111101101100111000001010000011001011101011001000000111001110111111111000,
000000000000000000000000111111110000100011101000111110101110000011111010,
000000000000000000000000000000000000000000000000000000000000000000000000,
000000000000000000000000000000000000000000000000000000000000000000000000,
000000000000000000000000000000000000000000000000000000000000000000000000,
000000000000000000000000000000000000000000000000000000000000000000000000,
000000000000000000000000000000000000000000000000000000000000000000000000,
000000000000000000000000000000000000000000000000000000000000000000000000,
000000000000000000000000000000000000000000000000000000000000000000000000,
000000000000000000000000000000000000000000000000000000000000000000000000,
000000000000000000000000000000000000000000000000000000000000000000000000,
000000000000000000000000000000000000000000000000000000000000000000000000,
000000000000000000000000000000000000000000000000000000000000000000000000;
