memory_initialization_radix=2;
memory_initialization_vector=
001001110111111101010010110111111000000111000101111111101111111011111110,
111010011111010000100100111110111111000111111000000100110111111101000011,
000110100100001100101111000001000001000100000111111110111110011111110011,
000010110001100100010010111100110011101111111111000000000000000000000000,
000000000000000000000000000010000000000000000000111111001110111011111000,
000000000000000000000000000000000000000000000000000000000000000000000000,
000000110000001100001010000110000000011111100111000000010000100100000011,
000000000000000000000000000101111011110011111101000010101111111100000101,
000000101111000011111010111010111011111111011101000000010000100100000001,
111100101111000011111000111001111111010011110010000110000001001000011000,
000000000000000000000000000000110000010100000010111011101110001100101100,
000000011111110111111100001001101101000111111111111111010000001111111111,
000000000000000100000000000000001111000000000010110110000000110000000000,
111101111111110111110111000000000000001100011001111110010000010000001100,
000000000000000000000000000000001111111000000111111111101111111000000010,
111100010001100011100010010001110011101111111000001000000000110111111010,
000000000000000000000000000000000000000011011110101110100001010100000000,
000001110000010100101000111111111110000101000101111010010011001011101000,
000000000000000000000000000000001110101011100111000011100011011100100100,
000000000000000000000000000000000000000000000000000000000000000000000000,
000000000000000000000000000000000000000000000000000000000000000000000000,
000000000000000000000000000000000000000000000000000000000000000000000000,
000000000000000000000000000000000000000000000000000000000000000000000000,
111111010001011111110110000101000000001011111011000010100010000100000010,
000000000000000011101110111100100000101111111111000111100000000100011111,
000101101111110100001111000100110001111100011111000111100000110000100111,
000000000000000000010010000011011111101111100110111001011111010011111100,
001011100010100011110100111011000010100011111000001001011010110011111000,
000000000000000011001010111011110000100111101000001111001110010011111001,
111001100100011000100101000111000000001011101000001001010010011000000101,
000000000000000000011000110001111100110000000010001111100001001011000000,
000000110000000100010000000100111111101000000010111101110001010111111000,
000000000000000000000010111110110000010000000100111110100000001000001100,
000011011111000101100000110011000001111011111111111101011111011000001100,
000000000000000000011000111101110010111011100011111100010001100111101101,
111101111101110100100111001000000000000111100101000010010000111000001110,
000000000000000011110101001011110000000011110010001011111111101011101001,
000001000001001011101101000101010000101100000011000000101111110100000100,
000000000000000011110100000100110001001000000001111000000001111011011010,
000001011111100000110111111010110000001000000111111111001111100011111111,
000000000000000000001101111110000001111011101110000001110001000011110111,
110001010001111000000010000001110011011100010010111011101111000111101000,
000000000000000011000100000111111111001100001111110111110110101111111000,
000000000000000000000000000000000000000000000000000000000000000000000000,
000000000000000000000000000000000000000000000000000000000000000000000000,
000010100001101011110110111010010010010100000111111011001111000111110110,
000010000001000111110000101111000011111100111100000000000000111010111110,
111110000000101100101000010011011101110111100011000010011110110111110011,
001001101111110011111111000111010001000111110100100100010000001000100000,
111011111101110100101000000011011111001000001010001000111111001111111011,
000000001111110011111000000111011000010001010001010101011110100000000111,
001000100000010000000011111010101111000111111100000011010011011111111011,
111100100000011011110110000011101111100011111000110101011111001011110001,
111100010000000000010110111110110000111011110011001001111111100110100110,
111110111111101100001000110110110000110111110110000010001111111000000110,
000000000000000000000000111101011111111000000110111110001111001010101101,
010001110010011100010110001001110000101011011010111000010001001110111000,
111111110001000111001011001001011101000000110011001010110000010100001101,
000100110001111000100001111110100000010111110111001011100000010011101111,
111010001010001101100100000010010001111000101101001111100000110000000011,
111110101101111100010000111110111110000010110011000111000000100100000000,
111111011111001001001001111110010010100011100001000111000001100100110000,
001011011101000111101101111100000000111100010011100111000100110111110000,
110111111111111100010101111001101111000100011001010010000011101011110010,
111010011100111000011111000000111111100111110110110110111111001100100010,
000111011111010000000100111000111101001011111110001100011101101000001111,
000000000000000000000000000101011111110000101010110011001110101000111011,
111110000001000100001110000001100000000001101101000001110001001111110111,
110110111111011100000111000100101110110111101100111000011110111111110010,
000101111111100000010001111101101111011011110001110111101111011111111101,
111010111111111100000010111000010000011000011010111110110101011111111100,
111110101110000100010000100111010000001100010011111110000000011010100111,
111011000001101100000100000110110000011111111011000000011111110111110111,
111001110010000100011110111001011101000000011101111011000001100111000000,
000100011011111011111101111110001111011111110010000101101110111000010001,
111001010010101100011011110111110000110100001100000110001111010000010011,
000101010000110111110110000010001111110111011110000001110000100100110111,
000000000000000000000000000101001011111100100101111101000000010011101110,
000000000000000000000000000000000000000000000000000000000000000000000000,
000000000000000000000000000000000000000000000000000000000000000000000000,
000000000000000000000000000000000000000000000000000000000000000000000000,
000000000000000000000000000000000000000000000000000000000000000000000000,
000000000000000000000000000000000000000000000000000000000000000000000000,
000000000000000000000000000000000000000000000000000000000000000000000000,
000000000000000000000000000000000000000000000000000000000000000000000000,
000000000000000000000000000000000000000000000000000000000000000000000000,
000000000000000000000000000000000000000000000000000000000000000000000000,
000000000000000000000000000000000000000000000000000000000000000000000000,
000000000000000000000000000000000000000000000000000000000000000000000000;
