memory_initialization_radix=2;
memory_initialization_vector=
111111100001000100001001111111100000111011111100111111110000000000000000,
111111011111100000001010000000100000001000000010111110011111000011110110,
111111110000101100000011111111111111110011111111000000011111111111111110,
111111110000001100000001111001010011001111100011000000000000000000000000,
000000000000000000000000111110010000011100000010111001001000000010111101,
000000000000000000000000000000000000000000000000000000000000000000000000,
111100011101110011011110000010010000101011101110000000001111111100000000,
000000000000000000000000001000011100011100011000000000001111010011111001,
000001100000001000000101111111010000011100000100111011101111111100001000,
000001010000010011111110111110001111101100000111000010011110110100001000,
000000000000000000000000111111100000000100000001000010001111010000000100,
000001011111110000000101000001000010101011111110111111111111111111111111,
000000000000000000000000000000000000000000000001001010011111101100000000,
111111010000000100001010000000001111111011111111000000001111101011001100,
000000000000000000000000000000001111110011111011111111100000001111111111,
000100100000111011110101111111100001001111101111100101100000010000000011,
000000000000000100000000000000000010010111101010111111010001100000000000,
110110110001000111101001000000001110111111111011001001110100110000010111,
000000000000000000000000000000001110111100101011111110011110100000111011,
000010111110010011101110111110101111100011110011111100010001011000000010,
000000000000000000000000000000001110110000001111000010000100010000000000,
000101111110111011100011000000001000000011110111111111011111011011111000,
000000000000000000000000000000000000011111110111111010111111011100001110,
110110101110101111110000110010101110001100010110000101000000110100001001,
000000000000000011110001000000000000110011100100000011001111011011011100,
110010000010001111101101111101010000011110101001111110111110010100010001,
000000000000000000000001000001010010111000010010111101100011010000011100,
111111110001100011101111111011000000100100010001111100100000001111111001,
000000000000000000010000111010100000100000000011111110110000000000000000,
000000110000011000000010111001011111111011110101111110000000100000010111,
000000000000000011110100111111001110010011111101000001100000000000100000,
000111110010001000000010111101011100110011101110111011001111010000110000,
000000000000000000001110000010111111111111100101111011000000000111110101,
000011111111110000110110110110100001011000000100111111011111000100001111,
000000000000000000010100000000110010000111101111111011110000111011110111,
000001010000101011110101111101110000001100000010000010101110100111111100,
000000000000000011101010111110100000011011110101000101111111011011111001,
111101110001000000011001110010011101011000001111001011110001010011110000,
000000000000000000010011010000111111100101000110000110010001100011110011,
000000110001001000000111111110001101110111110001111101001110100000111001,
000000000000000000000101000100011110101011101110111101001111111000010010,
000111110000101100000000000001010010001111101001000001011101000100001001,
000000000000000000000001111111001110111100001100111101101111100011111001,
001000110010011100010110000011000000110011111001110110011111100011000010,
000000000000000000110111011000000000010000000011001111000000111000110001,
000010000000110111111100001000001110100100001010111110001111101011110011,
000100001110100011111000111001101111101000011110111100100000000100101001,
111101110000010111110000000011011100110011111101000010011111100011111000,
000010111111011111110100000100011111001011110000001101110000111000101101,
111011001110011111100101000010111111101000000101001001111111100011111011,
000100101111110011110111000111101111011111010001110100011111011000000111,
010001000000010100000011000011111110100111110101000001100100010011111101,
111110100001000011110001000010101111101011001001111111001111000111111010,
111101000000001000011111111111011110110011111100111001011111110000000101,
111111011111110100000110000100100000011111111001000001010000001000000110,
000000000000000000000000001100111111100000000111111111001111001111110111,
000101111110000000010001001000000000010010100101001001100010110000000101,
000110011110111100011111111011001110011011100101111101010000100111110101,
000100010001101011100111000000110000100000001100111111110000100011100011,
000010001101000100000010111000101110001100010010111011000010000111111110,
000000011110101000000010000100001110110111011000000001011011111000111100,
111100010001101100001101111111000000100111101001110100111111111011001001,
110011000000010001011001001100101110001100010110110111000010001011011111,
001101110001011100001101111101010011011100010000001000001111110011110110,
111100000001000100010101001101101110100011101010000010001101000100001111,
111011110000101100011001111000111110100100011111111001000011000111100000,
000000000000000000000000001011010001000011111100110111010100110011010101,
111010010000100000000001110100110000010100110110000010111111110000010011,
001011010001110000011011111101110010001100011101000010010011011011110100,
111111011100011011100100000101010001011111101010001001101100011100000000,
110011111111100100000111111101011111010111011100000101011110001100001100,
111000111011000111101101001010010001000000110011000111011100010011111001,
111000101101111011001110000101100010101000011011000001010000010110111000,
111111101110001111011101000101001101001100011001001010000001111111100000,
111001110010001000000111000111110001010011111110000110101111110111100001,
000100101111011111011000110111110001100011100101111011101100111011101000,
110100000001001100110001001001110010100000100001110000101100100011111010,
000000000000000000000000111001111111110101001000001110110001111100000011,
000101000100100011001001000011100011110111111101111001111111001100000001,
001000010000111111000111000111100000101111100110111101110000111011011100,
111011100000111100000100101100011011010000001010001101100001110000111001,
000010011110010000001110111011100001100000100100000011001111110000001000,
000010011110111011110011001100000010110111001011101111111110011000001001,
000110001101100100111010000100111111011100010010000110001101011100100101,
111110101111011100010011111101101110100111100001110100111111001000010000,
001111000001000000000000000000011111001000101010111100110011110000000111,
000000010010111011111010110101011111111000101000110011011101001111110101,
000001110000011111100111000010000000011111100011001100100001100011100111,
000000000000000000000000000000010000010000101101110110010000011111111011;
