memory_initialization_radix=2;
memory_initialization_vector=
111100011101000111100101000000100001100000001010111111110000000000000000,
111110011111011100001110111111001110111111111011111011101000000011000000,
111010111100010111011110000001100001001000001011111100111101000011101010,
111111111111111000000000110011000010111111110010000000010000000000000000,
000000000000000000000000000000000000010100000000000001010010001100010010,
000000000000000000000000000000010000000100000001000000000000000000000000,
000000001111011111111111001001110000010111010011000000010000001000000010,
000000000000000000000000001101111011011100010111000000101111101111111100,
000000011110110111110111000111100110100100111110111001101110001111110100,
111101111101110011101100111010101111111100001110000011011110001000010000,
000000000000000000000000000001000000101100001000111010011101111101000000,
000010000011000111010011110010000000010011110111001100110001101000001000,
000000000000000000000000000000001111000011101001111111010001000100000000,
110111111110100111111011000000000000110011111010111111010001110001000111,
000000000000000000000000000000001101101100010011111111011110101000001110,
001101000011100000110000111000111101111010111011111111111110011100000000,
000000001111111100000000000000000000100011111000001100010000011000000000,
111100110001001100001100111111111111010100101100111011111111101000000001,
000000000000000000000000000000001111101010111100000001111111111100011110,
111111010000100110001101000110001100011100011101111110111100101111111111,
000000001111111111111111000000000000010000000011001011100000101000000000,
111111100000111000001011111111111111011100000011111100010001011000010010,
000000000000000000000000000000001111001011110010000010000000100111000101,
111111001111001100010011000011100000000111110111000000010000000111111001,
000000000000000011111000000110011110110011110000000000001111010011111010,
111100101110100000000000000011000001000000010110000010011111100111101110,
000000000000000000001001111110001111111100001111000011010000001111111111,
111101110000010011111110111111110000011000000101000001100000010100010000,
000000000000000011110010000001110001011100000000000011111111110000000001,
000001001111100100010000000101111111101100000000111100100000111111111100,
000000000000000000001110111111101111100100001101111010010000100000001100,
000100010001011011111001111110100001011111011010000011000011010011001100,
000000000000000011010110000001110001111011111101111010111110101011110001,
111110111110010011101101110100011110110110111010110111011110110111000110,
000000000000000011110100000000101111111100010010000001100010101111101110,
000000111110101000100011111111101111000011101110000110100000000100001100,
000000000000000011101011000110010000000000011011000010100001000111110101,
111111000000011111011110111011000001010111111100000110001111000000011010,
000000000000000011101001111110100001011011110101000100001111011011101110,
111010011110100011110010000011011110100011000011000100011101111011111010,
000000000000000001000100110111100011110000011110000101011101011100000001,
111101001110111000001010111110000000101100010010111111001111100000001011,
000000000000000000000001111110101110101000000011000100000000100100010010,
111111000000001111110001111111100000001100000011111100111111111111110011,
000000000000000000000010111111011111111011101100111110101111101000010000,
000011111101101011110010000010010000000000000001000110010000000011110101,
000000010001100011111000000101110000101100011101111011010000100011110010,
000110000000011111010001010010001110001000110000000000011110110111111010,
111010011111101111111000111101001110001111110010111100110000110001000001,
111101110100001011011100000000111111101100000110001010101111110100000000,
000101011101100011110110001000100010100100110110110010100000010100001100,
000110110000100100001010111101010010101111111011000010111110101100000011,
111110110000001011101111110111111111011000000110000000001111001111011010,
111100001110000111100110111110111111011111110111001000101111111000101000,
000000111111110000001000110110010000101011111000000010100000100000000010,
000000000000000000000000110111111111111000000000111101111111010011001001,
101110001101011000100101001001000001010100000000001001101110110100000000,
000011111101111011101111111001110000101000110101110011100000000100010111,
110011011101100100110101010011010011111011101101000000010010111111110011,
101110000101010111100100110010100000010011011001000110001111110000010100,
110110001101101011111110000011000000111100101000010001011110111100100011,
000010010000110111010101000001000001000100001111000100000001101100011111,
001100100010011011100000110101101100011111110001001011010011001100000000,
111000110001100011000111111101100011000111110001001001101111010011100101,
111010000010010011110101000010111101100011010001000110110000010111100011,
001101010000100111000000000100010001111111010101001010111110110100000110,
000000000000000000000000000101111111111011110101001001101110010101000010,
000001101110011111100110110101100010011000010101000110111111100100001010,
000001011111110000101111111100100001111111101111000010110001101100001001,
000001100100110111010100000101000000111100010010001001010001110100010011,
001000101100010011011010111110111101011011011010111100101111101000011100,
000110000000111011011110111111101111101000011011000100100010010111101101,
000011000000000010110011001000110001011000000111111010001111111111011101,
110101001100011010111100111110100000011000010010010000010000101111100101,
111111111111101100000100111101101111100000000110000010101101010011111111,
111110010011001100000011111100010000000100000000000010100001010111111001,
110100001110110101110100000010101111100011101011101011010001111100011110,
000000000000000000000000000101100001001000100110100011100010101011011010,
111000010001010100101111001011110001110100011010001001001110011111110001,
000001100001110100000011000011001111110000001001111110110001110100010100,
000101100011110111110011000011110000100011011011000100100001011100000011,
000010110010011111101100001001001101100011011111111010000000101100001111,
001000101111110011100110111110111111101111011100000001000001111111100111,
110001111100111011101110001000111110101100001110111100001100111111010110,
111111110111000101011100001000110010010011111101000110001111110011100101,
000110001111110000100110000011001111111000011001111111111110110010110001,
000001011110100100000011111000100001010011110000000001110001000000001101,
111001101111011111101100000001111011111111011001111011011110000100010100,
000000000000000000000000000011100011110100101111101111010000101111111101;
