memory_initialization_radix=2;
memory_initialization_vector=
001000100111011101000010001001110111111101010010111111101111111011111111,
111010011111000100100110111111001111001011111010000100100111000000101011,
000110100100011000101100000000010000100100000100111110011110010011110010,
000000100000100100000110110001100001101111010101000000000000000000000000,
000000000000000000000001111110011111110011111010000111110111111101000110,
000000000000000000000000000000000000000100000000000000000000000000000000,
111100111111011011101111001001010000011011011000111111110000010100000000,
000000000000000000000000010101101100011000101101111100101101001011101000,
000000001110100011111000000100000011100000100001111101011110111111110111,
111110101110011011110101111010001111100100001000000000101010110111110011,
000000000000000000000000000000100000001100000000111011111110010000111101,
110011111111101000000000000010110000100100011011000000111111110000000000,
000000000000000000000000000000000000010100000001000000100000011100000000,
010011100101000011101100000000000000001011110011111111000000101110000010,
000000000000000000000000000000001111110111111111111110111111111011111110,
000111101100111000001101100110000001101011111000001100011100010111111101,
000000001111111100000001111111111111101011011101111100110001100111111111,
001000010000100100001010000000001101111100110101111000100001010101000001,
000000000000000000000000000000000011011101000111111110100000110000000011,
110100111100101000010010111101010001000100000101111110001101011011111101,
000000011111111100000000000000001110101001000111000001011111100100000000,
000000100001011100011000000000000001001011100010000110000001110011111110,
000000000000000000000000000000000001111010111000111101000010011000011101,
111111001111011000000100000010011111011111101110000001011111110100000011,
000000000000000011111101000000100000011000000011000011000000100100000010,
000000110000110100000011000010111110110111111001000000001111010000001000,
000000000000000000001011000001100001001111111001111101101111111111110001,
111111101111101111111110111101101111100100001001000000010000001100000110,
000000000000000011111000000100110000101000001010000001101111111111110101,
000001000001000000000011111111111111001011110010111111001111110000001011,
000000000000000000000001000001100000011011111000111101111111110011111111,
001001101111011111101000111101011110111100100000000011001111010100000101,
000000000000000011011101000100000100110100110001111001010001000001001111,
000000101111100100000011111111010000000000000010111011111111110100000100,
000000000000000011110100000000000000011100010000111111011111010011110110,
111011011111100111111100111010011110111000001001111111100000111111111011,
000000000000000011111110111111100000110011110101000011100000000111110111,
111110011110001100100010111010100010100000101011111111000000001111000111,
000000000000000000000111111001000001001100010010000100010000110100000111,
000010001111110100000010111110101110111000001011000001010000000100010100,
000000000000000011101110110101100001011100101111111110010000011011110001,
000101111110011101101010101100010010101000000001000000001111100000001001,
000000000000000000100000111111100011100111100010111100110010000111101000,
000000110000111100000101111010010000000111101000111101100000110000011001,
000000000000000011110100111111011111000111111010000000111111101000011110,
000100110010010111110101111101011111011100010111001110101111100111110001,
000010100000110011101111011000000101101110101001111011000000110000010110,
001010100000111011101001101001110101100011100001000110011110010111011110,
001011011111010111110011001101110101111111101110110101110010000000110100,
110111111101100100000101000101001111001000001001101010001111001111111011,
000110101111100111110010001100011001000111011000111011101110000000001101,
100011110000110100001100111110001101011011101011000011111000001011111000,
111010100000111011100000000011001111011000111100001011001110100111111000,
111011001111110110111111111111101110110111101101111011001111010101000001,
001111011111101000001101010110100001000111101100000011101111110100000111,
000000000000000000000000110010111110110000001011111110011110101101011111,
111101001111011011010100000001010000010000010000000000011110110000000001,
111011011111100011000100111011011110101000010011001000100000111000000011,
000110111110101000111110000100000000011000011110110110111101010100001111,
000111010001011111110011000101101111110011001001111011011111010011110111,
000011110001000011110110111011101111001111110111111111000000110000010001,
111101001111100111111001001001001100100111100101111010001011001000110111,
001110011101001011011110111010101110111100101010001010101010111111101001,
000100000000001011110010001110110000100111010011101100100001000011101011,
111100000001001000010101000111000010110011100101111111111111111000100000,
001011011111101011010001111000011011011000011101001101111111101100001100,
000000000000000000000000111011000001000011110100010000001110100000100010,
110010110110111110101111111111000001011011010101000010100010110100000001,
110010010001100100010011111110111111100011011011110111011110001000000010,
111100110010011111110010000011111111110100001111111111011110000100010010,
111011100100000000000001110111001110110111101010110111100001111000100001,
110100100000001011111011111100101111100111000010111111111110011000011001,
110011011010010110100001111111101110111100000110111000101100101011111001,
110101100010000011111101110011100000100000011111010000001111111100001110,
111101011101100111010101101101001111111100001001111110101101111111101001,
000010011011001111101011000001100000001000010101000100001111101011110000,
111111011111111000000110000000101101000011100110111011000010011011100001,
000000000000000000000000000000111110011100011110101111010000110011011100,
110101110000011111101001000000110000011011011100000011111110101100100100,
111111011110110100000001111100001111010011111110111110001110010100000010,
000010010001111100000011111010011110111111100110000000011111010000100000,
000110010010100111110111000110001110110000011100000000101110100011110011,
001010001101011011111001111010100011001011101110111110000010111111110110,
110101011101111000110101111000010000111011101100111011101110011011000101,
111010010001011011000100000000011111000000011011101111110011001100000000,
000011000000111001000001111111111111110111101110001101010000101111001101,
000100000000101000011010001011101111101100000001000000010011111100011000,
000100001110111111010101111111100000010011100000111000111110000000110101,
000000000000000000000000001001000000110111001000110100110001111011110011;
