memory_initialization_radix=2;
memory_initialization_vector=
011001010110010101100101011001010110010101100101001101010100101001000010
011001010110010101100101011001010110010101100101011101101001000010001001
011001010110010101100101011001010110010101100101100100101001111110001100
011001010110010101100101011001010110010101100101101111001011111110101100
011001010110010101100101011001010110010101100101011011000110001001001001
011001010110010101100101011001010110010101100101010101110101100101001011
011001010110010101100101011001010110010101100101001111000100010000110100
011001010110010101100101011001010110010101100101010001000100011001000101
011001010110010101100101011001010110010101100101001101010100001101000010
011001010110010101100101011001010110010101100101011000010110010001100001
011001010110010101100101011001010110010101100101011110010111111101110111
011001010110010101100101011001010110010101100101100101111000110101101111
011001010110010101100101011001010110010101100101011000110110011001000110
011001010110010101100101011001010110010101100101010100010101001100111111
011001010110010101100101011001010110010101100101001110100101011001001111
011001010110010101100101011001010110010101100101001111010110010001011100
011001010110010101100101011001010110010101100101001101000100101101001000
011001010110010101100101011001010110010101100101010101110111001001110001
011001010110010101100101011001010110010101100101011101011001011010100101
011001010110010101100101011001010110010101100101010001000101111101011110
011001010110010101100101011001010110010101100101010101110101101101001010
011001010110010101100101011001010110010101100101001111000100110000111101
011001010110010101100101011001010110010101100101010001000101100001001101
011001010110010101100101011001010110010101100101010011100110011001010101
011001010110010101100101011001010110010101100101010001010100110000111110
011001010110010101100101011001010110010101100101010010010100011000110010
011001010110010101100101011001010110010101100101010110100101001100111000
011001010110010101100101011001010110010101100101010101000101110001010001
011001010110010101100101011001010110010101100101011000000111010001100111
011001010110010101100101011001010110010101100101011011110111100101100101
011001010110010101100101011001010110010101100101001101010110001101010111
011001010110010101100101011001010110010101100101011000111000000101110100
011001010110010101100101011001010110010101100101011010010111111001110001
011001010110010101100101011001010110010101100101011010111000001101111101
011001010110010101100101011001010110010101100101011101011001000110010000
011001010110010101100101011001010110010101100101010110010110101001011011
011001010110010101100101011001010110010101100101011011101000110110000111
011001010110010101100101011001010110010101100101011100001000011001110110
011001010110010101100101011001010110010101100101011111001000000101100111
011001010110010101100101011001010110010101100101011010010110100101010011
011001010110010101100101011001010110010101100101011011111000000101110110
011001010110010101100101011001010110010101100101011101001000110001111101
011001010110010101100101011001010110010101100101011000000111000101100001
011001010110010101100101011001010110010101100101011001010111110101110000
011001010110010101100101011001010110010101100101100000111010000010010101
011001010110010101100101011001010110010101100101011111001000110001111010
011001010110010101100101011001010110010101100101011110011001000110000010
011001010110010101100101011001010110010101100101011111011000101101111001
011001010110010101100101011001010110010101100101011100001000101101111100
011001010110010101100101011001010110010101100101011110010111010101100110
011001010110010101100101011001010110010101100101101010111100010111000100
011001010110010101100101011001010110010101100101100100001001100101111110
011001010110010101100101011001010110010101100101100001101001010010000100
011001010110010101100101011001010110010101100101011101011001110010010001
011001010110010101100101011001010110010101100101011010010111010101100011
011001010110010101100101011001010110010101100101100101011010000010011100
011001010110010101100101011001010110010101100101100100101011010010101000
011001010110010101100101011001010110010101100101011010001000100101111011
011001010110010101100101011001010110010101100101011101101010010010010101
011001010110010101100101011001010110010101100101100110011011000110101011
011001010110010101100101011001010110010101100101011111111001011110001000
011001010110010101100101011001010110010101100101011110011000011001101011
011001010110010101100101011001010110010101100101011110111010000110010010
011001010110010101100101011001010110010101100101011101111010000010001111
011001010110010101100101011001010110010101100101100000101000111001110101
011001010110010101100101011001010110010101100101011110011001101110001100
011001010110010101100101011001010110010101100101100100001010001110010100
011001010110010101100101011001010110010101100101100000001001011110000100
011001010110010101100101011001010110010101100101011110111001000110000000
011001010110010101100101011001010110010101100101011101001000110001111010
011001010110010101100101011001010110010101100101011101111000111101111110
011001010110010101100101011001010110010101100101100001101001001001111110
011001010110010101100101011001010110010101100101011100111000110001111010
011001010110010101100101011001010110010101100101011011001001011110000110
011001010110010101100101011001010110010101100101101101101011001110011011
011001010110010101100101011001010110010101100101010100000110011101100001
011001010110010101100101011001010110010101100101100010101000000001101001
011001010110010101100101011001010110010101100101011010100101110001000110
011001010110010101100101011001010110010101100101010001000100101000110010
011001010110010101100101011001010110010101100101001110000011110100110100
011001010110010101100101011001010110010101100101001101010011100000110010
011001010110010101100101011001010110010101100101011000010101001001000011
011001010110010101100101011001010110010101100101011001000101101000111101
011001010110010101100101011001010110010101100101010111110101111001001111
011001010110010101100101011001010110010101100101001110010100001000111100
011001010110010101100101011001010110010101100101011000110110000001010111
011001010110010101100101011001010110010101100101001101010100001100111101
011001010110010101100101011001010110010101100101010010010100100000111010
011001010110010101100101011001010110010101100101011011110110010001010101
011001010110010101100101011001010110010101100101011101110111010001011011
011001010110010101100101011001010110010101100101001111110100110001000101
011001010110010101100101011001010110010101100101001111010110100001101001
011001010110010101100101011001010110010101100101011011001000101010001110
011001010110010101100101011001010110010101100101011010111001000010011011
011001010110010101100101011001010110010101100101010100100110010101011111
011001010110010101100101011001010110010101100101010011100110100001100110
011001010110010101100101011001010110010101100101010100010111010001111110
011001010110010101100101011001010110010101100101001101100100111101100000
011001010110010101100101011001010110010101100101001111010101010101001111
011001010110010101100101011001010110010101100101010011110101011101001000
011001010110010101100101011001010110010101100101010110110101101101000111
011001010110010101100101011001010110010101100101010011100101100001001101
011001010110010101100101011001010110010101100101011100000110101101010010
011001010110010101100101011001010110010101100101010101010110101001011111
011001010110010101100101011001010110010101100101011010101000100010000010
011001010110010101100101011001010110010101100101011010111000110010001001
011001010110010101100101011001010110010101100101011010011000110010001010
011001010110010101100101011001010110010101100101011010000111110001110011
011001010110010101100101011001010110010101100101011100001001100110011101
011001010110010101100101011001010110010101100101011000010111000101100100
011001010110010101100101011001010110010101100101011011111001011010010010
011001010110010101100101011001010110010101100101011010011000011001111100
011001010110010101100101011001010110010101100101011010100111001001011101
011001010110010101100101011001010110010101100101011101011000010101110101
011001010110010101100101011001010110010101100101011100110111110101111100
011001010110010101100101011001010110010101100101011011001000001101110110
011001010110010101100101011001010110010101100101011011001000001101101011
011001010110010101100101011001010110010101100101010111110111011001100110
011001010110010101100101011001010110010101100101011010100111110101101110
011001010110010101100101011001010110010101100101011010000111000101011101
011001010110010101100101011001010110010101100101011001011000001001101111
011001010110010101100101011001010110010101100101011011011000001001110011
011001010110010101100101011001010110010101100101011101111000011101110101
011001010110010101100101011001010110010101100101011001111000001101110010
011001010110010101100101011001010110010101100101011111011001000010001011
011001010110010101100101011001010110010101100101011101001010100010011111
011001010110010101100101011001010110010101100101011110011001001110000100
011001010110010101100101011001010110010101100101100101101010011010010111
011001010110010101100101011001010110010101100101100001001000111001111001
011001010110010101100101011001010110010101100101011100111001111110010001
011001010110010101100101011001010110010101100101011101001001010010001110
011001010110010101100101011001010110010101100101011111111000011110000111
011001010110010101100101011001010110010101100101011111101001101110011110
011001010110010101100101011001010110010101100101011111111010100010011010
011001010110010101100101011001010110010101100101100010011010000010001110
011001010110010101100101011001010110010101100101011110101001111010010001
011001010110010101100101011001010110010101100101100100001001110010000100
011001010110010101100101011001010110010101100101100000001001111010001110
011001010110010101100101011001010110010101100101011110111010000010010001
011001010110010101100101011001010110010101100101011111111001101010000111
011001010110010101100101011001010110010101100101011100111000101001110110
011001010110010101100101011001010110010101100101100001111001101110001011
011001010110010101100101011001010110010101100101100000101001110010001010
011001010110010101100101011001010110010101100101011111101001011010000001
011001010110010101100101011001010110010101100101100000101001001110000000
011001010110010101100101011001010110010101100101011110011000110101111010
011001010110010101100101011001010110010101100101100000111010001110010010
011001010110010101100101011001010110010101100101100011111010100010011010
011001010110010101100101011001010110010101100101011111011001101110001010
011001010110010101100101011001010110010101100101100100111001110010001010
011001010110010101100101011001010110010101100101100001101010110110111000
011001010110010101100101011001010110010101100101011001010111110101111011
011001010110010101100101011001010110010101100101010111110110011001100100
011001010110010101100101011001010110010101100101011010000110010101011011
011001010110010101100101011001010110010101100101011101100110110001011101
011001010110010101100101011001010110010101100101010010000100001100101010
011001010110010101100101011001010110010101100101001101000011100100101111
011001010110010101100101011001010110010101100101010011000101010101010110
011001010110010101100101011001010110010101100101011011110111010101100110
011001010110010101100101011001010110010101100101100111111000111001111101
011001010110010101100101011001010110010101100101011111010111010001011011
011001010110010101100101011001010110010101100101010101100101100001000111
011001010110010101100101011001010110010101100101010010110100101101000010
011001010110010101100101011001010110010101100101010011110110001101011110
011001010110010101100101011001010110010101100101001111110101000101001011
011001010110010101100101011001010110010101100101010001000110011101100110
011001010110010101100101011001010110010101100101010101011000000110001100
011001010110010101100101011001010110010101100101100001011011100111000111
011001010110010101100101011001010110010101100101011100101000010110000011
011001010110010101100101011001010110010101100101011011100111100001111001
011001010110010101100101011001010110010101100101011011011000110110010000
011001010110010101100101011001010110010101100101010000010101101001010001
011001010110010101100101011001010110010101100101001101100101101001010111
011001010110010101100101011001010110010101100101001101100101101101011000
011001010110010101100101011001010110010101100101011010000111111001111101
011001010110010101100101011001010110010101100101010110100111010001110001
011001010110010101100101011001010110010101100101010100101000000010000011
011001010110010101100101011001010110010101100101010111010111110001111000
011001010110010101100101011001010110010101100101011000101000010110000100
011001010110010101100101011001010110010101100101011000001000100110000100
011001010110010101100101011001010110010101100101010100100110001101010110
011001010110010101100101011001010110010101100101011101001000011010000001
011001010110010101100101011001010110010101100101011110011011000111000010
011001010110010101100101011001010110010101100101011010101000000101111100
011001010110010101100101011001010110010101100101011100101001001110001110
011001010110010101100101011001010110010101100101011011001001100010010110
011001010110010101100101011001010110010101100101011011111001100010010010
011001010110010101100101011001010110010101100101011011001001100010010000
011001010110010101100101011001010110010101100101011010001000100101111101
011001010110010101100101011001010110010101100101100001001001011110010111
011001010110010101100101011001010110010101100101011110101001101110010011
011001010110010101100101011001010110010101100101011100110111111001101101
011001010110010101100101011001010110010101100101011100011001110110010001
011001010110010101100101011001010110010101100101011001000111101101100010
011001010110010101100101011001010110010101100101011010101000100101111010
011001010110010101100101011001010110010101100101010111100111100001101110
011001010110010101100101011001010110010101100101011000110111011001100010
011001010110010101100101011001010110010101100101011100111000101010000001
011001010110010101100101011001010110010101100101101010111010001110001010
011001010110010101100101011001010110010101100101011011001010001010010100
011001010110010101100101011001010110010101100101010111100111011101100110
011001010110010101100101011001010110010101100101010111111001010010001011
011001010110010101100101011001010110010101100101011010011001100110001100
011001010110010101100101011001010110010101100101011000111000111101111101
011001010110010101100101011001010110010101100101011011111001110110001101
011001010110010101100101011001010110010101100101011101001000110001111011
011001010110010101100101011001010110010101100101011111001000101101111000
011001010110010101100101011001010110010101100101011010110111110101110111
011001010110010101100101011001010110010101100101101001001011011111000000
011001010110010101100101011001010110010101100101100001101000100010000000
011001010110010101100101011001010110010101100101100101101010111110101101
011001010110010101100101011001010110010101100101100100101010000110010100
011001010110010101100101011001010110010101100101011111111001100101111110
011001010110010101100101011001010110010101100101100000101001110010001001
011001010110010101100101011001010110010101100101011111011001110010001000
011001010110010101100101011001010110010101100101011111011001101010000111
011001010110010101100101011001010110010101100101011110011000100101111001
011001010110010101100101011001010110010101100101011101111001010010000011
011001010110010101100101011001010110010101100101011111011001010010000000
011001010110010101100101011001010110010101100101100010001001101110000100
011001010110010101100101011001010110010101100101011111001001000001111111
011001010110010101100101011001010110010101100101011111111000101001110101
011001010110010101100101011001010110010101100101100001111000111101111001
011001010110010101100101011001010110010101100101011111011000111101111100
011001010110010101100101011001010110010101100101010111010111111001101011
011001010110010101100101011001010110010101100101010111100111111010000001
011001010110010101100101011001010110010101100101100001001000111110000000
011001010110010101100101011001010110010101100101101010001001110010001111
011001010110010101100101011001010110010101100101010110000101011001001000
011001010110010101100101011001010110010101100101001111010100101001000101
011001010110010101100101011001010110010101100101010001000100100001000101
011001010110010101100101011001010110010101100101011100100110110001100111
011001010110010101100101011001010110010101100101100111011001011001111011
011001010110010101100101011001010110010101100101010101010100111000111101
011001010110010101100101011001010110010101100101010000100100000100110100
011001010110010101100101011001010110010101100101010001110100001000111011
011001010110010101100101011001010110010101100101010100010101001101000010
011001010110010101100101011001010110010101100101011100010110100101001011
011001010110010101100101011001010110010101100101010110110101101001001100
011001010110010101100101011001010110010101100101011010111000000101111101
011001010110010101100101011001010110010101100101011011111000110110001111
011001010110010101100101011001010110010101100101011010001000011110010100
011001010110010101100101011001010110010101100101100000101010000110101111
011001010110010101100101011001010110010101100101010011110110001001100010
011001010110010101100101011001010110010101100101010000110101011101010010
011001010110010101100101011001010110010101100101001111110101111001011011
011001010110010101100101011001010110010101100101010011010110011001011011
011001010110010101100101011001010110010101100101010111010110100001011010
011001010110010101100101011001010110010101100101011110011001101110011111
011001010110010101100101011001010110010101100101010010010110000001010110
011001010110010101100101011001010110010101100101010101010110100101100111
011001010110010101100101011001010110010101100101010011000110011101100011
011001010110010101100101011001010110010101100101010011010110011001011011
011001010110010101100101011001010110010101100101010011110110101101011111
011001010110010101100101011001010110010101100101010110100111101001110001
011001010110010101100101011001010110010101100101010111110111100001110000
011001010110010101100101011001010110010101100101010101100110101101101100
011001010110010101100101011001010110010101100101010110000111000101100011
011001010110010101100101011001010110010101100101011000010111101101101100
011001010110010101100101011001010110010101100101011010011000001001110101
011001010110010101100101011001010110010101100101010111100111001001011101
011001010110010101100101011001010110010101100101011011001000110010000001
011001010110010101100101011001010110010101100101011001111000010101110111
011001010110010101100101011001010110010101100101011100001001001010001010
011001010110010101100101011001010110010101100101011101000111101101101111
011001010110010101100101011001010110010101100101011100110111101001101001
011001010110010101100101011001010110010101100101011010011000000001110001
011001010110010101100101011001010110010101100101011100111001100110010010
011001010110010101100101011001010110010101100101011010011000011101111000
011001010110010101100101011001010110010101100101011100001001010010001001
011001010110010101100101011001010110010101100101011000010111101101100100
011001010110010101100101011001010110010101100101100100111010000010010011
011001010110010101100101011001010110010101100101010011010101101101010100
011001010110010101100101011001010110010101100101011011011000110101111001
011001010110010101100101011001010110010101100101010111111000100001111101
011001010110010101100101011001010110010101100101011100111001110010001110
011001010110010101100101011001010110010101100101011001010111110101101001
011001010110010101100101011001010110010101100101011001111000100001111001
011001010110010101100101011001010110010101100101011100111001110010001111
011001010110010101100101011001010110010101100101011000110101011000111110
011001010110010101100101011001010110010101100101011100000111011101100001
011001010110010101100101011001010110010101100101011001000101010000110111
011001010110010101100101011001010110010101100101010111010101000100111101
011001010110010101100101011001010110010101100101011000000100111100110111
011001010110010101100101011001010110010101100101011000010101010000111010
011001010110010101100101011001010110010101100101011111000110000000111111
011001010110010101100101011001010110010101100101100000110110100101000110
011001010110010101100101011001010110010101100101100000100111010101010101
011001010110010101100101011001010110010101100101011010010110000000111101
011001010110010101100101011001010110010101100101011101100111000101010100
011001010110010101100101011001010110010101100101011111101000010101101101
011001010110010101100101011001010110010101100101011011100111100001100001
011001010110010101100101011001010110010101100101100001111001101110001010
011001010110010101100101011001010110010101100101011111001001110110001111
011001010110010101100101011001010110010101100101011111011001110110001011
011001010110010101100101011001010110010101100101011110101001100110000011
011001010110010101100101011001010110010101100101100011001001110110001011
011001010110010101100101011001010110010101100101011101001000100001110011
011001010110010101100101011001010110010101100101100001101000110101110100
011001010110010101100101011001010110010101100101011111011000110001111000
011001010110010101100101011001010110010101100101011011100110111101100010
011001010110010101100101011001010110010101100101010110010101110101011101
011001010110010101100101011001010110010101100101010110010110100001101011
011001010110010101100101011001010110010101100101011110011000111010011000
011001010110010101100101011001010110010101100101011111100111111001110101
011001010110010101100101011001010110010101100101011001110110010101010011
011001010110010101100101011001010110010101100101010001010100110001000011
011001010110010101100101011001010110010101100101011100110110110101011011
011001010110010101100101011001010110010101100101011010010110000001010011
011001010110010101100101011001010110010101100101100000010111010001011100
011001010110010101100101011001010110010101100101011000010110100101101000
011001010110010101100101011001010110010101100101011101001001011010011111
011001010110010101100101011001010110010101100101011011011001100110011010
011001010110010101100101011001010110010101100101011001001010000010101011
011001010110010101100101011001010110010101100101011101111010101010111010
011001010110010101100101011001010110010101100101100110101011000010110110
011001010110010101100101011001010110010101100101101010011010010110100011
011001010110010101100101011001010110010101100101100001010111110001101001
011001010110010101100101011001010110010101100101010011110101111101011000
011001010110010101100101011001010110010101100101010001010110001101100101
011001010110010101100101011001010110010101100101001111100101110001010001
011001010110010101100101011001010110010101100101010001000101101001001001
011001010110010101100101011001010110010101100101010100000111000001101011
011001010110010101100101011001010110010101100101010001000111010001101110
011001010110010101100101011001010110010101100101010101110101111101001100
011001010110010101100101011001010110010101100101001110110110110101101011
011001010110010101100101011001010110010101100101010010000111110010000100
011001010110010101100101011001010110010101100101010101011000011010000011
011001010110010101100101011001010110010101100101010110111000000001111011
011001010110010101100101011001010110010101100101010101100110100101011111
011001010110010101100101011001010110010101100101010111010110100001100001
011001010110010101100101011001010110010101100101011011001001011010001111
011001010110010101100101011001010110010101100101011000001000101110000010
011001010110010101100101011001010110010101100101010111010110111101011100
011001010110010101100101011001010110010101100101011001111000111110001000
011001010110010101100101011001010110010101100101011100001000011101110011
011001010110010101100101011001010110010101100101011001010111111001110100
011001010110010101100101011001010110010101100101011010101000000001101011
011001010110010101100101011001010110010101100101100001101000111001111001
011001010110010101100101011001010110010101100101100000000111110001100011
011001010110010101100101011001010110010101100101011111101010001110100011
011001010110010101100101011001010110010101100101011010000111010101100110
011001010110010101100101011001010110010101100101011100101000111010000011
011001010110010101100101011001010110010101100101011100110111101101011111
011001010110010101100101011001010110010101100101011110111001010010000110
011001010110010101100101011001010110010101100101011000001000100101111100
011001010110010101100101011001010110010101100101010110110110010101011001
011001010110010101100101011001010110010101100101011000011001000010001101
011001010110010101100101011001010110010101100101011011010110111001011011
011001010110010101100101011001010110010101100101010101110100111100111000
011001010110010101100101011001010110010101100101011010101000001001110110
011001010110010101100101011001010110010101100101011101000111011001011111
011001010110010101100101011001010110010101100101011010100111101101100101
011001010110010101100101011001010110010101100101011011100111110101101101
011001010110010101100101011001010110010101100101011000100110100001010000
011001010110010101100101011001010110010101100101011001000110100101001111
011001010110010101100101011001010110010101100101011001000111010101100001
011001010110010101100101011001010110010101100101010110000110110001010110
011001010110010101100101011001010110010101100101011010000111111001111101
011001010110010101100101011001010110010101100101011011011000000001101100
011001010110010101100101011001010110010101100101100011111000110010001010
011001010110010101100101011001010110010101100101011100100110011001010111
011001010110010101100101011001010110010101100101011100100111010101011010
011001010110010101100101011001010110010101100101100000111000100001100011
011001010110010101100101011001010110010101100101100000101000001101100011
011001010110010101100101011001010110010101100101011110011000001001110010
011001010110010101100101011001010110010101100101011010110111110001100101
011001010110010101100101011001010110010101100101011110101000001101101110
011001010110010101100101011001010110010101100101011010100111010001011110
011001010110010101100101011001010110010101100101100001110111111101100011
011001010110010101100101011001010110010101100101100001111000001101100000
011001010110010101100101011001010110010101100101100100111000110101101111
011001010110010101100101011001010110010101100101100001011000111101110100
011001010110010101100101011001010110010101100101100001101001110110000110
011001010110010101100101011001010110010101100101100011001010000110001100
011001010110010101100101011001010110010101100101010000110100110101001011
011001010110010101100101011001010110010101100101010000100100000000111110
011001010110010101100101011001010110010101100101100111001001000010000010
011001010110010101100101011001010110010101100101100010101000011001101001
011001010110010101100101011001010110010101100101010101110110010001101000
011001010110010101100101011001010110010101100101011110101001100110100110
011001010110010101100101011001010110010101100101100001010111101101110011
011001010110010101100101011001010110010101100101011001110110010001010100
011001010110010101100101011001010110010101100101010010100100111000111101
011001010110010101100101011001010110010101100101010000100100101000111110
011001010110010101100101011001010110010101100101011000110111100101111000
011001010110010101100101011001010110010101100101011101010111100001100110
011001010110010101100101011001010110010101100101011011101000000110000000
011001010110010101100101011001010110010101100101100101001100000111000100
011001010110010101100101011001010110010101100101100011111011110011000110
011001010110010101100101011001010110010101100101010111101000001010000111
011001010110010101100101011001010110010101100101011111110111010001101110
011001010110010101100101011001010110010101100101011000000110100001011011
011001010110010101100101011001010110010101100101011010100111000101100011
011001010110010101100101011001010110010101100101011111101000010101110001
011001010110010101100101011001010110010101100101100101001000101001111001
011001010110010101100101011001010110010101100101011011111000001101111101
011001010110010101100101011001010110010101100101010000110110100101100100
011001010110010101100101011001010110010101100101001110100101111101010011
011001010110010101100101011001010110010101100101010001100110100101100010
011001010110010101100101011001010110010101100101010011110110110001100111
011001010110010101100101011001010110010101100101010110010110110101100101
011001010110010101100101011001010110010101100101010011110110001101010010
011001010110010101100101011001010110010101100101010110010110111101011111
011001010110010101100101011001010110010101100101011000001000000001111000
011001010110010101100101011001010110010101100101011000001000011110000110
011001010110010101100101011001010110010101100101011001001000100101111110
011001010110010101100101011001010110010101100101010101110110111001100000
011001010110010101100101011001010110010101100101011010101000011001111010
011001010110010101100101011001010110010101100101011010101001010010001100
011001010110010101100101011001010110010101100101011000100111100001101001
011001010110010101100101011001010110010101100101011011011001000110001011
011001010110010101100101011001010110010101100101011100100111100101100111
011001010110010101100101011001010110010101100101100000011000011101110001
011001010110010101100101011001010110010101100101100100101000111101110101
011001010110010101100101011001010110010101100101011101111001000010001010
011001010110010101100101011001010110010101100101011100001001011010001000
011001010110010101100101011001010110010101100101011000100111000101011010
011001010110010101100101011001010110010101100101011101011001000110000111
011001010110010101100101011001010110010101100101010111111000011101111101
011001010110010101100101011001010110010101100101010011010100100100110010
011001010110010101100101011001010110010101100101010111100101010100111001
011001010110010101100101011001010110010101100101011010010111101001100111
011001010110010101100101011001010110010101100101011000100110110001010111
011001010110010101100101011001010110010101100101011000010110001101000110
011001010110010101100101011001010110010101100101011001000111010001011101
011001010110010101100101011001010110010101100101010111110111010101100001
011001010110010101100101011001010110010101100101011001010111101101100100
011001010110010101100101011001010110010101100101011011101000001001101100
011001010110010101100101011001010110010101100101011100011000100101110110
011001010110010101100101011001010110010101100101011100110111100001011010
011001010110010101100101011001010110010101100101011111001000100101101101
011001010110010101100101011001010110010101100101011100000111111001100111
011001010110010101100101011001010110010101100101011110101001011110000111
011001010110010101100101011001010110010101100101010000100111011101101111
011001010110010101100101011001010110010101100101011110010111110001100100
011001010110010101100101011001010110010101100101011111000111010001100110
011001010110010101100101011001010110010101100101100100101001001101110111
011001010110010101100101011001010110010101100101100011011001001101110001
011001010110010101100101011001010110010101100101011111111001101110001000
011001010110010101100101011001010110010101100101011111111001100010000111
011001010110010101100101011001010110010101100101011111001001001110000110
011001010110010101100101011001010110010101100101011010011000100101110111
011001010110010101100101011001010110010101100101011010001000111101111101
011001010110010101100101011001010110010101100101100010001001101110001000
011001010110010101100101011001010110010101100101011101111001100010000111
011001010110010101100101011001010110010101100101100001000111101001100100
011001010110010101100101011001010110010101100101100001000111010101011001
011001010110010101100101011001010110010101100101011110010110111101010101
011001010110010101100101011001010110010101100101100000011000010101101101
011001010110010101100101011001010110010101100101100100011000110101110001
011001010110010101100101011001010110010101100101011110010110110001011010
011001010110010101100101011001010110010101100101010101110101100101001111
011001010110010101100101011001010110010101100101010001010100101001000100
011001010110010101100101011001010110010101100101010111110110100001101000
011001010110010101100101011001010110010101100101011101100110111001011011
011001010110010101100101011001010110010101100101010100100101110101011100
011001010110010101100101011001010110010101100101010010110101100101010100
011001010110010101100101011001010110010101100101011101110110110101010001
011001010110010101100101011001010110010101100101011000000110010001010111
011001010110010101100101011001010110010101100101011010101000111110010111
011001010110010101100101011001010110010101100101011101001010011010110001
011001010110010101100101011001010110010101100101011011001001111010101111
011001010110010101100101011001010110010101100101110101001110100011100010
011001010110010101100101011001010110010101100101100100001010000010010111
011001010110010101100101011001010110010101100101110110011100001010101101
011001010110010101100101011001010110010101100101011010010111101110010101
011001010110010101100101011001010110010101100101010011010110010101011100
011001010110010101100101011001010110010101100101010011010110011001100011
011001010110010101100101011001010110010101100101010011100110100101100011
011001010110010101100101011001010110010101100101011110101000100110000000
011001010110010101100101011001010110010101100101011110110111100101011111
011001010110010101100101011001010110010101100101011001000110110101011000
011001010110010101100101011001010110010101100101010011010110011101010110
011001010110010101100101011001010110010101100101010101100101111101010001
011001010110010101100101011001010110010101100101010010010110001101011001
011001010110010101100101011001010110010101100101010100100110010001011001
011001010110010101100101011001010110010101100101010101010101111101001101
011001010110010101100101011001010110010101100101010101110110010001001100
011001010110010101100101011001010110010101100101010111100111000001100101
011001010110010101100101011001010110010101100101010100000110100101100101
011001010110010101100101011001010110010101100101010111101000000101110111
011001010110010101100101011001010110010101100101011001011000100101111011
011001010110010101100101011001010110010101100101011100000111110001101011
011001010110010101100101011001010110010101100101010110100110110101011011
011001010110010101100101011001010110010101100101011101001000101101111101
011001010110010101100101011001010110010101100101010111100111001001011100
011001010110010101100101011001010110010101100101011011001000100010000010
011001010110010101100101011001010110010101100101011000100111001001100010
011001010110010101100101011001010110010101100101100011011000101101111000
011001010110010101100101011001010110010101100101011110011001101010010101
011001010110010101100101011001010110010101100101100100011001010001111100
011001010110010101100101011001010110010101100101011010010111110001100110
011001010110010101100101011001010110010101100101010100100101110001001010
011001010110010101100101011001010110010101100101010100000110111001100001
011001010110010101100101011001010110010101100101011010101000100001110100
011001010110010101100101011001010110010101100101010010010110010101010011
011001010110010101100101011001010110010101100101011000111000100001111110
011001010110010101100101011001010110010101100101010111001000001101111011
011001010110010101100101011001010110010101100101011101001001100110001111
011001010110010101100101011001010110010101100101011100101001010010001011
011001010110010101100101011001010110010101100101011100011000111101111101
011001010110010101100101011001010110010101100101011001011000100101110111
011001010110010101100101011001010110010101100101011010011001110010001110
011001010110010101100101011001010110010101100101011011111001110110010000
011001010110010101100101011001010110010101100101011110011001111110001110
011001010110010101100101011001010110010101100101011100011001110110001101
011001010110010101100101011001010110010101100101011011011001101010001010
011001010110010101100101011001010110010101100101011101111001011110000100
011001010110010101100101011001010110010101100101011100011001011010000111
011001010110010101100101011001010110010101100101011110011000111001111011
011001010110010101100101011001010110010101100101100000101000101101111001
011001010110010101100101011001010110010101100101011111101001011010000001
011001010110010101100101011001010110010101100101100100001010001110001001
011001010110010101100101011001010110010101100101100001101001101110001001
011001010110010101100101011001010110010101100101011110111001100110000100
011001010110010101100101011001010110010101100101011010111000111001111011
011001010110010101100101011001010110010101100101011111001001001010000010
011001010110010101100101011001010110010101100101011111001001011010000110
011001010110010101100101011001010110010101100101011101011001011010000110
011001010110010101100101011001010110010101100101011101111001111010001010
011001010110010101100101011001010110010101100101011111111001111010001111
011001010110010101100101011001010110010101100101011101001001100110000110
011001010110010101100101011001010110010101100101100000101001010010000110
011001010110010101100101011001010110010101100101011111101000101001111000
011001010110010101100101011001010110010101100101011000010101101101011000
011001010110010101100101011001010110010101100101010101100101111001011101
011001010110010101100101011001010110010101100101010110110110011001100011
011001010110010101100101011001010110010101100101100110111001000001110100
011001010110010101100101011001010110010101100101100000000111110001110110
011001010110010101100101011001010110010101100101010101100110101001101001
011001010110010101100101011001010110010101100101010101110101011001001001
011001010110010101100101011001010110010101100101010110100110001001010001
011001010110010101100101011001010110010101100101010000110101011101001100
011001010110010101100101011001010110010101100101010001110101000101001010
011001010110010101100101011001010110010101100101010111000110010101010100
011001010110010101100101011001010110010101100101011001000110010001010000
011001010110010101100101011001010110010101100101100010001010100010101010
011001010110010101100101011001010110010101100101100011111010100110101000
011001010110010101100101011001010110010101100101110010111100001110110111
011001010110010101100101011001010110010101100101100000000111111001110010
011001010110010101100101011001010110010101100101100000010111111010000011
011001010110010101100101011001010110010101100101011101000111111101101000
011001010110010101100101011001010110010101100101101000011010001010010001
011001010110010101100101011001010110010101100101100000011001000010000111
011001010110010101100101011001010110010101100101010110000110111001100101
011001010110010101100101011001010110010101100101010101100111000001100101
011001010110010101100101011001010110010101100101011000010110110101100010
011001010110010101100101011001010110010101100101010111000110010101010010
011001010110010101100101011001010110010101100101011001010111001001011011
011001010110010101100101011001010110010101100101011000000111110001110100
011001010110010101100101011001010110010101100101010111001000011010000100
011001010110010101100101011001010110010101100101011000101000011001111110
011001010110010101100101011001010110010101100101011000011000011010000000
011001010110010101100101011001010110010101100101011000010111101001110110
011001010110010101100101011001010110010101100101011010110111011101111100
011001010110010101100101011001010110010101100101011001111000111010001011
011001010110010101100101011001010110010101100101010111100111110101110011
011001010110010101100101011001010110010101100101010101010110101101011110
011001010110010101100101011001010110010101100101011001011000111110000100
011001010110010101100101011001010110010101100101010111100110101001010101
011001010110010101100101011001010110010101100101011011001000001101110101
011001010110010101100101011001010110010101100101011001010111111001101101
011001010110010101100101011001010110010101100101011100001001101110001111
011001010110010101100101011001010110010101100101011011000111001001101001
011001010110010101100101011001010110010101100101100001101010001010011011
011001010110010101100101011001010110010101100101011001000110001101010100
011001010110010101100101011001010110010101100101011001111000111001111110
011001010110010101100101011001010110010101100101011010100110110101011010
011001010110010101100101011001010110010101100101010111010111000001011110
011001010110010101100101011001010110010101100101011011101000011101111010
011001010110010101100101011001010110010101100101011100001000101101111100
011001010110010101100101011001010110010101100101011011111001000110001010
011001010110010101100101011001010110010101100101011000111001101010011000
011001010110010101100101011001010110010101100101010111111000111110000010
011001010110010101100101011001010110010101100101011011001000001101110111
011001010110010101100101011001010110010101100101011100011001001010000100
011001010110010101100101011001010110010101100101010111111000101001111010
011001010110010101100101011001010110010101100101011100101001000110000000
011001010110010101100101011001010110010101100101011101001001011110000110
011001010110010101100101011001010110010101100101011011011001100010001011
011001010110010101100101011001010110010101100101011010001001110010001110
011001010110010101100101011001010110010101100101011010011001110110010001
011001010110010101100101011001010110010101100101011011001010000010010010
011001010110010101100101011001010110010101100101011010101001110010001101
011001010110010101100101011001010110010101100101011100111001101110001111
011001010110010101100101011001010110010101100101011111011000010110001001
011001010110010101100101011001010110010101100101100000001001110010001000
011001010110010101100101011001010110010101100101100000101001011010001000
011001010110010101100101011001010110010101100101011100101000110001110111
011001010110010101100101011001010110010101100101011010011000111101111110
011001010110010101100101011001010110010101100101011011011000101001110110
011001010110010101100101011001010110010101100101011101001000101001110111
011001010110010101100101011001010110010101100101011110011000110101111010
011001010110010101100101011001010110010101100101011111111001000010000011
011001010110010101100101011001010110010101100101011100101001101010000111
011001010110010101100101011001010110010101100101100000111010000010001111
011001010110010101100101011001010110010101100101011101001001010001111111
011001010110010101100101011001010110010101100101011101111001001001111110
011001010110010101100101011001010110010101100101011100111000111101111101
011001010110010101100101011001010110010101100101011011000111110010001011
011001010110010101100101011001010110010101100101101001011001110110001001
011001010110010101100101011001010110010101100101011101110110110101010000
011001010110010101100101011001010110010101100101100000111001011110100100
011001010110010101100101011001010110010101100101010011010101001001010000
011001010110010101100101011001010110010101100101011101100110110001011011
011001010110010101100101011001010110010101100101001111010011111100110100
011001010110010101100101011001010110010101100101010011110101010101001111
011001010110010101100101011001010110010101100101011011110110101101010101
011001010110010101100101011001010110010101100101010001000101100101010000
011001010110010101100101011001010110010101100101010011000101101001001111
011001010110010101100101011001010110010101100101100000011011100111000110
011001010110010101100101011001010110010101100101011111001000110010010001
011001010110010101100101011001010110010101100101101001111001111110000110
011001010110010101100101011001010110010101100101101100101011011010101110
011001010110010101100101011001010110010101100101010101010111000101111010
011001010110010101100101011001010110010101100101110111101110011011011011
011001010110010101100101011001010110010101100101100110011010010110011100
011001010110010101100101011001010110010101100101100000000111111001111001
011001010110010101100101011001010110010101100101100010100111111101110001
011001010110010101100101011001010110010101100101010110110110101101100011
011001010110010101100101011001010110010101100101010011010110110001100100
011001010110010101100101011001010110010101100101010101010110011101011001
011001010110010101100101011001010110010101100101010111010111001001101110
011001010110010101100101011001010110010101100101010111000110011001010011
011001010110010101100101011001010110010101100101010110110111000001011110
011001010110010101100101011001010110010101100101010110010110100101011000
011001010110010101100101011001010110010101100101010101000110010101010101
011001010110010101100101011001010110010101100101010101010111000101100001
011001010110010101100101011001010110010101100101010101100111000001100011
011001010110010101100101011001010110010101100101010110110110101101100000
011001010110010101100101011001010110010101100101010111110111010101101000
011001010110010101100101011001010110010101100101010111010111010001100000
011001010110010101100101011001010110010101100101011010101000101001111010
011001010110010101100101011001010110010101100101010111111000001101110111
011001010110010101100101011001010110010101100101011000000111111001110110
011001010110010101100101011001010110010101100101011001001000101010000000
011001010110010101100101011001010110010101100101011001111000011101111101
011001010110010101100101011001010110010101100101011000010110110001010011
011001010110010101100101011001010110010101100101011011000111110001101110
011001010110010101100101011001010110010101100101010110100100111000111101
011001010110010101100101011001010110010101100101011000111000000110000110
011001010110010101100101011001010110010101100101010110110111010001100010
011001010110010101100101011001010110010101100101010101111000001001110111
011001010110010101100101011001010110010101100101011000001000101001111101
011001010110010101100101011001010110010101100101010110001000100101111100
011001010110010101100101011001010110010101100101011001001001100010001011
011001010110010101100101011001010110010101100101011100001001101110010010
011001010110010101100101011001010110010101100101011101001010000110011100
011001010110010101100101011001010110010101100101011001001001001010000100
011001010110010101100101011001010110010101100101011000111000000101110100
011001010110010101100101011001010110010101100101011011000111111101101111
011001010110010101100101011001010110010101100101011101001000110101111011
011001010110010101100101011001010110010101100101010110101001100010001001
011001010110010101100101011001010110010101100101011101011001101110001100
011001010110010101100101011001010110010101100101011111011001100110000010
011001010110010101100101011001010110010101100101011000101000011001110010
011001010110010101100101011001010110010101100101011110101001000001111010
011001010110010101100101011001010110010101100101011101101000111001111101
011001010110010101100101011001010110010101100101011101001001001010000011
011001010110010101100101011001010110010101100101011101101001110010001101
011001010110010101100101011001010110010101100101100100001001011010010001
011001010110010101100101011001010110010101100101011111001001001110000001
011001010110010101100101011001010110010101100101100001001001001101111010
011001010110010101100101011001010110010101100101011100101000111101111100
011001010110010101100101011001010110010101100101100000001001011010000010
011001010110010101100101011001010110010101100101100000011001011010000100
011001010110010101100101011001010110010101100101011101111001001101111111
011001010110010101100101011001010110010101100101011110101001001110000011
011001010110010101100101011001010110010101100101011101111001010010000000
011001010110010101100101011001010110010101100101011110111001000101111111
011001010110010101100101011001010110010101100101011011111000110101111100
011001010110010101100101011001010110010101100101011101001000110101111001
011001010110010101100101011001010110010101100101011100111000111001111101
011001010110010101100101011001010110010101100101011000011000100001111001
011001010110010101100101011001010110010101100101100110011000010101111100
011001010110010101100101011001010110010101100101011010100110110101101000
011001010110010101100101011001010110010101100101011100011000100010011101
011001010110010101100101011001010110010101100101100111111001010010001011
011001010110010101100101011001010110010101100101010100010101100001000110
011001010110010101100101011001010110010101100101010100000101111001011100
011001010110010101100101011001010110010101100101011000110101010101001001
011001010110010101100101011001010110010101100101011011000110111101100110
011001010110010101100101011001010110010101100101011000010111010001111000
011001010110010101100101011001010110010101100101011001010110111001100010
011001010110010101100101011001010110010101100101011111111000101101111110
011001010110010101100101011001010110010101100101010010110101100001001101
011001010110010101100101011001010110010101100101011001010111111010000010
011001010110010101100101011001010110010101100101100001011000100010001101
011001010110010101100101011001010110010101100101100100111010001010010011
011001010110010101100101011001010110010101100101011101101010000110101000
011001010110010101100101011001010110010101100101100110011010110110110011
011001010110010101100101011001010110010101100101100000101001100110001110
011001010110010101100101011001010110010101100101011110010111010101100100
011001010110010101100101011001010110010101100101011001000110100001011010
011001010110010101100101011001010110010101100101011101000111100101100011
011001010110010101100101011001010110010101100101011100010111000101010010
011001010110010101100101011001010110010101100101011000010111010101100111
011001010110010101100101011001010110010101100101010110110111010101101100
011001010110010101100101011001010110010101100101011000010111010001101001
011001010110010101100101011001010110010101100101010111100110011101010110
011001010110010101100101011001010110010101100101011000111000001101111110
011001010110010101100101011001010110010101100101011000101000010101111110
011001010110010101100101011001010110010101100101011000001000011010000000
011001010110010101100101011001010110010101100101010111111000011110000000
011001010110010101100101011001010110010101100101011000110110111101101101
011001010110010101100101011001010110010101100101011100111001111010100101
011001010110010101100101011001010110010101100101011001001000101110000001
011001010110010101100101011001010110010101100101011100011000001101101101
011001010110010101100101011001010110010101100101011010001000011101111011
011001010110010101100101011001010110010101100101011101101000111101111100
011001010110010101100101011001010110010101100101010111000110011101010111
011001010110010101100101011001010110010101100101011011011001011110001100
011001010110010101100101011001010110010101100101011010111000110010000010
011001010110010101100101011001010110010101100101011111111000000001101011
011001010110010101100101011001010110010101100101010010000110100001100010
011001010110010101100101011001010110010101100101010101100111111001110100
011001010110010101100101011001010110010101100101010001100111001001101011
011001010110010101100101011001010110010101100101010101010111000001011111
011001010110010101100101011001010110010101100101010111001000000001110011
011001010110010101100101011001010110010101100101011000011001000010000010
011001010110010101100101011001010110010101100101011000111001000010000110
011001010110010101100101011001010110010101100101011001011001100110010001
011001010110010101100101011001010110010101100101011011001001110110011000
011001010110010101100101011001010110010101100101011000111001100110001100
011001010110010101100101011001010110010101100101011010011001011010001100
011001010110010101100101011001010110010101100101011011001001100110001111
011001010110010101100101011001010110010101100101011010011001100010001100
011001010110010101100101011001010110010101100101011011101001110010010001
011001010110010101100101011001010110010101100101010110011001010010001001
011001010110010101100101011001010110010101100101011100001001111010010001
011001010110010101100101011001010110010101100101011010001001101110001110
011001010110010101100101011001010110010101100101011100011001110010001001
011001010110010101100101011001010110010101100101011100101001011010000000
011001010110010101100101011001010110010101100101011110011001011010000010
011001010110010101100101011001010110010101100101011101011000100001111001
011001010110010101100101011001010110010101100101100000011000110110000010
011001010110010101100101011001010110010101100101011110101000111001111001
011001010110010101100101011001010110010101100101100000011001001101111110
011001010110010101100101011001010110010101100101011101001001001101111111
011001010110010101100101011001010110010101100101011101001001101010001010
011001010110010101100101011001010110010101100101011101111001100010000100
011001010110010101100101011001010110010101100101011101011001001010000001
011001010110010101100101011001010110010101100101011101001001100110000110
011001010110010101100101011001010110010101100101011110011001110110001001
011001010110010101100101011001010110010101100101011110101001100010000110
011001010110010101100101011001010110010101100101011110011000110101111100
011001010110010101100101011001010110010101100101011100101000011101110101
011001010110010101100101011001010110010101100101011110111000100101111010
011001010110010101100101011001010110010101100101011001011000000101110010
011001010110010101100101011001010110010101100101010111100111000101111101
011001010110010101100101011001010110010101100101011011100111100110001011
011001010110010101100101011001010110010101100101100110101000101001101000
011001010110010101100101011001010110010101100101010011110101010001001000
011001010110010101100101011001010110010101100101010010000100100100111110
011001010110010101100101011001010110010101100101011111000110110101011000
011001010110010101100101011001010110010101100101010010010101000101001001
011001010110010101100101011001010110010101100101010010110101011101010101
011001010110010101100101011001010110010101100101010111000101111101010001
011001010110010101100101011001010110010101100101011000010111110101111111
011001010110010101100101011001010110010101100101010111010110100001100100
011001010110010101100101011001010110010101100101010111100101111101010101
011001010110010101100101011001010110010101100101011000110111000001101000
011001010110010101100101011001010110010101100101101100111011111111000100
011001010110010101100101011001010110010101100101010000010101101001010011
011001010110010101100101011001010110010101100101111110001110110011100010
011001010110010101100101011001010110010101100101100100111001001101111111
011001010110010101100101011001010110010101100101011010110110101001010101
011001010110010101100101011001010110010101100101010010100110111101101000
011001010110010101100101011001010110010101100101010101110110110101100100
011001010110010101100101011001010110010101100101010110100110111001100101
011001010110010101100101011001010110010101100101011010010110111101011010
011001010110010101100101011001010110010101100101011011110111101001011101
011001010110010101100101011001010110010101100101010111000110011101001111
011001010110010101100101011001010110010101100101010110000111100001101111
011001010110010101100101011001010110010101100101011001000110100001010110
011001010110010101100101011001010110010101100101011110110111111101100100
011001010110010101100101011001010110010101100101010101100101111001001111
011001010110010101100101011001010110010101100101010110010101111001000111
011001010110010101100101011001010110010101100101010110100110010101001111
011001010110010101100101011001010110010101100101010110010110011001010110
011001010110010101100101011001010110010101100101011001010111101101110100
011001010110010101100101011001010110010101100101010110000110100001010100
011001010110010101100101011001010110010101100101011100001001101010001111
011001010110010101100101011001010110010101100101011100111010001010011110
011001010110010101100101011001010110010101100101011001011000000001110010
011001010110010101100101011001010110010101100101011100001001000010010100
011001010110010101100101011001010110010101100101010111000110101001011011
011001010110010101100101011001010110010101100101011011110110100101010100
011001010110010101100101011001010110010101100101100100001000111001111110
011001010110010101100101011001010110010101100101010011010110101001011011
011001010110010101100101011001010110010101100101010110000111100101101000
011001010110010101100101011001010110010101100101010111111000000001110010
011001010110010101100101011001010110010101100101010110001000010101110100
011001010110010101100101011001010110010101100101011010101001000001111100
011001010110010101100101011001010110010101100101011011011000111010000000
011001010110010101100101011001010110010101100101011000101000101010000000
011001010110010101100101011001010110010101100101010111001000110110000001
011001010110010101100101011001010110010101100101011011011001000110000001
011001010110010101100101011001010110010101100101011001011000100101110111
011001010110010101100101011001010110010101100101011000111000011101111000
011001010110010101100101011001010110010101100101011101001000111101111110
011001010110010101100101011001010110010101100101011100011001011110000100
011001010110010101100101011001010110010101100101011100101001000110000001
011001010110010101100101011001010110010101100101011000011000111010000000
011001010110010101100101011001010110010101100101011000001001010010000110
011001010110010101100101011001010110010101100101011000111001101110001011
011001010110010101100101011001010110010101100101011011101001110110001111
011001010110010101100101011001010110010101100101011010011001110010001110
011001010110010101100101011001010110010101100101011010001001100110001010
011001010110010101100101011001010110010101100101011101101000001001111010
011001010110010101100101011001010110010101100101100000011001011010000110
011001010110010101100101011001010110010101100101011110111001000101111110
011001010110010101100101011001010110010101100101011110101001011010000001
011001010110010101100101011001010110010101100101011101101001101010001011
011001010110010101100101011001010110010101100101011101011001011010000010
011001010110010101100101011001010110010101100101011011011001000001111101
011001010110010101100101011001010110010101100101011010111000110001111110
011001010110010101100101011001010110010101100101011110011001100010000100
011001010110010101100101011001010110010101100101011111011001110010001101
011001010110010101100101011001010110010101100101011101011001101110001011
011001010110010101100101011001010110010101100101011101001001010010000011
011001010110010101100101011001010110010101100101011100001000111001111001
011001010110010101100101011001010110010101100101011101111000110101111100
011001010110010101100101011001010110010101100101011100011000111001111110
011001010110010101100101011001010110010101100101100111011010101110011010
011001010110010101100101011001010110010101100101010111100110011101010000
011001010110010101100101011001010110010101100101001110110101000101000111
011001010110010101100101011001010110010101100101011001010110001101011010
011001010110010101100101011001010110010101100101011001110110010100111111
011001010110010101100101011001010110010101100101010000010100011000111011
011001010110010101100101011001010110010101100101010110000101100001000000
011001010110010101100101011001010110010101100101010110000101110001001010
011001010110010101100101011001010110010101100101010001110101100101010001
011001010110010101100101011001010110010101100101010101010110001001010010
011001010110010101100101011001010110010101100101010111010110011101010010
011001010110010101100101011001010110010101100101011011010111111101111011
011001010110010101100101011001010110010101100101011111001000010110000000
011001010110010101100101011001010110010101100101101001001010101110011100
011001010110010101100101011001010110010101100101010011011000000010010110
011001010110010101100101011001010110010101100101110110111101111011011111
011001010110010101100101011001010110010101100101100000001000001101111001
011001010110010101100101011001010110010101100101011111000111101001101101
011001010110010101100101011001010110010101100101010110110110100001010111
011001010110010101100101011001010110010101100101010100100110011001011000
011001010110010101100101011001010110010101100101010101100110001101010001
011001010110010101100101011001010110010101100101010111010110101001011101
011001010110010101100101011001010110010101100101011001111000000001110110
011001010110010101100101011001010110010101100101011010110111100001100110
011001010110010101100101011001010110010101100101010110100110111101100011
011001010110010101100101011001010110010101100101010111101000000101111001
011001010110010101100101011001010110010101100101010110110101101001000101
011001010110010101100101011001010110010101100101010101110110000001000111
011001010110010101100101011001010110010101100101010110000110110001011011
011001010110010101100101011001010110010101100101011010000111110101110110
011001010110010101100101011001010110010101100101011001000111111001110101
011001010110010101100101011001010110010101100101011011111000101101111100
011001010110010101100101011001010110010101100101011011101000100001110101
011001010110010101100101011001010110010101100101011001110111100001100100
011001010110010101100101011001010110010101100101011001000111110001101101
011001010110010101100101011001010110010101100101011010011000000101110010
011001010110010101100101011001010110010101100101011010101001000010001000
011001010110010101100101011001010110010101100101010110010110110101011111
011001010110010101100101011001010110010101100101011010110110110001010001
011001010110010101100101011001010110010101100101100100101000011001101101
011001010110010101100101011001010110010101100101011010111000001001110001
011001010110010101100101011001010110010101100101011000000111100001101000
011001010110010101100101011001010110010101100101011011100111111001101100
011001010110010101100101011001010110010101100101011010111000010101110001
011001010110010101100101011001010110010101100101010101101000100101111011
011001010110010101100101011001010110010101100101010111001001000110000110
011001010110010101100101011001010110010101100101010100011001000110000110
011001010110010101100101011001010110010101100101011010001001011010001101
011001010110010101100101011001010110010101100101011001111001100110001100
011001010110010101100101011001010110010101100101011001011001000110001010
011001010110010101100101011001010110010101100101011000111001010010000111
011001010110010101100101011001010110010101100101011011011001100110001111
011001010110010101100101011001010110010101100101011001011001100010001011
011001010110010101100101011001010110010101100101011000011001011110001001
011001010110010101100101011001010110010101100101011001111001001110000011
011001010110010101100101011001010110010101100101011100101001000110000000
011001010110010101100101011001010110010101100101011011111000111101111110
011001010110010101100101011001010110010101100101011100011001110010010111
011001010110010101100101011001010110010101100101011010011001001110000111
011001010110010101100101011001010110010101100101011011111001100010001100
011001010110010101100101011001010110010101100101011101011001001110011000
011001010110010101100101011001010110010101100101011100001001100010001010
011001010110010101100101011001010110010101100101011111001001001010000001
011001010110010101100101011001010110010101100101011110101001000101111111
011001010110010101100101011001010110010101100101011010111001011110000010
011001010110010101100101011001010110010101100101011000111000111001111011
011001010110010101100101011001010110010101100101100000101001000101111111
011001010110010101100101011001010110010101100101011100101000101001111001
011001010110010101100101011001010110010101100101011100111000111101111100
011001010110010101100101011001010110010101100101011110111001011110001000
011001010110010101100101011001010110010101100101011101111001100110001001
011001010110010101100101011001010110010101100101011100011001011010000100
011001010110010101100101011001010110010101100101011010101001000001111101
011001010110010101100101011001010110010101100101011101011001000001111111
011001010110010101100101011001010110010101100101011100101001001001111111
011001010110010101100101011001010110010101100101011010111010010110010011
011001010110010101100101011001010110010101100101001100010110100101011001
011001010110010101100101011001010110010101100101100001111000011101110100
011001010110010101100101011001010110010101100101010001010101011001000101
011001010110010101100101011001010110010101100101010010110101010101001001
011001010110010101100101011001010110010101100101011001000101111101010000
011001010110010101100101011001010110010101100101010010000101000101000010
011001010110010101100101011001010110010101100101010010110100111101000001
011001010110010101100101011001010110010101100101010001000100111101000101
011001010110010101100101011001010110010101100101010011000111000101110101
011001010110010101100101011001010110010101100101011111001001011010011111
011001010110010101100101011001010110010101100101011101100111100101101011
011001010110010101100101011001010110010101100101100101001010111110111101
011001010110010101100101011001010110010101100101110011101101001111001101
011001010110010101100101011001010110010101100101110100001100101110111011
011001010110010101100101011001010110010101100101100101111001000010000001
011001010110010101100101011001010110010101100101010110110110111001110000
011001010110010101100101011001010110010101100101010101110111100010001001
011001010110010101100101011001010110010101100101011100100111111110000110
011001010110010101100101011001010110010101100101011110010111101001100101
011001010110010101100101011001010110010101100101011100000110101101011011
011001010110010101100101011001010110010101100101011101101000111010001001
011001010110010101100101011001010110010101100101011101101010010010101100
011001010110010101100101011001010110010101100101011010010111110001101110
011001010110010101100101011001010110010101100101011100100111100101100100
011001010110010101100101011001010110010101100101010111100111010101110000
011001010110010101100101011001010110010101100101010101100110100101011101
011001010110010101100101011001010110010101100101011001011000001001110111
011001010110010101100101011001010110010101100101011011011000101010000000
011001010110010101100101011001010110010101100101011000100111101101101101
011001010110010101100101011001010110010101100101010110100110100001010001
011001010110010101100101011001010110010101100101010110100110101101011110
011001010110010101100101011001010110010101100101010110100111100101101100
011001010110010101100101011001010110010101100101011001001000111110001011
011001010110010101100101011001010110010101100101010111101000110010000111
011001010110010101100101011001010110010101100101011000110111101001101011
011001010110010101100101011001010110010101100101010101010110110101011010
011001010110010101100101011001010110010101100101011000100111111101111110
011001010110010101100101011001010110010101100101010011010100111100111101
011001010110010101100101011001010110010101100101100000100111100001100011
011001010110010101100101011001010110010101100101011111101001000110000000
011001010110010101100101011001010110010101100101011100001001000001111110
011001010110010101100101011001010110010101100101011011001000110001111111
011001010110010101100101011001010110010101100101011001011000011101110101
011001010110010101100101011001010110010101100101011000101000001001101111
011001010110010101100101011001010110010101100101010111001000001001110000
011001010110010101100101011001010110010101100101011001111000100101111010
011001010110010101100101011001010110010101100101011001111000110110000000
011001010110010101100101011001010110010101100101011010011000101101111010
011001010110010101100101011001010110010101100101011010001000100101111010
011001010110010101100101011001010110010101100101011001111000111110000001
011001010110010101100101011001010110010101100101010111001000110001111100
011001010110010101100101011001010110010101100101011011001001011110001010
011001010110010101100101011001010110010101100101011010011001111010001110
011001010110010101100101011001010110010101100101011000011001100010001000
011001010110010101100101011001010110010101100101011010011001110010001111
011001010110010101100101011001010110010101100101011010101001111110011110
011001010110010101100101011001010110010101100101011001001000111110001001
011001010110010101100101011001010110010101100101011110111001011110000111
011001010110010101100101011001010110010101100101011011011000100001111101
011001010110010101100101011001010110010101100101011100100111110001111100
011001010110010101100101011001010110010101100101011100111000000001111010
011001010110010101100101011001010110010101100101011110011001000010000001
011001010110010101100101011001010110010101100101011011101001011110000000
011001010110010101100101011001010110010101100101011101111001010010000011
011001010110010101100101011001010110010101100101011110101001000010000001
011001010110010101100101011001010110010101100101011100101001000101111110
011001010110010101100101011001010110010101100101011101111001001110000001
011001010110010101100101011001010110010101100101011110101001001110000001
011001010110010101100101011001010110010101100101011100101000111101111111
011001010110010101100101011001010110010101100101011011001001001010000010
011001010110010101100101011001010110010101100101011011101001001110000001
011001010110010101100101011001010110010101100101011100101001001010000001
011001010110010101100101011001010110010101100101011011011001000001111110
011001010110010101100101011001010110010101100101011011001000111001111110
011001010110010101100101011001010110010101100101010010101010101110010001
011001010110010101100101011001010110010101100101011111001010000010000110
011001010110010101100101011001010110010101100101010000010101110001010100
011001010110010101100101011001010110010101100101010010110111000101110011
011001010110010101100101011001010110010101100101011101000110110101001111
011001010110010101100101011001010110010101100101010110110111001001110001
011001010110010101100101011001010110010101100101010011110101010001000111
011001010110010101100101011001010110010101100101011010000110110101011010
011001010110010101100101011001010110010101100101010001100101010101001111
011001010110010101100101011001010110010101100101011011100111010101100101
011001010110010101100101011001010110010101100101010101110111000101100111
011001010110010101100101011001010110010101100101011010010110110001100000
011001010110010101100101011001010110010101100101101010101011100110101011
011001010110010101100101011001010110010101100101100010011010010110011011
011001010110010101100101011001010110010101100101110010011101000111010001
011001010110010101100101011001010110010101100101011111101000001101111000
011001010110010101100101011001010110010101100101011010110110101001011000
011001010110010101100101011001010110010101100101010100010110101001100100
011001010110010101100101011001010110010101100101010010110110100001011110
011001010110010101100101011001010110010101100101011001000110101001001111
011001010110010101100101011001010110010101100101010111110110100001001000
011001010110010101100101011001010110010101100101011010000111011001100100
011001010110010101100101011001010110010101100101011010111000001001111111
011001010110010101100101011001010110010101100101011010011001000010010010
011001010110010101100101011001010110010101100101011011111000101010000110
011001010110010101100101011001010110010101100101011000100110111001011100
011001010110010101100101011001010110010101100101011000111000011110000000
011001010110010101100101011001010110010101100101011001000111110001110001
011001010110010101100101011001010110010101100101010101100110011001010111
011001010110010101100101011001010110010101100101010110100110001001001001
011001010110010101100101011001010110010101100101010111110110101101010111
011001010110010101100101011001010110010101100101011011111000000101110001
011001010110010101100101011001010110010101100101011010011000001101110110
011001010110010101100101011001010110010101100101011000000111110001101111
011001010110010101100101011001010110010101100101010111001000011001111010
011001010110010101100101011001010110010101100101010110110110100101010011
011001010110010101100101011001010110010101100101010111011000101110000011
011001010110010101100101011001010110010101100101011000110111011101011110
011001010110010101100101011001010110010101100101010101100101110101000010
011001010110010101100101011001010110010101100101010010100100101100110010
011001010110010101100101011001010110010101100101110010101100011010110010
011001010110010101100101011001010110010101100101011001001000001101110010
011001010110010101100101011001010110010101100101010111110111110001101011
011001010110010101100101011001010110010101100101011010001000101001111010
011001010110010101100101011001010110010101100101011001111000110001111110
011001010110010101100101011001010110010101100101011010011001001110000100
011001010110010101100101011001010110010101100101011000011001010010000110
011001010110010101100101011001010110010101100101010110101001001010000111
011001010110010101100101011001010110010101100101011010101001011010001000
011001010110010101100101011001010110010101100101011010011001010010001010
011001010110010101100101011001010110010101100101011010011001011010000111
011001010110010101100101011001010110010101100101011001111001000110000001
011001010110010101100101011001010110010101100101011010001001001001111111
011001010110010101100101011001010110010101100101011010101000110001111011
011001010110010101100101011001010110010101100101011010011001000110000001
011001010110010101100101011001010110010101100101011011011001100110001010
011001010110010101100101011001010110010101100101011010101001101110001011
011001010110010101100101011001010110010101100101011010101001101010001111
011001010110010101100101011001010110010101100101011101101010110010101011
011001010110010101100101011001010110010101100101011110101010010010011111
011001010110010101100101011001010110010101100101011101101001011010010111
011001010110010101100101011001010110010101100101011011111000101110001010
011001010110010101100101011001010110010101100101011010111000111001111011
011001010110010101100101011001010110010101100101011011101001000101111110
011001010110010101100101011001010110010101100101011011101001100010000111
011001010110010101100101011001010110010101100101011101001001011010000111
011001010110010101100101011001010110010101100101011110011001011110000011
011001010110010101100101011001010110010101100101011110011001000001111111
011001010110010101100101011001010110010101100101011101101001000110000000
011001010110010101100101011001010110010101100101011101011001001110000001
011001010110010101100101011001010110010101100101011011111001001110000010
011001010110010101100101011001010110010101100101011100101001000001111111
011001010110010101100101011001010110010101100101011011011000111001111100
011001010110010101100101011001010110010101100101011011111000110001111100
011001010110010101100101011001010110010101100101011100101000110101111101
011001010110010101100101011001010110010101100101011011001100001010101100
011001010110010101100101011001010110010101100101011000111101001010110111
011001010110010101100101011001010110010101100101011010011000011101110100
011001010110010101100101011001010110010101100101010010100110110101100110
011001010110010101100101011001010110010101100101011001011000000110000100
011001010110010101100101011001010110010101100101011111001000001101111010
011001010110010101100101011001010110010101100101001111100101000101000000
011001010110010101100101011001010110010101100101010011110101001001001001
011001010110010101100101011001010110010101100101010011100101110001010011
011001010110010101100101011001010110010101100101001110010101100101010011
011001010110010101100101011001010110010101100101110110101101000111000010
011001010110010101100101011001010110010101100101010111110111000101110101
011001010110010101100101011001010110010101100101101011101101000111010100
011001010110010101100101011001010110010101100101100001001000001001110000
011001010110010101100101011001010110010101100101100011111001001110010000
011001010110010101100101011001010110010101100101010100010101111001010100
011001010110010101100101011001010110010101100101010110100110001101001001
011001010110010101100101011001010110010101100101011001000110111001011001
011001010110010101100101011001010110010101100101010100100101110101001011
011001010110010101100101011001010110010101100101010101010110101001011110
011001010110010101100101011001010110010101100101011000010111100001101011
011001010110010101100101011001010110010101100101011100010111111001110000
011001010110010101100101011001010110010101100101100000001000011001101111
011001010110010101100101011001010110010101100101010111100111111101110101
011001010110010101100101011001010110010101100101010101100110110101011101
011001010110010101100101011001010110010101100101011100110111100101101011
011001010110010101100101011001010110010101100101011000110111101001101000
011001010110010101100101011001010110010101100101011001010111100001101001
011001010110010101100101011001010110010101100101010111111000001001110001
011001010110010101100101011001010110010101100101011010111000011001111010
011001010110010101100101011001010110010101100101011001110111000001100001
011001010110010101100101011001010110010101100101010111011000110010001011
011001010110010101100101011001010110010101100101011000001000111010001001
011001010110010101100101011001010110010101100101010111111000100110000001
011001010110010101100101011001010110010101100101010111101000110010000100
011001010110010101100101011001010110010101100101011010101000011001110011
011001010110010101100101011001010110010101100101010110111000001001110101
011001010110010101100101011001010110010101100101010111000111100001101000
011001010110010101100101011001010110010101100101011100111000001001110010
011001010110010101100101011001010110010101100101101011001001110101110110
011001010110010101100101011001010110010101100101011100111000000001110001
011001010110010101100101011001010110010101100101011010101001000010000100
011001010110010101100101011001010110010101100101011000101000011001110100
011001010110010101100101011001010110010101100101010111010111101101101011
011001010110010101100101011001010110010101100101011001001000011101110110
011001010110010101100101011001010110010101100101011000011000101101111000
011001010110010101100101011001010110010101100101011001011000110001111011
011001010110010101100101011001010110010101100101011001001000101001111001
011001010110010101100101011001010110010101100101011001001000101001111011
011001010110010101100101011001010110010101100101011010001001001010001100
011001010110010101100101011001010110010101100101011100001001011010001100
011001010110010101100101011001010110010101100101011011011001100110001011
011001010110010101100101011001010110010101100101011001111001011110001011
011001010110010101100101011001010110010101100101011010011001101110001100
011001010110010101100101011001010110010101100101011010111001010010001000
011001010110010101100101011001010110010101100101011010001000111110000001
011001010110010101100101011001010110010101100101011001001000111001111111
011001010110010101100101011001010110010101100101011100001001100110001001
011001010110010101100101011001010110010101100101011101101001111110010110
011001010110010101100101011001010110010101100101100000011010111010101110
011001010110010101100101011001010110010101100101011101101001111110100110
011001010110010101100101011001010110010101100101011100111000101101111011
011001010110010101100101011001010110010101100101011011111000110001110101
011001010110010101100101011001010110010101100101011101011001001110000010
011001010110010101100101011001010110010101100101010101011001000110000010
011001010110010101100101011001010110010101100101011011001001100010000111
011001010110010101100101011001010110010101100101011100011001110010001010
011001010110010101100101011001010110010101100101011110111001100010000011
011001010110010101100101011001010110010101100101011100101001010010000011
011001010110010101100101011001010110010101100101011100101001011010000100
011001010110010101100101011001010110010101100101011010111001011110000100
011001010110010101100101011001010110010101100101011101101001011110000110
011001010110010101100101011001010110010101100101011011101000101001111010
011001010110010101100101011001010110010101100101011010001000100001110110
011001010110010101100101011001010110010101100101011100011000100101111010
011001010110010101100101011001010110010101100101010101001100010110100110
011001010110010101100101011001010110010101100101011010111010000101111000
011001010110010101100101011001010110010101100101010010010110101001011110
011001010110010101100101011001010110010101100101010001100110010101100100
011001010110010101100101011001010110010101100101010111110110011101010011
011001010110010101100101011001010110010101100101010011010111000001110011
011001010110010101100101011001010110010101100101010100100110000001010011
011001010110010101100101011001010110010101100101010111110110001101001011
011001010110010101100101011001010110010101100101001100010100101101000010
011001010110010101100101011001010110010101100101100010011001000110000100
011001010110010101100101011001010110010101100101110100111100101111000000
011001010110010101100101011001010110010101100101100010101000110110000111
011001010110010101100101011001010110010101100101010010000110010001011101
011001010110010101100101011001010110010101100101100011111010010110101101
011001010110010101100101011001010110010101100101011110110110111001011110
011001010110010101100101011001010110010101100101010100000110100101100001
011001010110010101100101011001010110010101100101010100100110110001100010
011001010110010101100101011001010110010101100101010111100111010101100111
011001010110010101100101011001010110010101100101011100100111000001011110
011001010110010101100101011001010110010101100101011000000111010001101001
011001010110010101100101011001010110010101100101010101110111010001100111
011001010110010101100101011001010110010101100101010110000111000001100010
011001010110010101100101011001010110010101100101011010000110100101010100
011001010110010101100101011001010110010101100101011100100111010101100000
011001010110010101100101011001010110010101100101010111110111011101100110
011001010110010101100101011001010110010101100101011100100111011101011100
011001010110010101100101011001010110010101100101010111100101111101001000
011001010110010101100101011001010110010101100101011000100111100001101011
011001010110010101100101011001010110010101100101011000001000111010000010
011001010110010101100101011001010110010101100101010110111000011101111011
011001010110010101100101011001010110010101100101011010010111101101110100
011001010110010101100101011001010110010101100101010110100111010001011111
011001010110010101100101011001010110010101100101010100100110111001100100
011001010110010101100101011001010110010101100101010101100111101001101111
011001010110010101100101011001010110010101100101010011110110100101011100
011001010110010101100101011001010110010101100101010010000011100000100101
011001010110010101100101011001010110010101100101010001100100101100110010
011001010110010101100101011001010110010101100101010001110111101101110011
011001010110010101100101011001010110010101100101001110100100110000110000
011001010110010101100101011001010110010101100101010001100100111000110101
011001010110010101100101011001010110010101100101011001111000000101110101
011001010110010101100101011001010110010101100101011010011000110001111110
011001010110010101100101011001010110010101100101011001011000011101110101
011001010110010101100101011001010110010101100101011010001000110101111010
011001010110010101100101011001010110010101100101011010011001000001111110
011001010110010101100101011001010110010101100101011001011001000110000110
011001010110010101100101011001010110010101100101010110111001001010000110
011001010110010101100101011001010110010101100101010111001001001110000111
011001010110010101100101011001010110010101100101011001011001010010001100
011001010110010101100101011001010110010101100101011010101001000010010011
011001010110010101100101011001010110010101100101010110101000000001110010
011001010110010101100101011001010110010101100101010111011000100001110101
011001010110010101100101011001010110010101100101011000011001000110000001
011001010110010101100101011001010110010101100101011011111001100110001100
011001010110010101100101011001010110010101100101011010111001101010001001
011001010110010101100101011001010110010101100101011000011001011110000111
011001010110010101100101011001010110010101100101011010101001100010001011
011001010110010101100101011001010110010101100101011010001001011010000111
011001010110010101100101011001010110010101100101011010101000101110000000
011001010110010101100101011001010110010101100101011001000111011001110111
011001010110010101100101011001010110010101100101011100101001000010000110
011001010110010101100101011001010110010101100101011011101001000110000000
011001010110010101100101011001010110010101100101011101011001010010000010
011001010110010101100101011001010110010101100101011010101001001001111111
011001010110010101100101011001010110010101100101011001111001100010000110
011001010110010101100101011001010110010101100101011010011001100010000100
011001010110010101100101011001010110010101100101011011101001011110000100
011001010110010101100101011001010110010101100101011100101001010010000110
011001010110010101100101011001010110010101100101011100011001001010000001
011001010110010101100101011001010110010101100101011010101001000101111110
011001010110010101100101011001010110010101100101011011011001010010000011
011001010110010101100101011001010110010101100101011011001001010010000011
011001010110010101100101011001010110010101100101011011011001011010000100
011001010110010101100101011001010110010101100101011011011000011001110111
011001010110010101100101011001010110010101100101011010101000011101111000
011001010110010101100101011001010110010101100101001101011010101010000100
011001010110010101100101011001010110010101100101011011011101010010111010
011001010110010101100101011001010110010101100101011111101100111010101111
011001010110010101100101011001010110010101100101010000110110010101100001
011001010110010101100101011001010110010101100101010010100110100101011101
011001010110010101100101011001010110010101100101011000100111011001101100
011001010110010101100101011001010110010101100101010011010110101001100011
011001010110010101100101011001010110010101100101011011100111100001011100
011001010110010101100101011001010110010101100101010010100110000001010100
011001010110010101100101011001010110010101100101010100100110110101101000
011001010110010101100101011001010110010101100101101011001010111010100110
011001010110010101100101011001010110010101100101010001110101101001001101
011001010110010101100101011001010110010101100101100001001000010101101111
011001010110010101100101011001010110010101100101110000001011110010111001
011001010110010101100101011001010110010101100101011010000110110101010110
011001010110010101100101011001010110010101100101010100100110101001011001
011001010110010101100101011001010110010101100101010100010110110101011110
011001010110010101100101011001010110010101100101010101000110011001010100
011001010110010101100101011001010110010101100101011101010111011101011110
011001010110010101100101011001010110010101100101011000110111010101100100
011001010110010101100101011001010110010101100101010011000110010101010101
011001010110010101100101011001010110010101100101010100000110011101011000
011001010110010101100101011001010110010101100101010111110110111101011110
011001010110010101100101011001010110010101100101100110011010001110001001
011001010110010101100101011001010110010101100101011011000111110001101101
011001010110010101100101011001010110010101100101011001000110101001011001
011001010110010101100101011001010110010101100101011011110111001001100010
011001010110010101100101011001010110010101100101010111110111110101101110
011001010110010101100101011001010110010101100101010111011000001001111011
011001010110010101100101011001010110010101100101010110100111011001101000
011001010110010101100101011001010110010101100101011001111000011001111010
011001010110010101100101011001010110010101100101011000011000110010000011
011001010110010101100101011001010110010101100101010111101000101010000001
011001010110010101100101011001010110010101100101010111100111001001100100
011001010110010101100101011001010110010101100101010010100110010101001111
011001010110010101100101011001010110010101100101010000110111100101110100
011001010110010101100101011001010110010101100101001111110101111001010010
011001010110010101100101011001010110010101100101010001001000001110000000
011001010110010101100101011001010110010101100101010101000111001001011110
011001010110010101100101011001010110010101100101010110000101110101000110
011001010110010101100101011001010110010101100101010111101000011101111101
011001010110010101100101011001010110010101100101011000111000101101111010
011001010110010101100101011001010110010101100101011000011000001001110100
011001010110010101100101011001010110010101100101011000101000000101110001
011001010110010101100101011001010110010101100101011001001000001001110011
011001010110010101100101011001010110010101100101011001011000011101111010
011001010110010101100101011001010110010101100101011010111001000010000000
011001010110010101100101011001010110010101100101011000001000111110000001
011001010110010101100101011001010110010101100101011010011001011110001010
011001010110010101100101011001010110010101100101011000101001001110000110
011001010110010101100101011001010110010101100101010111001001001010000100
011001010110010101100101011001010110010101100101010111111001001110000111
011001010110010101100101011001010110010101100101010111001000111110000010
011001010110010101100101011001010110010101100101011010001000010101111000
011001010110010101100101011001010110010101100101011010001001000010000001
011001010110010101100101011001010110010101100101011000111001011010000111
011001010110010101100101011001010110010101100101011010101001011110000110
011001010110010101100101011001010110010101100101011001111001011010000111
011001010110010101100101011001010110010101100101011010011001100010001011
011001010110010101100101011001010110010101100101011010001001001010000111
011001010110010101100101011001010110010101100101011010001001010010000111
011001010110010101100101011001010110010101100101011010011001011010000001
011001010110010101100101011001010110010101100101011110111000111101111111
011001010110010101100101011001010110010101100101011100011001011110000100
011001010110010101100101011001010110010101100101011001011001001110000001
011001010110010101100101011001010110010101100101011001111001010010000010
011001010110010101100101011001010110010101100101011011011001001010000000
011001010110010101100101011001010110010101100101011000101000110101111100
011001010110010101100101011001010110010101100101011011011000111001111110
011001010110010101100101011001010110010101100101011011101000110101111100
011001010110010101100101011001010110010101100101011011111001011010000100
011001010110010101100101011001010110010101100101011011101001010010000011
011001010110010101100101011001010110010101100101011011101001001110000001
011001010110010101100101011001010110010101100101011100001001000001111111
011001010110010101100101011001010110010101100101011010001000100001110111
011001010110010101100101011001010110010101100101011111011101110111000000
011001010110010101100101011001010110010101100101100001011010010010000011
011001010110010101100101011001010110010101100101010100011011110110100100
011001010110010101100101011001010110010101100101010011000111011001110111
011001010110010101100101011001010110010101100101010111010110111001011010
011001010110010101100101011001010110010101100101010010110110000001010111
011001010110010101100101011001010110010101100101010111000110011001011100
011001010110010101100101011001010110010101100101010110000101111101010011
011001010110010101100101011001010110010101100101011101100111111101101110
011001010110010101100101011001010110010101100101011001011000101010001111
011001010110010101100101011001010110010101100101110100001100011010111001
011001010110010101100101011001010110010101100101100010101001010010001110
011001010110010101100101011001010110010101100101101011011100111011001111
011001010110010101100101011001010110010101100101010111110110101001011110
011001010110010101100101011001010110010101100101010100100110101101011111
011001010110010101100101011001010110010101100101011001000111010101101011
011001010110010101100101011001010110010101100101011101000110111101010010
011001010110010101100101011001010110010101100101010111000110110001011000
011001010110010101100101011001010110010101100101010110010110110001011011
011001010110010101100101011001010110010101100101011111001000101001110001
011001010110010101100101011001010110010101100101011010000111100101011111
011001010110010101100101011001010110010101100101010101000111011001101110
011001010110010101100101011001010110010101100101011000000111111001110101
011001010110010101100101011001010110010101100101011100010111101001101101
011001010110010101100101011001010110010101100101011111001000001001101001
011001010110010101100101011001010110010101100101011010000110101001011001
011001010110010101100101011001010110010101100101011100100111101001011011
011001010110010101100101011001010110010101100101011010100111100001100101
011001010110010101100101011001010110010101100101010111100110101001011000
011001010110010101100101011001010110010101100101011000111000001101110101
011001010110010101100101011001010110010101100101011010011001000110001111
011001010110010101100101011001010110010101100101010111101000100010000000
011001010110010101100101011001010110010101100101001111110011100100011111
011001010110010101100101011001010110010101100101010011110111101101110110
011001010110010101100101011001010110010101100101010010000111000101100110
011001010110010101100101011001010110010101100101010000100111110001111010
011001010110010101100101011001010110010101100101010100100111000101011111
011001010110010101100101011001010110010101100101010101001000110010000010
011001010110010101100101011001010110010101100101010100100111000101100010
011001010110010101100101011001010110010101100101011001110110101101010011
011001010110010101100101011001010110010101100101010110001000001001110110
011001010110010101100101011001010110010101100101010110100111111101110110
011001010110010101100101011001010110010101100101011000111000110001111110
011001010110010101100101011001010110010101100101011001111000110001111100
011001010110010101100101011001010110010101100101011001001000110110000000
011001010110010101100101011001010110010101100101011000111000111110000000
011001010110010101100101011001010110010101100101010101101000110001111011
011001010110010101100101011001010110010101100101011001011000111010000000
011001010110010101100101011001010110010101100101011001001000101101111100
011001010110010101100101011001010110010101100101011001001000110001111100
011001010110010101100101011001010110010101100101010111101000111010000001
011001010110010101100101011001010110010101100101010111011001001010000111
011001010110010101100101011001010110010101100101011000011001001110000011
011001010110010101100101011001010110010101100101011000001001011010001000
011001010110010101100101011001010110010101100101011000101000111101111110
011001010110010101100101011001010110010101100101011000111000101001111010
011001010110010101100101011001010110010101100101011001011000101101111100
011001010110010101100101011001010110010101100101011000111001001001111111
011001010110010101100101011001010110010101100101011010011001011110000111
011001010110010101100101011001010110010101100101011011001001011110001001
011001010110010101100101011001010110010101100101011010001001001110000110
011001010110010101100101011001010110010101100101011011001001000110000000
011001010110010101100101011001010110010101100101011010001001000001111111
011001010110010101100101011001010110010101100101011011101001010010000011
011001010110010101100101011001010110010101100101011100111001011010000011
011001010110010101100101011001010110010101100101011100101001010010000011
011001010110010101100101011001010110010101100101011100011001010010000010
011001010110010101100101011001010110010101100101011100011000111101111110
011001010110010101100101011001010110010101100101011100101001000001111100
011001010110010101100101011001010110010101100101011001011000111101111110
011001010110010101100101011001010110010101100101011011001000111101111110
011001010110010101100101011001010110010101100101011011111001001010000001
011001010110010101100101011001010110010101100101011011011001011010000100
011001010110010101100101011001010110010101100101011011011001001001111111
011001010110010101100101011001010110010101100101011100111000111001111101
011001010110010101100101011001010110010101100101100010001100001110101000
011001010110010101100101011001010110010101100101011101001101111011000110
011001010110010101100101011001010110010101100101100000011010111110010111
011001010110010101100101011001010110010101100101010011110110100001100011
011001010110010101100101011001010110010101100101001111010101111101011000
011001010110010101100101011001010110010101100101011000110111000001100000
011001010110010101100101011001010110010101100101001111000101111001010001
011001010110010101100101011001010110010101100101010111110110011001011011
011001010110010101100101011001010110010101100101010101100110101001011101
011001010110010101100101011001010110010101100101110101011110000011010110
011001010110010101100101011001010110010101100101011111000111110001101101
011001010110010101100101011001010110010101100101100001111001101010010111
011001010110010101100101011001010110010101100101100110001010001010011001
011001010110010101100101011001010110010101100101011000110110010101010001
011001010110010101100101011001010110010101100101010100000110100001011101
011001010110010101100101011001010110010101100101010100000110100101011110
011001010110010101100101011001010110010101100101011011110110110101011001
011001010110010101100101011001010110010101100101011000110110111101100001
011001010110010101100101011001010110010101100101011000100111101101101111
