memory_initialization_radix=2;
memory_initialization_vector=
011001010110010101100101011001010110010101100101010010110101111101011100
011001010110010101100101011001010110010101100101100001111010100010011010
011001010110010101100101011001010110010101100101101110011101010111000000
011001010110010101100101011001010110010101100101101011001010101110010011
011001010110010101100101011001010110010101100101011100011000101001111001
011001010110010101100101011001010110010101100101010001110100110101000110
011001010110010101100101011001010110010101100101010001110100011100111111
011001010110010101100101011001010110010101100101010010100100100001000001
011001010110010101100101011001010110010101100101010011100100111001000101
011001010110010101100101011001010110010101100101011101110110111001011001
011001010110010101100101011001010110010101100101011001110110001001001011
011001010110010101100101011001010110010101100101010111000100110101000011
011001010110010101100101011001010110010101100101001000000100100001000001
011001010110010101100101011001010110010101100101010000010101110101011101
011001010110010101100101011001010110010101100101001100110101100101100000
011001010110010101100101011001010110010101100101001100100110000001011010
011001010110010101100101011001010110010101100101001010000100100001000011
011001010110010101100101011001010110010101100101010111100111000001101110
011001010110010101100101011001010110010101100101010011010101100101011011
011001010110010101100101011001010110010101100101010100100110001001010101
011001010110010101100101011001010110010101100101010000110110001001011000
011001010110010101100101011001010110010101100101001110100101111101010110
011001010110010101100101011001010110010101100101011010000110111001011111
011001010110010101100101011001010110010101100101011001110110010101010111
011001010110010101100101011001010110010101100101010011100101100101010001
011001010110010101100101011001010110010101100101010101100101101101011001
011001010110010101100101011001010110010101100101010110110110100001101111
011001010110010101100101011001010110010101100101010101000101010101000010
011001010110010101100101011001010110010101100101011000110111100101110000
011001010110010101100101011001010110010101100101010111111000010110000000
011001010110010101100101011001010110010101100101010000110111111001111000
011001010110010101100101011001010110010101100101010111100110110101011110
011001010110010101100101011001010110010101100101011011011000011101111010
011001010110010101100101011001010110010101100101100000011010111010111001
011001010110010101100101011001010110010101100101011000100111001001100010
011001010110010101100101011001010110010101100101011011001001001010001100
011001010110010101100101011001010110010101100101011000010111010101100111
011001010110010101100101011001010110010101100101011101000111010101100011
011001010110010101100101011001010110010101100101011101010111010001011000
011001010110010101100101011001010110010101100101011011001000000001110000
011001010110010101100101011001010110010101100101011111001001110110010100
011001010110010101100101011001010110010101100101100000111010000110011010
011001010110010101100101011001010110010101100101011011110111101101101001
011001010110010101100101011001010110010101100101011111011001101110010100
011001010110010101100101011001010110010101100101011101011000011101110100
011001010110010101100101011001010110010101100101011101101010000010010100
011001010110010101100101011001010110010101100101011110101001110010010011
011001010110010101100101011001010110010101100101011101111001000101111111
011001010110010101100101011001010110010101100101100000011010011010011100
011001010110010101100101011001010110010101100101100000000111110101110011
011001010110010101100101011001010110010101100101101011011011000110011011
011001010110010101100101011001010110010101100101100000111010100010010111
011001010110010101100101011001010110010101100101011010000111111001110010
011001010110010101100101011001010110010101100101011111001010010110011100
011001010110010101100101011001010110010101100101011111111000101001111111
011001010110010101100101011001010110010101100101100001101001100010001110
011001010110010101100101011001010110010101100101011100111010011010011111
011001010110010101100101011001010110010101100101011011001000110101111110
011001010110010101100101011001010110010101100101011011011000101101111001
011001010110010101100101011001010110010101100101100011111010010110011111
011001010110010101100101011001010110010101100101011111001010010010010110
011001010110010101100101011001010110010101100101100011001001001001110101
011001010110010101100101011001010110010101100101100010101000110001110011
011001010110010101100101011001010110010101100101011011001001011110000100
011001010110010101100101011001010110010101100101100011111001110010001000
011001010110010101100101011001010110010101100101011111111000101101111011
011001010110010101100101011001010110010101100101100001001001000001111110
011001010110010101100101011001010110010101100101011101111000101101111100
011001010110010101100101011001010110010101100101100011101001000001111010
011001010110010101100101011001010110010101100101011010111000000001101011
011001010110010101100101011001010110010101100101100001001000111101111000
011001010110010101100101011001010110010101100101100011001010011010010101
011001010110010101100101011001010110010101100101011011101010000110010010
011001010110010101100101011001010110010101100101011101101010011010010100
011001010110010101100101011001010110010101100101100100011000110101110011
011001010110010101100101011001010110010101100101001111110101011101100001
011001010110010101100101011001010110010101100101011011100110100101011100
011001010110010101100101011001010110010101100101001100000011010100110101
011001010110010101100101011001010110010101100101001100110011110000111010
011001010110010101100101011001010110010101100101001100100011100000101110
011001010110010101100101011001010110010101100101010110110101001101000101
011001010110010101100101011001010110010101100101010010010100000100110110
011001010110010101100101011001010110010101100101001110110011101100101111
011001010110010101100101011001010110010101100101010111010110110001111011
011001010110010101100101011001010110010101100101010101010101011001010100
011001010110010101100101011001010110010101100101011010010111010001101100
011001010110010101100101011001010110010101100101001010110100111001010000
011001010110010101100101011001010110010101100101001110110101011101001101
011001010110010101100101011001010110010101100101010001100101010001010000
011001010110010101100101011001010110010101100101011001000110011101010101
011001010110010101100101011001010110010101100101100011001000100101110100
011001010110010101100101011001010110010101100101011010110110111101011000
011001010110010101100101011001010110010101100101011101000111110101110110
011001010110010101100101011001010110010101100101010011100110101101110001
011001010110010101100101011001010110010101100101010101100111101001111011
011001010110010101100101011001010110010101100101010011100110110101110000
011001010110010101100101011001010110010101100101010011110110010101101111
011001010110010101100101011001010110010101100101001100110100110001001011
011001010110010101100101011001010110010101100101010000110101111001011010
011001010110010101100101011001010110010101100101010111110110111101101001
011001010110010101100101011001010110010101100101011000000110110101100011
011001010110010101100101011001010110010101100101011000010110111001100010
011001010110010101100101011001010110010101100101011011111000000101110110
011001010110010101100101011001010110010101100101011000000111010001100110
011001010110010101100101011001010110010101100101010111000111010001101001
011001010110010101100101011001010110010101100101011000000111101101110010
011001010110010101100101011001010110010101100101011001011000010101111001
011001010110010101100101011001010110010101100101011100011000101101110011
011001010110010101100101011001010110010101100101011010111000011110000110
011001010110010101100101011001010110010101100101011101011000011101110001
011001010110010101100101011001010110010101100101011001011000001001111000
011001010110010101100101011001010110010101100101011100011000100001110101
011001010110010101100101011001010110010101100101011101011001000110000000
011001010110010101100101011001010110010101100101100000111000110001111101
011001010110010101100101011001010110010101100101011000000111011001100101
011001010110010101100101011001010110010101100101011101001000110110000100
011001010110010101100101011001010110010101100101011010110111010101100101
011001010110010101100101011001010110010101100101011000100111100101101100
011001010110010101100101011001010110010101100101011101111001101110010001
011001010110010101100101011001010110010101100101011100001000000001101110
011001010110010101100101011001010110010101100101011101011001110110010000
011001010110010101100101011001010110010101100101011101001001000010000011
011001010110010101100101011001010110010101100101011101011001100110001101
011001010110010101100101011001010110010101100101011010110111010101101011
011001010110010101100101011001010110010101100101011100011001000110000011
011001010110010101100101011001010110010101100101011111101001110110001101
011001010110010101100101011001010110010101100101011110111001000010000110
011001010110010101100101011001010110010101100101100101001010110110100010
011001010110010101100101011001010110010101100101100001111001001010000000
011001010110010101100101011001010110010101100101010111101000001101110101
011001010110010101100101011001010110010101100101011100111001101110010101
011001010110010101100101011001010110010101100101101010011100101111010000
011001010110010101100101011001010110010101100101011101111000111010000011
011001010110010101100101011001010110010101100101100011111010000010010000
011001010110010101100101011001010110010101100101101111101100010110111010
011001010110010101100101011001010110010101100101011011011000100101111010
011001010110010101100101011001010110010101100101100100011010000010001011
011001010110010101100101011001010110010101100101011101001000001001101110
011001010110010101100101011001010110010101100101100011001000111001110111
011001010110010101100101011001010110010101100101100010101010011010010111
011001010110010101100101011001010110010101100101011011111000111101111111
011001010110010101100101011001010110010101100101100000101001001010000010
011001010110010101100101011001010110010101100101100000001000111101111001
011001010110010101100101011001010110010101100101011110101000011001110100
011001010110010101100101011001010110010101100101011011111000010101110110
011001010110010101100101011001010110010101100101100011001000110101110111
011001010110010101100101011001010110010101100101100000111001100010000110
011001010110010101100101011001010110010101100101100011011010010010001111
011001010110010101100101011001010110010101100101100001011001111010001100
011001010110010101100101011001010110010101100101101010111011000010011100
011001010110010101100101011001010110010101100101100101001011011110111010
011001010110010101100101011001010110010101100101010101010110001101100001
011001010110010101100101011001010110010101100101011010110111011101111101
011001010110010101100101011001010110010101100101011111010111101001100011
011001010110010101100101011001010110010101100101010101100100111001000111
011001010110010101100101011001010110010101100101010000110100001100111001
011001010110010101100101011001010110010101100101001100010011010100101100
011001010110010101100101011001010110010101100101010101100110100001110101
011001010110010101100101011001010110010101100101101101001011000110100011
011001010110010101100101011001010110010101100101011011110110011101001011
011001010110010101100101011001010110010101100101001110110100010100110010
011001010110010101100101011001010110010101100101001100110100100001000001
011001010110010101100101011001010110010101100101001101000100101101000011
011001010110010101100101011001010110010101100101010110110111010001110111
011001010110010101100101011001010110010101100101010010010101000101001011
011001010110010101100101011001010110010101100101010111101000001110001101
011001010110010101100101011001010110010101100101011100001000111110001111
011001010110010101100101011001010110010101100101011110010111111001111001
011001010110010101100101011001010110010101100101011101101000000001110001
011001010110010101100101011001010110010101100101011100111000000101111100
011001010110010101100101011001010110010101100101100000111000001101101101
011001010110010101100101011001010110010101100101010000010101101101010110
011001010110010101100101011001010110010101100101001111110110111001110111
011001010110010101100101011001010110010101100101001111000110011101101001
011001010110010101100101011001010110010101100101010101010110011001011011
011001010110010101100101011001010110010101100101010011100101111001010100
011001010110010101100101011001010110010101100101010011010110100101100001
011001010110010101100101011001010110010101100101010111000111011101110011
011001010110010101100101011001010110010101100101011000111000000010000010
011001010110010101100101011001010110010101100101011010001000110010001111
011001010110010101100101011001010110010101100101011001011000011110000100
011001010110010101100101011001010110010101100101011011010111110001111111
011001010110010101100101011001010110010101100101011101001001001110010010
011001010110010101100101011001010110010101100101011011001000110110000010
011001010110010101100101011001010110010101100101011100011001001010010000
011001010110010101100101011001010110010101100101011101111001010010001110
011001010110010101100101011001010110010101100101011000010111011001100110
011001010110010101100101011001010110010101100101011000001000001001110110
011001010110010101100101011001010110010101100101011100000111111101110101
011001010110010101100101011001010110010101100101011011110111111101110011
011001010110010101100101011001010110010101100101011010110111101101101100
011001010110010101100101011001010110010101100101011100001000100101111001
011001010110010101100101011001010110010101100101011010001000001101110100
011001010110010101100101011001010110010101100101011011111000011001110010
011001010110010101100101011001010110010101100101011010100111110001101001
011001010110010101100101011001010110010101100101011100011001001110001001
011001010110010101100101011001010110010101100101011101101000101001111000
011001010110010101100101011001010110010101100101011010110111101101101100
011001010110010101100101011001010110010101100101011010100111100101100111
011001010110010101100101011001010110010101100101011001001010000010010010
011001010110010101100101011001010110010101100101011000111000110001111100
011001010110010101100101011001010110010101100101010110110110111001100001
011001010110010101100101011001010110010101100101011011001010100110011100
011001010110010101100101011001010110010101100101011011111000110101111010
011001010110010101100101011001010110010101100101011010100111101001100010
011001010110010101100101011001010110010101100101100010101010111110101011
011001010110010101100101011001010110010101100101011101111000111110000000
011001010110010101100101011001010110010101100101011110100111101001110101
011001010110010101100101011001010110010101100101101101101100010111001011
011001010110010101100101011001010110010101100101100001011001100010001110
011001010110010101100101011001010110010101100101100000001000101101111001
011001010110010101100101011001010110010101100101100010001010101010100000
011001010110010101100101011001010110010101100101100000011001110010000110
011001010110010101100101011001010110010101100101011111111001100110000011
011001010110010101100101011001010110010101100101100000001001110010001011
011001010110010101100101011001010110010101100101011100001000110001111001
011001010110010101100101011001010110010101100101100001011010001010010011
011001010110010101100101011001010110010101100101011111101010000110010011
011001010110010101100101011001010110010101100101011110101010000110001111
011001010110010101100101011001010110010101100101100010001010011010010110
011001010110010101100101011001010110010101100101100010011010010110010111
011001010110010101100101011001010110010101100101011101001001100010000111
011001010110010101100101011001010110010101100101011111001000110001111001
011001010110010101100101011001010110010101100101011110101000100001110110
011001010110010101100101011001010110010101100101011010001000101001111000
011001010110010101100101011001010110010101100101010011100110110101110100
011001010110010101100101011001010110010101100101011101001001000010010101
011001010110010101100101011001010110010101100101010110000110010101100111
011001010110010101100101011001010110010101100101001111010101011001011101
011001010110010101100101011001010110010101100101010000110101101001010110
011001010110010101100101011001010110010101100101010011110100111001001000
011001010110010101100101011001010110010101100101010110100110010001100111
011001010110010101100101011001010110010101100101110100011101111011010101
011001010110010101100101011001010110010101100101010000010100010100110111
011001010110010101100101011001010110010101100101001110100100011000111100
011001010110010101100101011001010110010101100101010000010101000101001001
011001010110010101100101011001010110010101100101010000100100110101000100
011001010110010101100101011001010110010101100101011010110110011101010101
011001010110010101100101011001010110010101100101100000010111101101100001
011001010110010101100101011001010110010101100101011011000110100101001111
011001010110010101100101011001010110010101100101011011000111110101110101
011001010110010101100101011001010110010101100101011100001000110110011010
011001010110010101100101011001010110010101100101011101001000100110010101
011001010110010101100101011001010110010101100101010001010101110001011100
011001010110010101100101011001010110010101100101001110000101011101010010
011001010110010101100101011001010110010101100101010101000101110001001111
011001010110010101100101011001010110010101100101011000000110001101010000
011001010110010101100101011001010110010101100101010010110101110101010010
011001010110010101100101011001010110010101100101010111110110101001011100
011001010110010101100101011001010110010101100101010100100111000001101110
011001010110010101100101011001010110010101100101010100100111110010000000
011001010110010101100101011001010110010101100101010101010111111101111110
011001010110010101100101011001010110010101100101010110010111111101111110
011001010110010101100101011001010110010101100101010101100111001001101000
011001010110010101100101011001010110010101100101010011100101100101000111
011001010110010101100101011001010110010101100101011000100111010101101000
011001010110010101100101011001010110010101100101011000001000111010011011
011001010110010101100101011001010110010101100101011010001000111110000111
011001010110010101100101011001010110010101100101011000100111101001101011
011001010110010101100101011001010110010101100101011011111001000110001010
011001010110010101100101011001010110010101100101011000010111000101100001
011001010110010101100101011001010110010101100101011011011001011110001101
011001010110010101100101011001010110010101100101011100111001111110010111
011001010110010101100101011001010110010101100101011010100111011101100001
011001010110010101100101011001010110010101100101011100011000100010001100
011001010110010101100101011001010110010101100101011100101000100001110111
011001010110010101100101011001010110010101100101011011011000101001111111
011001010110010101100101011001010110010101100101011000110111100001100010
011001010110010101100101011001010110010101100101011010000111100101100101
011001010110010101100101011001010110010101100101011010001000001101110111
011001010110010101100101011001010110010101100101100011111001010010000000
011001010110010101100101011001010110010101100101011000010111100001101001
011001010110010101100101011001010110010101100101010100000101101101010000
011001010110010101100101011001010110010101100101010111111001110010010010
011001010110010101100101011001010110010101100101010111001001000010000100
011001010110010101100101011001010110010101100101011000111000011101110110
011001010110010101100101011001010110010101100101011010011000111010000010
011001010110010101100101011001010110010101100101011000111000001101110110
011001010110010101100101011001010110010101100101011010010111010001011111
011001010110010101100101011001010110010101100101011010110111100001100100
011001010110010101100101011001010110010101100101011111011000111001111010
011001010110010101100101011001010110010101100101011101110110100101001101
011001010110010101100101011001010110010101100101011011100101101001000011
011001010110010101100101011001010110010101100101011010000101100101000100
011001010110010101100101011001010110010101100101010110010100111000110111
011001010110010101100101011001010110010101100101011100110101100101000100
011001010110010101100101011001010110010101100101011101110110011001010101
011001010110010101100101011001010110010101100101100000010110101001000110
011001010110010101100101011001010110010101100101011110010111010001010110
011001010110010101100101011001010110010101100101011100100111000001010010
011001010110010101100101011001010110010101100101011111000111100101100100
011001010110010101100101011001010110010101100101011111000111101001100001
011001010110010101100101011001010110010101100101011100011000110101111000
011001010110010101100101011001010110010101100101011101001000101101111001
011001010110010101100101011001010110010101100101100001011001000110000000
011001010110010101100101011001010110010101100101011100001000100001110011
011001010110010101100101011001010110010101100101011111111000110101111011
011001010110010101100101011001010110010101100101011111011001101010000100
011001010110010101100101011001010110010101100101011111011001011101111110
011001010110010101100101011001010110010101100101011010101000011101110010
011001010110010101100101011001010110010101100101011000110110011001011110
011001010110010101100101011001010110010101100101001110010101011101100011
011001010110010101100101011001010110010101100101011010111001111010110110
011001010110010101100101011001010110010101100101011100001001000110011010
011001010110010101100101011001010110010101100101010111110110101001100000
011001010110010101100101011001010110010101100101010010010101110101100110
011001010110010101100101011001010110010101100101011011010111101001101111
011001010110010101100101011001010110010101100101010001010101001001000110
011001010110010101100101011001010110010101100101010111010101110001001010
011001010110010101100101011001010110010101100101011000000101101101001010
011001010110010101100101011001010110010101100101010100100110100001100000
011001010110010101100101011001010110010101100101011100001000111010001111
011001010110010101100101011001010110010101100101011101001001101110100011
011001010110010101100101011001010110010101100101011110101010010010101110
011001010110010101100101011001010110010101100101011100111000000001111011
011001010110010101100101011001010110010101100101100100111001010010001101
011001010110010101100101011001010110010101100101011101100111101110010011
011001010110010101100101011001010110010101100101010010110101011101010010
011001010110010101100101011001010110010101100101010001000101100101010000
011001010110010101100101011001010110010101100101010010110101101101010010
011001010110010101100101011001010110010101100101010000110101110001010010
011001010110010101100101011001010110010101100101010001000110011001100101
011001010110010101100101011001010110010101100101011100001001011110011111
011001010110010101100101011001010110010101100101011001010110110101011010
011001010110010101100101011001010110010101100101010101000110010101010111
011001010110010101100101011001010110010101100101010000100101110101001101
011001010110010101100101011001010110010101100101010010010110001101011111
011001010110010101100101011001010110010101100101010011100110110001100011
011001010110010101100101011001010110010101100101010111110111110001110000
011001010110010101100101011001010110010101100101010111000111010001101000
011001010110010101100101011001010110010101100101011001110111011001101000
011001010110010101100101011001010110010101100101010011110111000101100010
011001010110010101100101011001010110010101100101011000000111101101101000
011001010110010101100101011001010110010101100101011100001000011001110110
011001010110010101100101011001010110010101100101010101100111010001100000
011001010110010101100101011001010110010101100101011100111000011001111000
011001010110010101100101011001010110010101100101011000100111001001101001
011001010110010101100101011001010110010101100101010111010110010001001101
011001010110010101100101011001010110010101100101011111100111111001100111
011001010110010101100101011001010110010101100101011101100111101101101000
011001010110010101100101011001010110010101100101011001001000001101110000
011001010110010101100101011001010110010101100101011011101001000010000001
011001010110010101100101011001010110010101100101011110011001100010001010
011001010110010101100101011001010110010101100101011101101001001010000110
011001010110010101100101011001010110010101100101011100101000110001111111
011001010110010101100101011001010110010101100101011001110111011101100010
011001010110010101100101011001010110010101100101010111001000000101110111
011001010110010101100101011001010110010101100101010110110111100101101000
011001010110010101100101011001010110010101100101011100000111000001010110
011001010110010101100101011001010110010101100101011101010110101101000111
011001010110010101100101011001010110010101100101011001110110001101000111
011001010110010101100101011001010110010101100101011011010110111001010001
011001010110010101100101011001010110010101100101010110100110001001000100
011001010110010101100101011001010110010101100101010101000110101001010011
011001010110010101100101011001010110010101100101001111100101010001000001
011001010110010101100101011001010110010101100101011101011001001010000001
011001010110010101100101011001010110010101100101011111101001001110000000
011001010110010101100101011001010110010101100101011011100111000001010011
011001010110010101100101011001010110010101100101011011111000110010001001
011001010110010101100101011001010110010101100101011010100111011101100110
011001010110010101100101011001010110010101100101011111110111000001011111
011001010110010101100101011001010110010101100101100010101000100101111011
011001010110010101100101011001010110010101100101011110110111110001011101
011001010110010101100101011001010110010101100101011100111000001101101110
011001010110010101100101011001010110010101100101011111011000000001100101
011001010110010101100101011001010110010101100101100000101001011010000000
011001010110010101100101011001010110010101100101011010100111111101101100
011001010110010101100101011001010110010101100101100001011001001101111011
011001010110010101100101011001010110010101100101011111000111011101011101
011001010110010101100101011001010110010101100101100010101000000101101011
011001010110010101100101011001010110010101100101100010001000001101100110
011001010110010101100101011001010110010101100101100100101000110001101111
011001010110010101100101011001010110010101100101011111101000100101110000
011001010110010101100101011001010110010101100101100010001001011101111110
011001010110010101100101011001010110010101100101011111011001110110001010
011001010110010101100101011001010110010101100101010001100101000101010000
011001010110010101100101011001010110010101100101001111010100100001000101
011001010110010101100101011001010110010101100101100011011000000101100110
011001010110010101100101011001010110010101100101010010100110010001100110
011001010110010101100101011001010110010101100101011010111001110110110000
011001010110010101100101011001010110010101100101011010001000001010001010
011001010110010101100101011001010110010101100101011000000101111001001101
011001010110010101100101011001010110010101100101010100100101111001011011
011001010110010101100101011001010110010101100101010000010101010001001010
011001010110010101100101011001010110010101100101001111110100111101001010
011001010110010101100101011001010110010101100101010001110110000001011001
011001010110010101100101011001010110010101100101100000001000011101111010
011001010110010101100101011001010110010101100101100110011000111001101111
011001010110010101100101011001010110010101100101011110101001010010010110
011001010110010101100101011001010110010101100101011000101000011010010000
011001010110010101100101011001010110010101100101110110011101010111001101
011001010110010101100101011001010110010101100101011000000111011010011100
011001010110010101100101011001010110010101100101010010110110001101011111
011001010110010101100101011001010110010101100101011110011000000001110010
011001010110010101100101011001010110010101100101100000111000001001110011
011001010110010101100101011001010110010101100101010101110110011101100000
011001010110010101100101011001010110010101100101100010101011000110110110
011001010110010101100101011001010110010101100101001101000101100101001111
011001010110010101100101011001010110010101100101010001000110100001100010
011001010110010101100101011001010110010101100101010010000110001101010111
011001010110010101100101011001010110010101100101010000110101010001000101
011001010110010101100101011001010110010101100101010010000101110001010001
011001010110010101100101011001010110010101100101010011010101011001001001
011001010110010101100101011001010110010101100101010011110101111101010000
011001010110010101100101011001010110010101100101011000100111111001110011
011001010110010101100101011001010110010101100101011001111010001010110000
011001010110010101100101011001010110010101100101011001001000101110000011
011001010110010101100101011001010110010101100101011000101000111010000011
011001010110010101100101011001010110010101100101010110010111011001100110
011001010110010101100101011001010110010101100101011001111000110110000011
011001010110010101100101011001010110010101100101010111100110111001010011
011001010110010101100101011001010110010101100101011010000111111101110000
011001010110010101100101011001010110010101100101100000001001001010000000
011001010110010101100101011001010110010101100101100101001001001101111111
011001010110010101100101011001010110010101100101100000011010100010100101
011001010110010101100101011001010110010101100101100001111010001110100101
011001010110010101100101011001010110010101100101011001000111010101011011
011001010110010101100101011001010110010101100101011110111000000001101110
011001010110010101100101011001010110010101100101011010101000100101111010
011001010110010101100101011001010110010101100101011000100111111001110001
011001010110010101100101011001010110010101100101010110110110111101011100
011001010110010101100101011001010110010101100101010111000111001001011110
011001010110010101100101011001010110010101100101010111000111101001101101
011001010110010101100101011001010110010101100101010110100111001001100101
011001010110010101100101011001010110010101100101011000001000100001111011
011001010110010101100101011001010110010101100101011010011001000010000110
011001010110010101100101011001010110010101100101011011011000011101110100
011001010110010101100101011001010110010101100101011101101000100001111001
011001010110010101100101011001010110010101100101011001110111111001101100
011001010110010101100101011001010110010101100101011000010111001001011011
011001010110010101100101011001010110010101100101011011101000011001101111
011001010110010101100101011001010110010101100101011101101001001110000001
011001010110010101100101011001010110010101100101011010100111110101101101
011001010110010101100101011001010110010101100101011110011000110101111000
011001010110010101100101011001010110010101100101010101010111000001100011
011001010110010101100101011001010110010101100101011111111001000110000001
011001010110010101100101011001010110010101100101011000010111010101110010
011001010110010101100101011001010110010101100101100000111000111101111000
011001010110010101100101011001010110010101100101011111111001011110000011
011001010110010101100101011001010110010101100101011101111000111001111110
011001010110010101100101011001010110010101100101011101111001100010000011
011001010110010101100101011001010110010101100101100001011001100010000100
011001010110010101100101011001010110010101100101011011101000101101111011
011001010110010101100101011001010110010101100101011000111000101101111001
011001010110010101100101011001010110010101100101100001111001100010000111
011001010110010101100101011001010110010101100101011111001001100010000100
011001010110010101100101011001010110010101100101011101010111010101011100
011001010110010101100101011001010110010101100101100011000111110001011111
011001010110010101100101011001010110010101100101011101000111100101100001
011001010110010101100101011001010110010101100101100001101000011001101001
011001010110010101100101011001010110010101100101011011000110110101100001
011001010110010101100101011001010110010101100101010010000100110001000110
011001010110010101100101011001010110010101100101010011000110001001101101
011001010110010101100101011001010110010101100101010010100101010001010001
011001010110010101100101011001010110010101100101011000110110010101010011
011001010110010101100101011001010110010101100101011001010111000101110010
011001010110010101100101011001010110010101100101010011010110110001101100
011001010110010101100101011001010110010101100101010010000110001101100100
011001010110010101100101011001010110010101100101011100000110100001010101
011001010110010101100101011001010110010101100101010101110101101001001001
011001010110010101100101011001010110010101100101011010111000100110001000
011001010110010101100101011001010110010101100101011001011000100110001011
011001010110010101100101011001010110010101100101010111011000000110001000
011001010110010101100101011001010110010101100101100101101001100010010011
011001010110010101100101011001010110010101100101101101001100000110111000
011001010110010101100101011001010110010101100101110010111100100111001100
011001010110010101100101011001010110010101100101011010011010010111001000
011001010110010101100101011001010110010101100101010001110101110101010010
011001010110010101100101011001010110010101100101010001100101010101010001
011001010110010101100101011001010110010101100101011000000110101101100110
011001010110010101100101011001010110010101100101101011011100001010110111
011001010110010101100101011001010110010101100101100101001001000001111111
011001010110010101100101011001010110010101100101010101110110100001011100
011001010110010101100101011001010110010101100101010001000110111101100101
011001010110010101100101011001010110010101100101010011100110001101011000
011001010110010101100101011001010110010101100101010011100111100001110110
011001010110010101100101011001010110010101100101010111101000010110000110
011001010110010101100101011001010110010101100101011000001000001101111101
011001010110010101100101011001010110010101100101010111011000001101111001
011001010110010101100101011001010110010101100101011010111000110110010000
011001010110010101100101011001010110010101100101011001111000100010001010
011001010110010101100101011001010110010101100101010111110111010101100111
011001010110010101100101011001010110010101100101011000110110001001001010
011001010110010101100101011001010110010101100101011010101000111110000100
011001010110010101100101011001010110010101100101011000100111111001110011
011001010110010101100101011001010110010101100101011001111001001110001000
011001010110010101100101011001010110010101100101011010100111111001101011
011001010110010101100101011001010110010101100101011100000111011001100111
011001010110010101100101011001010110010101100101011011101000000001110001
011001010110010101100101011001010110010101100101011100111000010101110001
011001010110010101100101011001010110010101100101100001111010000110100100
011001010110010101100101011001010110010101100101100111001001101110000100
011001010110010101100101011001010110010101100101011011000111001001100001
011001010110010101100101011001010110010101100101010110000110011001011001
011001010110010101100101011001010110010101100101010110010110111001100000
011001010110010101100101011001010110010101100101010111010111111101110000
011001010110010101100101011001010110010101100101010101110110111101100000
011001010110010101100101011001010110010101100101011000011000011010000000
011001010110010101100101011001010110010101100101011000111000100101111110
011001010110010101100101011001010110010101100101010111011000110001111110
011001010110010101100101011001010110010101100101011010010111111001110110
011001010110010101100101011001010110010101100101011011011000111110000010
011001010110010101100101011001010110010101100101011011101001001010000010
011001010110010101100101011001010110010101100101011100111001001110000000
011001010110010101100101011001010110010101100101011101011001001110000110
011001010110010101100101011001010110010101100101011101001001100010001010
011001010110010101100101011001010110010101100101011101011001111010010000
011001010110010101100101011001010110010101100101011101101001111110010010
011001010110010101100101011001010110010101100101011011111001011110001000
011001010110010101100101011001010110010101100101010111011000111110000000
011001010110010101100101011001010110010101100101011110111001100110001001
011001010110010101100101011001010110010101100101100011001000110010000011
011001010110010101100101011001010110010101100101100010011001111010001010
011001010110010101100101011001010110010101100101100000011001011110000001
011001010110010101100101011001010110010101100101011110011000110001110111
011001010110010101100101011001010110010101100101011111011001000101111100
011001010110010101100101011001010110010101100101011100001000011101110010
011001010110010101100101011001010110010101100101011110011000100101110110
011001010110010101100101011001010110010101100101011001011000001101110010
011001010110010101100101011001010110010101100101011111101000111001111110
011001010110010101100101011001010110010101100101011111101001011010000011
011001010110010101100101011001010110010101100101011111011001011010000110
011001010110010101100101011001010110010101100101100010011001110110001011
011001010110010101100101011001010110010101100101100000101001001010000110
011001010110010101100101011001010110010101100101011110010111111101101011
011001010110010101100101011001010110010101100101010101100101111101100000
011001010110010101100101011001010110010101100101010010010110011101110111
011001010110010101100101011001010110010101100101011010000111100001101001
011001010110010101100101011001010110010101100101010110000110101001100010
011001010110010101100101011001010110010101100101011011101000011010001101
011001010110010101100101011001010110010101100101010000010100100101001000
011001010110010101100101011001010110010101100101010111010101110101001011
011001010110010101100101011001010110010101100101010001000101101101010110
011001010110010101100101011001010110010101100101010010010101011101001111
011001010110010101100101011001010110010101100101010001010101001001000110
011001010110010101100101011001010110010101100101011100110111001001100001
011001010110010101100101011001010110010101100101100000011000000101101101
011001010110010101100101011001010110010101100101011110101001100010011000
011001010110010101100101011001010110010101100101011001011000101110010101
011001010110010101100101011001010110010101100101110010011101001011010000
011001010110010101100101011001010110010101100101100000011001001010001110
011001010110010101100101011001010110010101100101100111111001111110011111
011001010110010101100101011001010110010101100101101000111010010110010010
011001010110010101100101011001010110010101100101100000011001000010000110
011001010110010101100101011001010110010101100101111000011110101011100001
011001010110010101100101011001010110010101100101010010100110111001101001
011001010110010101100101011001010110010101100101010101000110010101011100
011001010110010101100101011001010110010101100101011000100110100101010010
011001010110010101100101011001010110010101100101011000000110010101010011
011001010110010101100101011001010110010101100101010110110111100101101111
011001010110010101100101011001010110010101100101010110000110111001101011
011001010110010101100101011001010110010101100101010100100111000101101100
011001010110010101100101011001010110010101100101010100000110011001010111
011001010110010101100101011001010110010101100101010111000111100101101110
011001010110010101100101011001010110010101100101010101010110110101100010
011001010110010101100101011001010110010101100101011101011001011010100000
011001010110010101100101011001010110010101100101011001111000101110000110
011001010110010101100101011001010110010101100101011011111000110001111000
011001010110010101100101011001010110010101100101010101100110100101011100
011001010110010101100101011001010110010101100101010111110111100101100111
011001010110010101100101011001010110010101100101011010001000111010000001
011001010110010101100101011001010110010101100101011001110111100101100111
011001010110010101100101011001010110010101100101011010111001110110010100
011001010110010101100101011001010110010101100101010111000110110001010011
011001010110010101100101011001010110010101100101011011011000001101110010
011001010110010101100101011001010110010101100101011001000111011001100110
011001010110010101100101011001010110010101100101010101000101010000111101
011001010110010101100101011001010110010101100101010111000110011101010011
011001010110010101100101011001010110010101100101011001110111111101101101
011001010110010101100101011001010110010101100101011010101000010101110110
011001010110010101100101011001010110010101100101011010001000011001110000
011001010110010101100101011001010110010101100101011011001001011010001001
011001010110010101100101011001010110010101100101011010101001101010010100
011001010110010101100101011001010110010101100101011011011001001010001000
011001010110010101100101011001010110010101100101011011111000101001111100
011001010110010101100101011001010110010101100101011100101000010101110001
011001010110010101100101011001010110010101100101011011100111110001101011
011001010110010101100101011001010110010101100101010111001000000001101110
011001010110010101100101011001010110010101100101011100011001110010001110
011001010110010101100101011001010110010101100101011110011001110010001100
011001010110010101100101011001010110010101100101011100101001001101111110
011001010110010101100101011001010110010101100101011100111001001101111100
011001010110010101100101011001010110010101100101011010101000101001111011
011001010110010101100101011001010110010101100101011101011000110101111100
011001010110010101100101011001010110010101100101011011101001000110000001
011001010110010101100101011001010110010101100101011100101001000101111011
011001010110010101100101011001010110010101100101100001111001011010011001
011001010110010101100101011001010110010101100101011111011001011110000110
011001010110010101100101011001010110010101100101011110101001000101111101
011001010110010101100101011001010110010101100101010111111000101101110110
011001010110010101100101011001010110010101100101100000001001011010000010
011001010110010101100101011001010110010101100101011100001000111101111100
011001010110010101100101011001010110010101100101011101111001001001111110
011001010110010101100101011001010110010101100101011101101001010001111110
011001010110010101100101011001010110010101100101011110101001011010000100
011001010110010101100101011001010110010101100101011011011001000101111110
011001010110010101100101011001010110010101100101100000101001010001111111
011001010110010101100101011001010110010101100101011101011000011101110011
011001010110010101100101011001010110010101100101011111111000110101110101
011001010110010101100101011001010110010101100101011101001000001001110010
011001010110010101100101011001010110010101100101011010101001001110100010
011001010110010101100101011001010110010101100101100001111000000101110100
011001010110010101100101011001010110010101100101010001000101010101011000
011001010110010101100101011001010110010101100101100011011001000010011101
011001010110010101100101011001010110010101100101011110110111101001110000
011001010110010101100101011001010110010101100101010100100101000101000110
011001010110010101100101011001010110010101100101001111110101001001001001
011001010110010101100101011001010110010101100101010010000101100101010001
011001010110010101100101011001010110010101100101011100100111011101011110
011001010110010101100101011001010110010101100101010011100101100001000011
011001010110010101100101011001010110010101100101010111010110011101011100
011001010110010101100101011001010110010101100101011110101001001010010000
011001010110010101100101011001010110010101100101011110111000101110000001
011001010110010101100101011001010110010101100101111010001101111011010001
011001010110010101100101011001010110010101100101100100101000111010000111
011001010110010101100101011001010110010101100101100011001011000010110110
011001010110010101100101011001010110010101100101110000011101010111001010
011001010110010101100101011001010110010101100101100001110111110101100101
011001010110010101100101011001010110010101100101101110101011110010100110
011001010110010101100101011001010110010101100101011001000110110001011101
011001010110010101100101011001010110010101100101011000010110101101010010
011001010110010101100101011001010110010101100101010101110110101101011011
011001010110010101100101011001010110010101100101010111110111101001110111
011001010110010101100101011001010110010101100101010110010110001101010011
011001010110010101100101011001010110010101100101011000110111000101011000
011001010110010101100101011001010110010101100101011000110111100001110001
011001010110010101100101011001010110010101100101011000111000011110000001
011001010110010101100101011001010110010101100101011001001000100010000001
011001010110010101100101011001010110010101100101010111111000011101111111
011001010110010101100101011001010110010101100101011001001000100110000010
011001010110010101100101011001010110010101100101011010101000000110010010
011001010110010101100101011001010110010101100101011010111001001110011001
011001010110010101100101011001010110010101100101010101100110011001011001
011001010110010101100101011001010110010101100101011000111000110110000111
011001010110010101100101011001010110010101100101011000111000101001111111
011001010110010101100101011001010110010101100101010110010111010001100101
011001010110010101100101011001010110010101100101011010000111110001101000
011001010110010101100101011001010110010101100101011000000111011001100001
011001010110010101100101011001010110010101100101011001111000101101111101
011001010110010101100101011001010110010101100101011111111000011101110110
011001010110010101100101011001010110010101100101010110110101101001001001
011001010110010101100101011001010110010101100101011100101000111010011010
011001010110010101100101011001010110010101100101010101011000000001110000
011001010110010101100101011001010110010101100101010111011000000001101100
011001010110010101100101011001010110010101100101010111011000101010000000
011001010110010101100101011001010110010101100101011000001001000110001100
011001010110010101100101011001010110010101100101011001001001011010010011
011001010110010101100101011001010110010101100101011000111001111010011001
011001010110010101100101011001010110010101100101011000111010000010010111
011001010110010101100101011001010110010101100101010101111001001110001010
011001010110010101100101011001010110010101100101011010011001011110001011
011001010110010101100101011001010110010101100101011001011001001010001001
011001010110010101100101011001010110010101100101011100111001110110010010
011001010110010101100101011001010110010101100101011000111001110110001100
011001010110010101100101011001010110010101100101011011101001111010001100
011001010110010101100101011001010110010101100101011011001001101110001111
011001010110010101100101011001010110010101100101010101111001010010000110
011001010110010101100101011001010110010101100101011101011001111010001100
011001010110010101100101011001010110010101100101011100001001100010000110
011001010110010101100101011001010110010101100101011100111001100110000010
011001010110010101100101011001010110010101100101011111111001001001111101
011001010110010101100101011001010110010101100101100001011001001010001001
011001010110010101100101011001010110010101100101100000111001010001111011
011001010110010101100101011001010110010101100101100000001001001110000001
011001010110010101100101011001010110010101100101011110101001011110000010
011001010110010101100101011001010110010101100101011011111001011010000100
011001010110010101100101011001010110010101100101011101111001010001111111
011001010110010101100101011001010110010101100101100000011001101010001001
011001010110010101100101011001010110010101100101011100001001100010000100
011001010110010101100101011001010110010101100101011111001001110110001001
011001010110010101100101011001010110010101100101011100111001011010000100
011001010110010101100101011001010110010101100101100000001001001010000000
011001010110010101100101011001010110010101100101011100101000101101110111
011001010110010101100101011001010110010101100101011111111000110001110110
011001010110010101100101011001010110010101100101011011011000010101110011
011001010110010101100101011001010110010101100101010011000101100001011011
011001010110010101100101011001010110010101100101011001001000110110011000
011001010110010101100101011001010110010101100101011000110111000101110011
011001010110010101100101011001010110010101100101011111000111010001101101
011001010110010101100101011001010110010101100101010100100110111001110100
011001010110010101100101011001010110010101100101010011110101100101010000
011001010110010101100101011001010110010101100101011101000111000101101000
011001010110010101100101011001010110010101100101010110100111011101111000
011001010110010101100101011001010110010101100101011000000110100001100000
011001010110010101100101011001010110010101100101100011111001011110001101
011001010110010101100101011001010110010101100101011011000110110001100011
011001010110010101100101011001010110010101100101100010001010111010110000
011001010110010101100101011001010110010101100101011010101010000110110000
011001010110010101100101011001010110010101100101100111001011001010111110
011001010110010101100101011001010110010101100101100111111011001110100011
011001010110010101100101011001010110010101100101101101101011011010101101
011001010110010101100101011001010110010101100101011011010111010101110000
011001010110010101100101011001010110010101100101110100111101110011010010
011001010110010101100101011001010110010101100101010101110110100001011110
011001010110010101100101011001010110010101100101011000000110111101100110
011001010110010101100101011001010110010101100101011100100111000001100000
011001010110010101100101011001010110010101100101011001000110110001011100
011001010110010101100101011001010110010101100101011000000111000001101110
011001010110010101100101011001010110010101100101010110110111000101101011
011001010110010101100101011001010110010101100101011000010111000001100000
011001010110010101100101011001010110010101100101011000010111000001011111
011001010110010101100101011001010110010101100101010110110110111101011110
011001010110010101100101011001010110010101100101010110010110110001011101
011001010110010101100101011001010110010101100101010101100111001001100010
011001010110010101100101011001010110010101100101010101000111010001100000
011001010110010101100101011001010110010101100101010111100110110101100101
011001010110010101100101011001010110010101100101011010000111110101110010
011001010110010101100101011001010110010101100101011100101000011101110100
011001010110010101100101011001010110010101100101011110101001010010000100
011001010110010101100101011001010110010101100101010110000110101101011100
011001010110010101100101011001010110010101100101011010001001000010000111
011001010110010101100101011001010110010101100101010111100110111101011011
011001010110010101100101011001010110010101100101011001011000101101111110
011001010110010101100101011001010110010101100101011110010111010001010110
011001010110010101100101011001010110010101100101011101000111100101100000
011001010110010101100101011001010110010101100101010011110110010101010101
011001010110010101100101011001010110010101100101010110110111011001100000
011001010110010101100101011001010110010101100101011000111000000101110000
011001010110010101100101011001010110010101100101010110000111101101101111
011001010110010101100101011001010110010101100101010111111000001001110010
011001010110010101100101011001010110010101100101011000101000011101110010
011001010110010101100101011001010110010101100101010110111000010101110110
011001010110010101100101011001010110010101100101011001111000110110000001
011001010110010101100101011001010110010101100101011010011000110110000000
011001010110010101100101011001010110010101100101011100101000111010000000
011001010110010101100101011001010110010101100101011000101000101101111101
011001010110010101100101011001010110010101100101011101011001000001111101
011001010110010101100101011001010110010101100101011011001000110101111100
011001010110010101100101011001010110010101100101011010011000100101111011
011001010110010101100101011001010110010101100101011010101001001010000010
011001010110010101100101011001010110010101100101011010111001101010001011
011001010110010101100101011001010110010101100101011011111001110110001111
011001010110010101100101011001010110010101100101011010011001101110001100
011001010110010101100101011001010110010101100101011011011001111010001100
011001010110010101100101011001010110010101100101011011001001110010001101
011001010110010101100101011001010110010101100101011111000111111101110110
011001010110010101100101011001010110010101100101100000101001011010001101
011001010110010101100101011001010110010101100101011110011001001010000000
011001010110010101100101011001010110010101100101100001001001011110000000
011001010110010101100101011001010110010101100101011100101001011010000100
011001010110010101100101011001010110010101100101011001011000110001111011
011001010110010101100101011001010110010101100101011111101001000001111001
011001010110010101100101011001010110010101100101011101101000101001110110
011001010110010101100101011001010110010101100101011101111001010010000011
011001010110010101100101011001010110010101100101011010101001011010000010
011001010110010101100101011001010110010101100101011110011001110010001011
011001010110010101100101011001010110010101100101011110011001011110000110
011001010110010101100101011001010110010101100101011101011001001010000000
011001010110010101100101011001010110010101100101011101101000110101111101
011001010110010101100101011001010110010101100101011011001000101101111010
011001010110010101100101011001010110010101100101011010111010000111001101
011001010110010101100101011001010110010101100101101110011011000110011010
011001010110010101100101011001010110010101100101010101000101001001000010
011001010110010101100101011001010110010101100101010010010101001101001000
011001010110010101100101011001010110010101100101010110010101010101000101
011001010110010101100101011001010110010101100101010101000101011101001011
011001010110010101100101011001010110010101100101010010010101111001100011
011001010110010101100101011001010110010101100101010001010110011001100111
011001010110010101100101011001010110010101100101100001111000011101100110
011001010110010101100101011001010110010101100101010111100110111001110111
011001010110010101100101011001010110010101100101010101000101011101000110
011001010110010101100101011001010110010101100101011111101000001001111110
011001010110010101100101011001010110010101100101011001011000111010101000
011001010110010101100101011001010110010101100101101011001010110010100000
011001010110010101100101011001010110010101100101010011010111100001111100
011001010110010101100101011001010110010101100101111011101110000111010010
011001010110010101100101011001010110010101100101110011011100011010110111
011001010110010101100101011001010110010101100101010011110110100001100010
011001010110010101100101011001010110010101100101001111100110100101011001
011001010110010101100101011001010110010101100101010011010110011001011001
011001010110010101100101011001010110010101100101010110010110001101010011
011001010110010101100101011001010110010101100101011010100111010101011110
011001010110010101100101011001010110010101100101011011100111000101011011
011001010110010101100101011001010110010101100101010101000111101001110000
011001010110010101100101011001010110010101100101010011010110100101011100
011001010110010101100101011001010110010101100101011000100101110101010011
011001010110010101100101011001010110010101100101011000000110011101011100
011001010110010101100101011001010110010101100101010110110110101101100010
011001010110010101100101011001010110010101100101011000110111110101111000
011001010110010101100101011001010110010101100101011010111001000110010001
011001010110010101100101011001010110010101100101011010001000110010001101
011001010110010101100101011001010110010101100101100011011100000111001111
011001010110010101100101011001010110010101100101011000100111011101100111
011001010110010101100101011001010110010101100101010111101000001101110111
011001010110010101100101011001010110010101100101011100101001010010001010
011001010110010101100101011001010110010101100101011111111001101110001111
011001010110010101100101011001010110010101100101010111110110011101010000
011001010110010101100101011001010110010101100101010111110111100101110110
011001010110010101100101011001010110010101100101011101000111011101011000
011001010110010101100101011001010110010101100101011111101000011001110010
011001010110010101100101011001010110010101100101010110000111110001101101
011001010110010101100101011001010110010101100101010101010111110001110000
011001010110010101100101011001010110010101100101010101110111110101101111
011001010110010101100101011001010110010101100101010110101000011001111000
011001010110010101100101011001010110010101100101010110111001000010000110
011001010110010101100101011001010110010101100101011000111001011110001101
011001010110010101100101011001010110010101100101010111001001011010001010
011001010110010101100101011001010110010101100101011000011001100010001100
011001010110010101100101011001010110010101100101011000001001100110001100
011001010110010101100101011001010110010101100101011000101000110110000110
011001010110010101100101011001010110010101100101011010011001000010000000
011001010110010101100101011001010110010101100101011011101001100110001100
011001010110010101100101011001010110010101100101011001011001100110001100
011001010110010101100101011001010110010101100101011110101001111010001110
011001010110010101100101011001010110010101100101011100011001100110001001
011001010110010101100101011001010110010101100101011111001001100010000100
011001010110010101100101011001010110010101100101011100011000111101111100
011001010110010101100101011001010110010101100101011001111000111001111111
011001010110010101100101011001010110010101100101011001111001011010000111
011001010110010101100101011001010110010101100101010111011001001110000011
011001010110010101100101011001010110010101100101011110100111110101111101
011001010110010101100101011001010110010101100101011101111001011010001001
011001010110010101100101011001010110010101100101100001011001011110000111
011001010110010101100101011001010110010101100101011101101000111101111100
011001010110010101100101011001010110010101100101011101011001001110000000
011001010110010101100101011001010110010101100101011111001000110101111100
011001010110010101100101011001010110010101100101011111001000111101111100
011001010110010101100101011001010110010101100101011011101000101001111011
011001010110010101100101011001010110010101100101011101111000111001111010
011001010110010101100101011001010110010101100101011101011001011110000110
011001010110010101100101011001010110010101100101011011101001100010000110
011001010110010101100101011001010110010101100101011111011001011110001000
011001010110010101100101011001010110010101100101011010011000111001111011
011001010110010101100101011001010110010101100101011100011001000110000001
011001010110010101100101011001010110010101100101011011001000101101111010
011001010110010101100101011001010110010101100101011011011000101001111000
011001010110010101100101011001010110010101100101010101010110010001011111
011001010110010101100101011001010110010101100101010100000100110001000100
011001010110010101100101011001010110010101100101101000011001000001111010
011001010110010101100101011001010110010101100101010011010101001101000001
011001010110010101100101011001010110010101100101010001110100111001000000
011001010110010101100101011001010110010101100101011001000110001001001000
011001010110010101100101011001010110010101100101010000010101001101000110
011001010110010101100101011001010110010101100101010000010101000101001001
011001010110010101100101011001010110010101100101100000110111110001110000
011001010110010101100101011001010110010101100101011111111001101010011101
011001010110010101100101011001010110010101100101011000011000010110001001
011001010110010101100101011001010110010101100101110011001101011011010101
011001010110010101100101011001010110010101100101101110111010111110011010
011001010110010101100101011001010110010101100101100011011010010110101111
011001010110010101100101011001010110010101100101101101011011010010110010
011001010110010101100101011001010110010101100101010110010110000001001100
011001010110010101100101011001010110010101100101011011010111011001011101
011001010110010101100101011001010110010101100101011011010110110101001100
011001010110010101100101011001010110010101100101010110000110001001001111
011001010110010101100101011001010110010101100101010111110110110101100001
011001010110010101100101011001010110010101100101011010011000010110000011
011001010110010101100101011001010110010101100101011001000111101101100110
011001010110010101100101011001010110010101100101010111110110111001011010
011001010110010101100101011001010110010101100101011001010111011001101011
011001010110010101100101011001010110010101100101010110000110101101011011
011001010110010101100101011001010110010101100101011000000111001001100101
011001010110010101100101011001010110010101100101011000010111011001100010
011001010110010101100101011001010110010101100101010111100111000001100000
011001010110010101100101011001010110010101100101011010000111100101100111
011001010110010101100101011001010110010101100101010101010110001001001000
011001010110010101100101011001010110010101100101010101110110000001001010
011001010110010101100101011001010110010101100101011010101000111101111111
011001010110010101100101011001010110010101100101010111101000111110000000
011001010110010101100101011001010110010101100101011001111000111110000011
011001010110010101100101011001010110010101100101011000100111111101110010
011001010110010101100101011001010110010101100101011010101000010101110011
011001010110010101100101011001010110010101100101010100000110010001010001
011001010110010101100101011001010110010101100101011110100111000101011011
011001010110010101100101011001010110010101100101100010010111111001100011
011001010110010101100101011001010110010101100101011011101000001101110001
011001010110010101100101011001010110010101100101011001001000010101110001
011001010110010101100101011001010110010101100101011000001000000001101111
011001010110010101100101011001010110010101100101011001001000000001101110
011001010110010101100101011001010110010101100101010110000111110001101100
011001010110010101100101011001010110010101100101010111111000010101110101
011001010110010101100101011001010110010101100101011001011000101101111100
011001010110010101100101011001010110010101100101011000111000101001111110
011001010110010101100101011001010110010101100101011000101000111001111111
011001010110010101100101011001010110010101100101011001111000101110000111
011001010110010101100101011001010110010101100101011000101001001110001010
011001010110010101100101011001010110010101100101011010011001011010000110
011001010110010101100101011001010110010101100101011001111001011110001011
011001010110010101100101011001010110010101100101010111101001101010001010
011001010110010101100101011001010110010101100101011001001001100010001010
011001010110010101100101011001010110010101100101011010011001110010001101
011001010110010101100101011001010110010101100101011101011001110010001110
011001010110010101100101011001010110010101100101011001011001010010000110
011001010110010101100101011001010110010101100101011100111001000010000001
011001010110010101100101011001010110010101100101011010111000010101111001
011001010110010101100101011001010110010101100101011111011000100110001000
011001010110010101100101011001010110010101100101011100001000101101110111
011001010110010101100101011001010110010101100101011110011000111101111011
011001010110010101100101011001010110010101100101011111001001010010000011
011001010110010101100101011001010110010101100101011110101001011110000110
011001010110010101100101011001010110010101100101010111011000101101111001
011001010110010101100101011001010110010101100101011111011001010010000010
011001010110010101100101011001010110010101100101011011111001000001111110
011001010110010101100101011001010110010101100101011100111001011110000010
011001010110010101100101011001010110010101100101011100101001000010000010
011001010110010101100101011001010110010101100101011100001001000101111110
011001010110010101100101011001010110010101100101011011001000111101111110
011001010110010101100101011001010110010101100101011100001000111001111101
011001010110010101100101011001010110010101100101011011011000101101111100
011001010110010101100101011001010110010101100101011011111000110001111010
011001010110010101100101011001010110010101100101010010111010001010001001
011001010110010101100101011001010110010101100101011010100111000001011100
011001010110010101100101011001010110010101100101100010100111110001100010
011001010110010101100101011001010110010101100101010011100101011001000110
011001010110010101100101011001010110010101100101010011100100110000111110
011001010110010101100101011001010110010101100101011000000101110001010011
011001010110010101100101011001010110010101100101010010000110000001010101
011001010110010101100101011001010110010101100101010110100110001001010011
011001010110010101100101011001010110010101100101011000000110000001000111
011001010110010101100101011001010110010101100101011010011000011010001000
011001010110010101100101011001010110010101100101011110010111101001101011
011001010110010101100101011001010110010101100101001110100110011101101101
011001010110010101100101011001010110010101100101011110111001111010101011
011001010110010101100101011001010110010101100101110111011101010011001000
011001010110010101100101011001010110010101100101110011011100011010110111
011001010110010101100101011001010110010101100101011101101000110110001100
011001010110010101100101011001010110010101100101010111110111110010001001
011001010110010101100101011001010110010101100101011000001000001010010110
011001010110010101100101011001010110010101100101011101010111001001101101
011001010110010101100101011001010110010101100101011100000111011001110010
011001010110010101100101011001010110010101100101011101101001001110010110
011001010110010101100101011001010110010101100101011010111000100110000110
011001010110010101100101011001010110010101100101011010101000000110000000
011001010110010101100101011001010110010101100101011010011000001101110101
011001010110010101100101011001010110010101100101011000000111000101100011
011001010110010101100101011001010110010101100101010111110111011001100111
011001010110010101100101011001010110010101100101010111101000001001111000
011001010110010101100101011001010110010101100101010111100111011101101100
011001010110010101100101011001010110010101100101010111100110100101011010
011001010110010101100101011001010110010101100101010110100110100001010111
011001010110010101100101011001010110010101100101011001110111001001100110
011001010110010101100101011001010110010101100101011010001000000001110000
011001010110010101100101011001010110010101100101011010010111011001011011
011001010110010101100101011001010110010101100101010111110111100101100110
011001010110010101100101011001010110010101100101010111010111100101100011
011001010110010101100101011001010110010101100101011000001000001001110101
011001010110010101100101011001010110010101100101011010001000001101111011
011001010110010101100101011001010110010101100101011010000111000101100000
011001010110010101100101011001010110010101100101011010100110101001010011
011001010110010101100101011001010110010101100101100110101000110101110100
011001010110010101100101011001010110010101100101011000011000000001110011
011001010110010101100101011001010110010101100101011001111000000101110000
011001010110010101100101011001010110010101100101011000101000001001101101
011001010110010101100101011001010110010101100101011010101000101001111101
011001010110010101100101011001010110010101100101011011011000111110000110
011001010110010101100101011001010110010101100101010111011001000110000011
011001010110010101100101011001010110010101100101011000001001011010001100
011001010110010101100101011001010110010101100101010110111001001110001010
011001010110010101100101011001010110010101100101011000001001010010001001
011001010110010101100101011001010110010101100101011001001000101010000110
011001010110010101100101011001010110010101100101011010001000110001111111
011001010110010101100101011001010110010101100101011011011001000110000010
011001010110010101100101011001010110010101100101011100011001010010000001
011001010110010101100101011001010110010101100101011010011000101101111010
011001010110010101100101011001010110010101100101011010001001100010000100
011001010110010101100101011001010110010101100101011010011001110010010001
011001010110010101100101011001010110010101100101011011001010000010011010
011001010110010101100101011001010110010101100101011001111001010010010011
011001010110010101100101011001010110010101100101011010101001100110010000
011001010110010101100101011001010110010101100101011011101000111010001100
011001010110010101100101011001010110010101100101011011111001100010010001
011001010110010101100101011001010110010101100101011011011000110110000111
011001010110010101100101011001010110010101100101100000011001100010000110
011001010110010101100101011001010110010101100101011110101001011010000011
011001010110010101100101011001010110010101100101011011101001100110001001
011001010110010101100101011001010110010101100101011101001001100110000100
011001010110010101100101011001010110010101100101011100101001011010000100
011001010110010101100101011001010110010101100101011101111001101110001000
011001010110010101100101011001010110010101100101011100011001011110000111
011001010110010101100101011001010110010101100101011011111001100010001000
011001010110010101100101011001010110010101100101011101001001001110000100
011001010110010101100101011001010110010101100101011011111000110101111010
011001010110010101100101011001010110010101100101011011111000100001111000
011001010110010101100101011001010110010101100101011010111000100001110111
011001010110010101100101011001010110010101100101011011001000011101110111
011001010110010101100101011001010110010101100101100101111010011010011001
011001010110010101100101011001010110010101100101011011001000011001110010
011001010110010101100101011001010110010101100101010011100101001101001010
011001010110010101100101011001010110010101100101101000101001010010001111
011001010110010101100101011001010110010101100101010110110110000001010001
011001010110010101100101011001010110010101100101010101110101110101011101
011001010110010101100101011001010110010101100101011001110110101001100000
011001010110010101100101011001010110010101100101010010100101100001010001
011001010110010101100101011001010110010101100101010010100110110001101011
011001010110010101100101011001010110010101100101100011011000010101110000
011001010110010101100101011001010110010101100101010111110111011001101111
011001010110010101100101011001010110010101100101100001101010100010110011
011001010110010101100101011001010110010101100101101000011001100110000111
011001010110010101100101011001010110010101100101010100100101110101100011
011001010110010101100101011001010110010101100101100101011000101110000000
011001010110010101100101011001010110010101100101011001000110010001001111
011001010110010101100101011001010110010101100101010101100110001101010111
011001010110010101100101011001010110010101100101010001110101101101010011
011001010110010101100101011001010110010101100101010110010110100001011010
011001010110010101100101011001010110010101100101011001110111101001101100
011001010110010101100101011001010110010101100101011010000111001001011111
011001010110010101100101011001010110010101100101100011011000101101101110
011001010110010101100101011001010110010101100101011100101001000110010010
011001010110010101100101011001010110010101100101011000011001000110010011
011001010110010101100101011001010110010101100101100001011001000010000000
011001010110010101100101011001010110010101100101010111010111100001101100
011001010110010101100101011001010110010101100101010111000111010001100101
011001010110010101100101011001010110010101100101010111100110001001010011
011001010110010101100101011001010110010101100101010110110111010101100001
011001010110010101100101011001010110010101100101011000100111100101100100
011001010110010101100101011001010110010101100101010111010110001101010000
011001010110010101100101011001010110010101100101011000011000110010000110
011001010110010101100101011001010110010101100101011010011000111110001100
011001010110010101100101011001010110010101100101011001111000110110000111
011001010110010101100101011001010110010101100101010111111000111010000110
011001010110010101100101011001010110010101100101011011010111101001011101
011001010110010101100101011001010110010101100101010111110111110101101011
011001010110010101100101011001010110010101100101011000110111111001110000
011001010110010101100101011001010110010101100101010011000100110000110100
011001010110010101100101011001010110010101100101100000010111111101101001
011001010110010101100101011001010110010101100101100000011000111101111111
011001010110010101100101011001010110010101100101011010001000110001111011
011001010110010101100101011001010110010101100101011011011000011101110011
011001010110010101100101011001010110010101100101011010101000001101110010
011001010110010101100101011001010110010101100101010111101000011101111000
011001010110010101100101011001010110010101100101011010011000111101111110
011001010110010101100101011001010110010101100101011010001000111110000000
011001010110010101100101011001010110010101100101011011101000110110000000
011001010110010101100101011001010110010101100101011010101001001110001010
011001010110010101100101011001010110010101100101010111111001001010001111
011001010110010101100101011001010110010101100101011010001001100010001011
011001010110010101100101011001010110010101100101011000101001011110001001
011001010110010101100101011001010110010101100101010111111001100010001001
011001010110010101100101011001010110010101100101011010011001100110001010
011001010110010101100101011001010110010101100101011100001001011110001001
011001010110010101100101011001010110010101100101011011001000101001111010
011001010110010101100101011001010110010101100101011011101001001110000111
011001010110010101100101011001010110010101100101011000011001001110001100
011001010110010101100101011001010110010101100101011101011010010110100101
011001010110010101100101011001010110010101100101011010011000000001111111
011001010110010101100101011001010110010101100101011110111010010110101011
011001010110010101100101011001010110010101100101011100001000101001111111
011001010110010101100101011001010110010101100101011110011001001010000001
011001010110010101100101011001010110010101100101011010011001011110000011
011001010110010101100101011001010110010101100101011100101001100110001001
011001010110010101100101011001010110010101100101011101101001101110000111
011001010110010101100101011001010110010101100101011101001001011110000100
011001010110010101100101011001010110010101100101011100111001001110000010
011001010110010101100101011001010110010101100101011101101001010010000011
011001010110010101100101011001010110010101100101011010101001011010000011
011001010110010101100101011001010110010101100101011011011001011110000110
011001010110010101100101011001010110010101100101011100011001001110000010
011001010110010101100101011001010110010101100101011110011001000010000000
011001010110010101100101011001010110010101100101011011001000101001111001
011001010110010101100101011001010110010101100101011101011000110001111100
011001010110010101100101011001010110010101100101011000101010110010010110
011001010110010101100101011001010110010101100101010110011010000010001010
011001010110010101100101011001010110010101100101101010101010001010010011
011001010110010101100101011001010110010101100101010101010110010001011100
011001010110010101100101011001010110010101100101010101000101110001010110
011001010110010101100101011001010110010101100101011010000111001001101101
011001010110010101100101011001010110010101100101010001100101100001001111
011001010110010101100101011001010110010101100101011000010110110001011011
011001010110010101100101011001010110010101100101010011000101110101010110
011001010110010101100101011001010110010101100101010000100101001101001101
011001010110010101100101011001010110010101100101101111101011111010110101
011001010110010101100101011001010110010101100101011010101001011010100110
011001010110010101100101011001010110010101100101100100011001000010010010
011001010110010101100101011001010110010101100101100000001000101110011110
011001010110010101100101011001010110010101100101100100101010100010101101
011001010110010101100101011001010110010101100101010110010111101001111010
011001010110010101100101011001010110010101100101011100010111010001100011
011001010110010101100101011001010110010101100101011011000110110001010111
011001010110010101100101011001010110010101100101010101100110111001100010
011001010110010101100101011001010110010101100101010100100110111101100110
011001010110010101100101011001010110010101100101010110100111000101100011
011001010110010101100101011001010110010101100101011011000111000101100101
011001010110010101100101011001010110010101100101011010110111101001101100
011001010110010101100101011001010110010101100101010111000111010001100011
011001010110010101100101011001010110010101100101011101010111110001110001
011001010110010101100101011001010110010101100101011001110110101001010000
011001010110010101100101011001010110010101100101011000010111011001100010
011001010110010101100101011001010110010101100101011011001000001101110110
011001010110010101100101011001010110010101100101011000001000010101111110
011001010110010101100101011001010110010101100101010111001000001001111011
011001010110010101100101011001010110010101100101010110100110011101010110
011001010110010101100101011001010110010101100101010110010111100101100110
011001010110010101100101011001010110010101100101010110100111100001100110
011001010110010101100101011001010110010101100101010101000111011101100101
011001010110010101100101011001010110010101100101010110110111011001100011
011001010110010101100101011001010110010101100101011010111000111001111111
011001010110010101100101011001010110010101100101010111101000100101111000
011001010110010101100101011001010110010101100101011111011000101101110001
011001010110010101100101011001010110010101100101011000010101100100111111
011001010110010101100101011001010110010101100101100100111000001101100010
011001010110010101100101011001010110010101100101011011011000110001111110
011001010110010101100101011001010110010101100101011000101000010101110110
011001010110010101100101011001010110010101100101011001011000100101111010
011001010110010101100101011001010110010101100101011000001000011101110101
011001010110010101100101011001010110010101100101011010011000011101111011
011001010110010101100101011001010110010101100101011000011000111101111110
011001010110010101100101011001010110010101100101011000011001000010000111
011001010110010101100101011001010110010101100101010111011001001110001000
011001010110010101100101011001010110010101100101011000111001000110000100
011001010110010101100101011001010110010101100101011011001000101110000001
011001010110010101100101011001010110010101100101011000101000100001110101
011001010110010101100101011001010110010101100101011010011000110101111110
011001010110010101100101011001010110010101100101011001011001010010000100
011001010110010101100101011001010110010101100101011000001001010010000110
011001010110010101100101011001010110010101100101011000101001100010001001
011001010110010101100101011001010110010101100101011000101001100010001011
011001010110010101100101011001010110010101100101011010111001100010000110
011001010110010101100101011001010110010101100101011101111001001110000000
011001010110010101100101011001010110010101100101011110101001100010010000
011001010110010101100101011001010110010101100101011100011001001010010011
011001010110010101100101011001010110010101100101011100101001010010001010
011001010110010101100101011001010110010101100101011101001001001010000010
011001010110010101100101011001010110010101100101011100101001001001111011
011001010110010101100101011001010110010101100101011011101001011010000100
011001010110010101100101011001010110010101100101010110011000110101111110
011001010110010101100101011001010110010101100101011011101001011110000100
011001010110010101100101011001010110010101100101011101101001100010000111
011001010110010101100101011001010110010101100101011101011001010010000001
011001010110010101100101011001010110010101100101011110111001000010000010
011001010110010101100101011001010110010101100101011101001001010010000100
011001010110010101100101011001010110010101100101011100001001100010000110
011001010110010101100101011001010110010101100101011100101001100010000110
011001010110010101100101011001010110010101100101011100101001001010000001
011001010110010101100101011001010110010101100101011011101000110101111100
011001010110010101100101011001010110010101100101011101001000110101111100
011001010110010101100101011001010110010101100101011100001010111110011001
011001010110010101100101011001010110010101100101100001101001111001111110
011001010110010101100101011001010110010101100101010000100101010101001101
011001010110010101100101011001010110010101100101011100100111110001110111
011001010110010101100101011001010110010101100101010101100101110101001000
011001010110010101100101011001010110010101100101010000100101001101001000
011001010110010101100101011001010110010101100101010111110101111001010000
011001010110010101100101011001010110010101100101001111110101111001010110
011001010110010101100101011001010110010101100101010010010110011101100010
011001010110010101100101011001010110010101100101101001111010101110011011
011001010110010101100101011001010110010101100101100011111010000110011001
011001010110010101100101011001010110010101100101100010001001000010000010
011001010110010101100101011001010110010101100101010011000110001101011011
011001010110010101100101011001010110010101100101101000111010010110100110
011001010110010101100101011001010110010101100101100011011001110010001111
011001010110010101100101011001010110010101100101010111000111110110000011
011001010110010101100101011001010110010101100101010011100110010101011001
011001010110010101100101011001010110010101100101100000100111110101010011
011001010110010101100101011001010110010101100101011000000110110101100000
011001010110010101100101011001010110010101100101010110110110100001011011
011001010110010101100101011001010110010101100101010110010110101001011011
011001010110010101100101011001010110010101100101011001000110110101010100
011001010110010101100101011001010110010101100101011101001000011001110001
011001010110010101100101011001010110010101100101011101000111101001101000
011001010110010101100101011001010110010101100101010110010110101001011111
011001010110010101100101011001010110010101100101011011010110101101010001
011001010110010101100101011001010110010101100101011000001000100001111011
011001010110010101100101011001010110010101100101011000101000011101111111
011001010110010101100101011001010110010101100101010111010111100101100110
011001010110010101100101011001010110010101100101011001000111100001011110
011001010110010101100101011001010110010101100101011100001001100010010101
011001010110010101100101011001010110010101100101011000011000100110000001
011001010110010101100101011001010110010101100101011000011000101001111111
011001010110010101100101011001010110010101100101010110001000111110001111
011001010110010101100101011001010110010101100101010011000101011101000010
011001010110010101100101011001010110010101100101001010110011100000100111
011001010110010101100101011001010110010101100101001010000011011100100010
011001010110010101100101011001010110010101100101001110000110101001011111
011001010110010101100101011001010110010101100101001011100011000000011110
011001010110010101100101011001010110010101100101010001100011101000100110
011001010110010101100101011001010110010101100101011010101000101101111111
011001010110010101100101011001010110010101100101011010101000111101111111
011001010110010101100101011001010110010101100101011010000111110001101111
011001010110010101100101011001010110010101100101011010011000100101111000
011001010110010101100101011001010110010101100101011001111000111001111111
011001010110010101100101011001010110010101100101010101101000111001111101
011001010110010101100101011001010110010101100101011000101001001110000011
011001010110010101100101011001010110010101100101010110011000111010000110
011001010110010101100101011001010110010101100101011001001001011110001011
011001010110010101100101011001010110010101100101011000101001010010001110
011001010110010101100101011001010110010101100101011010001001100010001100
011001010110010101100101011001010110010101100101011000001001001110001001
011001010110010101100101011001010110010101100101011011011001000001111100
011001010110010101100101011001010110010101100101011011011001000110000010
011001010110010101100101011001010110010101100101011010111001010010001001
011001010110010101100101011001010110010101100101010111111001010010000111
011001010110010101100101011001010110010101100101011001011001011010001010
011001010110010101100101011001010110010101100101011000111001011010000110
011001010110010101100101011001010110010101100101011001011000110110001000
011001010110010101100101011001010110010101100101011010010111101101110110
011001010110010101100101011001010110010101100101011011111001100010001001
011001010110010101100101011001010110010101100101011101001001000010000000
011001010110010101100101011001010110010101100101011101111001011010000100
011001010110010101100101011001010110010101100101011011101000111101111110
011001010110010101100101011001010110010101100101011011111001001110000001
011001010110010101100101011001010110010101100101011100001001000110000001
011001010110010101100101011001010110010101100101011100101001001010000010
011001010110010101100101011001010110010101100101011011101001000110000000
011001010110010101100101011001010110010101100101011100011000111101111101
011001010110010101100101011001010110010101100101011011011000111101111101
011001010110010101100101011001010110010101100101011100001001001010000010
011001010110010101100101011001010110010101100101011010011001010010000100
011001010110010101100101011001010110010101100101011001111001001010000000
011001010110010101100101011001010110010101100101011011101000111001111110
011001010110010101100101011001010110010101100101011100011000111001111110
011001010110010101100101011001010110010101100101010101001001000001101011
011001010110010101100101011001010110010101100101011100001100111110110100
011001010110010101100101011001010110010101100101100000011010010010010010
011001010110010101100101011001010110010101100101010001100101101001001101
011001010110010101100101011001010110010101100101010100010101111101010010
011001010110010101100101011001010110010101100101011001000110011101010110
011001010110010101100101011001010110010101100101010011000101110101010100
011001010110010101100101011001010110010101100101100001001000001001011111
011001010110010101100101011001010110010101100101010010100101100101001111
011001010110010101100101011001010110010101100101011101101000000001111000
011001010110010101100101011001010110010101100101110111111110011111100001
011001010110010101100101011001010110010101100101010010010110111001101111
011001010110010101100101011001010110010101100101101101101100001111000011
011001010110010101100101011001010110010101100101011100000111100101110010
011001010110010101100101011001010110010101100101011010100111100001100101
011001010110010101100101011001010110010101100101010111000101110000111110
011001010110010101100101011001010110010101100101010110000110001001010101
011001010110010101100101011001010110010101100101010111110110110101011100
011001010110010101100101011001010110010101100101100100011000111101110111
011001010110010101100101011001010110010101100101011010110111000001010101
011001010110010101100101011001010110010101100101010011110111010101101100
011001010110010101100101011001010110010101100101010110100111100101110010
011001010110010101100101011001010110010101100101011000000111110101110110
011001010110010101100101011001010110010101100101100001101000110001101101
011001010110010101100101011001010110010101100101010111110110111101011000
011001010110010101100101011001010110010101100101011011010110101101010100
011001010110010101100101011001010110010101100101011001000111101001100110
011001010110010101100101011001010110010101100101010101100111101001100100
011001010110010101100101011001010110010101100101010111000111100001101100
011001010110010101100101011001010110010101100101011011101001001010010010
011001010110010101100101011001010110010101100101011001111001000010010000
011001010110010101100101011001010110010101100101010111001000110010000111
011001010110010101100101011001010110010101100101010100011000101010000111
011001010110010101100101011001010110010101100101010100010100111000111101
011001010110010101100101011001010110010101100101010101010111011101100111
011001010110010101100101011001010110010101100101010001101000100110001000
011001010110010101100101011001010110010101100101010000010110001001001111
011001010110010101100101011001010110010101100101010011000111110101110101
011001010110010101100101011001010110010101100101010010110110101001011010
011001010110010101100101011001010110010101100101010111010110100001011000
011001010110010101100101011001010110010101100101011001001000011001111100
011001010110010101100101011001010110010101100101011000111000110001111111
011001010110010101100101011001010110010101100101011000111000101001111011
011001010110010101100101011001010110010101100101011011001000011001110010
011001010110010101100101011001010110010101100101011011101000101101111010
011001010110010101100101011001010110010101100101011011001000110001111101
011001010110010101100101011001010110010101100101011011001000111101111101
011001010110010101100101011001010110010101100101011011101000101001111101
011001010110010101100101011001010110010101100101011001111000101001111000
011001010110010101100101011001010110010101100101011001011000101101111110
011001010110010101100101011001010110010101100101010111111000111001111111
011001010110010101100101011001010110010101100101011000001001010010000100
011001010110010101100101011001010110010101100101011000101001010010000110
011001010110010101100101011001010110010101100101011001111001010010001000
011001010110010101100101011001010110010101100101011010001001000001111111
011001010110010101100101011001010110010101100101011010111000110001111011
011001010110010101100101011001010110010101100101011010011001000010000001
011001010110010101100101011001010110010101100101011001001001000110000011
011001010110010101100101011001010110010101100101011010101001011110010000
011001010110010101100101011001010110010101100101010110111001000010000010
011001010110010101100101011001010110010101100101011001111001000110000000
011001010110010101100101011001010110010101100101011100001000111101111100
011001010110010101100101011001010110010101100101011101001001001010000001
011001010110010101100101011001010110010101100101011110011001000110000001
011001010110010101100101011001010110010101100101011100101001000110000000
011001010110010101100101011001010110010101100101011000111001001001111111
011001010110010101100101011001010110010101100101011101011001001110000011
011001010110010101100101011001010110010101100101011000101000101001111001
011001010110010101100101011001010110010101100101011100011001000010000000
011001010110010101100101011001010110010101100101011011111001000101111111
011001010110010101100101011001010110010101100101011100101001001010000010
011001010110010101100101011001010110010101100101011011001000110101111101
011001010110010101100101011001010110010101100101011011001001001110000000
011001010110010101100101011001010110010101100101011001001000111001111100
011001010110010101100101011001010110010101100101011011001001000001111111
011001010110010101100101011001010110010101100101011101101101011010110110
011001010110010101100101011001010110010101100101011110101001011101110001
011001010110010101100101011001010110010101100101010010111010000110001010
011001010110010101100101011001010110010101100101010011000110100001100010
011001010110010101100101011001010110010101100101010011000101011000111010
011001010110010101100101011001010110010101100101001111000100100100111110
011001010110010101100101011001010110010101100101010110110101110001001000
011001010110010101100101011001010110010101100101010110000110110101101001
011001010110010101100101011001010110010101100101100011101001110110010000
011001010110010101100101011001010110010101100101101101011011100110110011
011001010110010101100101011001010110010101100101100000001000100110000001
011001010110010101100101011001010110010101100101011010100111110101111001
011001010110010101100101011001010110010101100101101111001011100110110001
011001010110010101100101011001010110010101100101010100100111011101110101
011001010110010101100101011001010110010101100101010100010110011101010111
011001010110010101100101011001010110010101100101011010010110100101010100
011001010110010101100101011001010110010101100101011001010110111001100000
011001010110010101100101011001010110010101100101010111100111100001101100
011001010110010101100101011001010110010101100101011000100111000101100101
011001010110010101100101011001010110010101100101011100010111100101100000
011001010110010101100101011001010110010101100101010100000111001001101011
011001010110010101100101011001010110010101100101010101100111100101101110
011001010110010101100101011001010110010101100101010110010110110001011010
011001010110010101100101011001010110010101100101011001110110011001011000
011001010110010101100101011001010110010101100101011100100111100101011101
011001010110010101100101011001010110010101100101011000100110110001010111
011001010110010101100101011001010110010101100101011010101000000001101101
011001010110010101100101011001010110010101100101010111000110011001010000
011001010110010101100101011001010110010101100101011011001000010101111001
011001010110010101100101011001010110010101100101011000000111110001110101
011001010110010101100101011001010110010101100101011011100111110001101011
011001010110010101100101011001010110010101100101010110000110101001011000
011001010110010101100101011001010110010101100101001101110011000100010001
011001010110010101100101011001010110010101100101010000110110011101010010
011001010110010101100101011001010110010101100101001111100111100101110101
011001010110010101100101011001010110010101100101010000111000011010000000
011001010110010101100101011001010110010101100101010010000110101101011001
011001010110010101100101011001010110010101100101010001100111011001101001
011001010110010101100101011001010110010101100101010101110110111101011110
011001010110010101100101011001010110010101100101010110111000000101110101
011001010110010101100101011001010110010101100101010110110111111001110110
011001010110010101100101011001010110010101100101010100100111101101110001
011001010110010101100101011001010110010101100101011001111000100101111100
011001010110010101100101011001010110010101100101010111111000101101111110
011001010110010101100101011001010110010101100101011000101000111110000011
011001010110010101100101011001010110010101100101010111011001000010000011
011001010110010101100101011001010110010101100101011000011001001010000100
011001010110010101100101011001010110010101100101010110101001000010000001
011001010110010101100101011001010110010101100101011010011001010010001010
011001010110010101100101011001010110010101100101011010001001000010000011
011001010110010101100101011001010110010101100101011000111000101101111010
011001010110010101100101011001010110010101100101011000011000101101111011
011001010110010101100101011001010110010101100101011000101001001010000010
011001010110010101100101011001010110010101100101011000001000111110000011
011001010110010101100101011001010110010101100101011000001001010010000100
011001010110010101100101011001010110010101100101011000101001011010000110
011001010110010101100101011001010110010101100101011001011001000110000001
011001010110010101100101011001010110010101100101011001011000100101111010
011001010110010101100101011001010110010101100101011000101000110001111001
011001010110010101100101011001010110010101100101011011111001000010000011
011001010110010101100101011001010110010101100101011010101000111101111110
011001010110010101100101011001010110010101100101011001011001010010000010
011001010110010101100101011001010110010101100101011011101001001110000010
011001010110010101100101011001010110010101100101011010111000110001111010
011001010110010101100101011001010110010101100101011100011000111101111111
011001010110010101100101011001010110010101100101011101011001011010000011
011001010110010101100101011001010110010101100101011010011001011010000011
011001010110010101100101011001010110010101100101011101011001010010000010
011001010110010101100101011001010110010101100101011101111001001010000000
011001010110010101100101011001010110010101100101011001011001000110000000
011001010110010101100101011001010110010101100101011011011001011110000011
011001010110010101100101011001010110010101100101011100111001000010000001
011001010110010101100101011001010110010101100101011011101001000001111110
011001010110010101100101011001010110010101100101011010111000111001111100
011001010110010101100101011001010110010101100101011100011001000001111101
011001010110010101100101011001010110010101100101011011011100111010110100
011001010110010101100101011001010110010101100101011100101101111111000101
011001010110010101100101011001010110010101100101100011011100010110101001
011001010110010101100101011001010110010101100101001111110111001001110111
011001010110010101100101011001010110010101100101010000010110000001011000
011001010110010101100101011001010110010101100101011101100111000001011100
011001010110010101100101011001010110010101100101001110110100110001000000
011001010110010101100101011001010110010101100101011111100111101001100110
011001010110010101100101011001010110010101100101011110111010001110100110
011001010110010101100101011001010110010101100101101111101011001110101000
011001010110010101100101011001010110010101100101011101111001101010011011
011001010110010101100101011001010110010101100101101001001011010110110001
011001010110010101100101011001010110010101100101010011000101110101010011
011001010110010101100101011001010110010101100101011011000111000001011001
011001010110010101100101011001010110010101100101010100100101110001001001
011001010110010101100101011001010110010101100101011000100110101001010100
011001010110010101100101011001010110010101100101011101110111011001011010
011001010110010101100101011001010110010101100101010110110110100001010100
011001010110010101100101011001010110010101100101010100000110010101010110
