memory_initialization_radix=2;
memory_initialization_vector=
111100011101000111100101000000100001100000001010111111110000000000000000
111110011111011100001110111111001110111111111011111011101000000011000000
111010111100010111011110000001100001001000001011111100111101000011101010
111111111111111000000000110011000010111111110010000000010000000000000000
000000000000000000000000000000000000010100000000000001010010001100010010
000000000000000000000000000000010000000100000001000000000000000000000000
000000001111011111111111001001110000010111010011000000010000001000000010
000000000000000000000000001101111011011100010111000000101111101111111100
000000011110110111110111000111100110100100111110111001101110001111110100
111101111101110011101100111010101111111100001110000011011110001000010000
000000000000000000000000000001000000101100001000111010011101111101000000
000000000000000000000000000000000000000000000000000000000000000000000000