memory_initialization_radix=2;
memory_initialization_vector=
000000000000000000000000000000000000000000000000000110100000111000001100
000000000000000000000000000000000000000000000000000110000000100100000100
000000000000000000000000000000000000000000000000000110000000111000001100
000000000000000000000000000000000000000000000000000110000000101100001100
000000000000000000000000000000000000000000000000000110000000101100001001
000000000000000000000000000000000000000000000000000110000000100100001100
000000000000000000000000000000000000000000000000000110000000110100001011
000000000000000000000000000000000000000000000000000111010001001000001011
000000000000000000000000000000000000000000000000110010111011010110110011
000000000000000000000000000000000000000000000000101101011010001010101011
000000000000000000000000000000000000000000000000101010101001010110101001
000000000000000000000000000000000000000000000000101110111010011110110001
000000000000000000000000000000000000000000000000110101011100111011000100
000000000000000000000000000000000000000000000000001001010001101000010100
000000000000000000000000000000000000000000000000000111110001100000010000
000000000000000000000000000000000000000000000000000111100001100000010000
000000000000000000000000000000000000000000000000000101100000101000001000
000000000000000000000000000000000000000000000000000101110000100100001011
000000000000000000000000000000000000000000000000000110000000101100001011
000000000000000000000000000000000000000000000000001000010001110100010101
000000000000000000000000000000000000000000000000000111010001001000001110
000000000000000000000000000000000000000000000000001011010010001000010111
000000000000000000000000000000000000000000000000001010100010011100010111
000000000000000000000000000000000000000000000000001001010010010000001101
000000000000000000000000000000000000000000000000001010000010010000010101
000000000000000000000000000000000000000000000000001010100010001000010001
000000000000000000000000000000000000000000000000000111010001111100010011
000000000000000000000000000000000000000000000000001101000011111100100111
000000000000000000000000000000000000000000000000001100000010111100100010
000000000000000000000000000000000000000000000000001001010001101100010110
000000000000000000000000000000000000000000000000001110000011110100101010
000000000000000000000000000000000000000000000000001011000011100100011000
000000000000000000000000000000000000000000000000001010000011011100010111
000000000000000000000000000000000000000000000000001010010011010000011000
000000000000000000000000000000000000000000000000001010000010100100010111
000000000000000000000000000000000000000000000000001010010011000100011100
000000000000000000000000000000000000000000000000001000010010111100100111
000000000000000000000000000000000000000000000000001100010010110100110101
000000000000000000000000000000000000000000000000001010110010100000101010
000000000000000000000000000000000000000000000000001011000010110100101001
000000000000000000000000000000000000000000000000000101100000100100000111
000000000000000000000000000000000000000000000000001000110010000000010110
000000000000000000000000000000000000000000000000001000010001110000001110
000000000000000000000000000000000000000000000000001011010010111100011010
000000000000000000000000000000000000000000000000000110110001001000001000
000000000000000000000000000000000000000000000000000110000001010100001001
000000000000000000000000000000000000000000000000000101010000101000000111
000000000000000000000000000000000000000000000000001000000010000000001111
000000000000000000000000000000000000000000000000000111100001101100001111
000000000000000000000000000000000000000000000000000101010000100000000101
000000000000000000000000000000000000000000000000000101100000101100000100
000000000000000000000000000000000000000000000000001010110011010000011011
000000000000000000000000000000000000000000000000000101100000011100000111
000000000000000000000000000000000000000000000000000101010000101100000110
000000000000000000000000000000000000000000000000000101010000101000000110
000000000000000000000000000000000000000000000000000101010000011100000010
000000000000000000000000000000000000000000000000000101000000011100000110
000000000000000000000000000000000000000000000000000110000000101100000101
000000000000000000000000000000000000000000000000000101100000101100000100
000000000000000000000000000000000000000000000000001001010001111100010010
000000000000000000000000000000000000000000000000001010110010000000010100
000000000000000000000000000000000000000000000000001000100001100000001100
000000000000000000000000000000000000000000000000000110110001000000001001
000000000000000000000000000000000000000000000000001010000010100100011010
000000000000000000000000000000000000000000000000000101100000110100001100
000000000000000000000000000000000000000000000000000111000010010000001110
000000000000000000000000000000000000000000000000000110000001000100001001
000000000000000000000000000000000000000000000000000111000001001100001100
000000000000000000000000000000000000000000000000000110000000101100000110
000000000000000000000000000000000000000000000000000101100000100100000101
000000000000000000000000000000000000000000000000000101010000110000001000
000000000000000000000000000000000000000000000000000101110000111100001000
000000000000000000000000000000000000000000000000000101010000011100000011
000000000000000000000000000000000000000000000000000101010000100100000100
000000000000000000000000000000000000000000000000011001010110010101100101
000000000000000000000000000000000000000000000000000101100000101100001010
000000000000000000000000000000000000000000000000000110010000110000001000
000000000000000000000000000000000000000000000000000110100000110000001010
000000000000000000000000000000000000000000000000000110100000111000001011
000000000000000000000000000000000000000000000000000110000000101100000110
000000000000000000000000000000000000000000000000000110110000101000001011
000000000000000000000000000000000000000000000000000110100000101100001011
000000000000000000000000000000000000000000000000001001010000111100001100
000000000000000000000000000000000000000000000000101111111011000010110011
000000000000000000000000000000000000000000000000101000001000100110100111
000000000000000000000000000000000000000000000000101010011001010110101100
000000000000000000000000000000000000000000000000101111001010100110110111
000000000000000000000000000000000000000000000000111011001110001011011110
000000000000000000000000000000000000000000000000100011100111100001110000
000000000000000000000000000000000000000000000000001110010001111100011111
000000000000000000000000000000000000000000000000000111010001000000001101
000000000000000000000000000000000000000000000000000111010001000000001010
000000000000000000000000000000000000000000000000001001000010001000011011
000000000000000000000000000000000000000000000000000111110010000100001111
000000000000000000000000000000000000000000000000000110010000101000001001
000000000000000000000000000000000000000000000000001001110001100000010001
000000000000000000000000000000000000000000000000001000100001110100010001
000000000000000000000000000000000000000000000000000111100001110000001100
000000000000000000000000000000000000000000000000001001000001111100001101
000000000000000000000000000000000000000000000000000111100001101000001101
000000000000000000000000000000000000000000000000001000010001101000010000
000000000000000000000000000000000000000000000000001001000010011100010101
000000000000000000000000000000000000000000000000001000100010010100001111
000000000000000000000000000000000000000000000000000110110001010100001011
000000000000000000000000000000000000000000000000000110010000110100001010
000000000000000000000000000000000000000000000000001001010010100000010010
000000000000000000000000000000000000000000000000001010110011011000010111
000000000000000000000000000000000000000000000000001001110010111100010111
000000000000000000000000000000000000000000000000001101000100000000101010
000000000000000000000000000000000000000000000000001000100001101000010111
000000000000000000000000000000000000000000000000001001110010110100011011
000000000000000000000000000000000000000000000000001000000011100100101000
000000000000000000000000000000000000000000000000001011110010100100110010
000000000000000000000000000000000000000000000000001010000011010100100010
000000000000000000000000000000000000000000000000001000010010010100010101
000000000000000000000000000000000000000000000000000101100000101100001000
000000000000000000000000000000000000000000000000000101010000101000000100
000000000000000000000000000000000000000000000000001000010001111100001111
000000000000000000000000000000000000000000000000001100000011011000100001
000000000000000000000000000000000000000000000000000111110001011000001100
000000000000000000000000000000000000000000000000001001000001010100010001
000000000000000000000000000000000000000000000000000101100000101100001110
000000000000000000000000000000000000000000000000001001000010011100010011
000000000000000000000000000000000000000000000000001001000010011000010001
000000000000000000000000000000000000000000000000000111010001110000010010
000000000000000000000000000000000000000000000000000101100000011100000011
000000000000000000000000000000000000000000000000000110010000111000001011
000000000000000000000000000000000000000000000000001000100010101000010101
000000000000000000000000000000000000000000000000000101110000101100001011
000000000000000000000000000000000000000000000000000101000000011100000101
000000000000000000000000000000000000000000000000000101100000100100001000
000000000000000000000000000000000000000000000000000110000001000100000110
000000000000000000000000000000000000000000000000000101100001000000000111
000000000000000000000000000000000000000000000000000101010000111000000111
000000000000000000000000000000000000000000000000000111010001101000001100
000000000000000000000000000000000000000000000000001001100010001100010001
000000000000000000000000000000000000000000000000001000110001101100001100
000000000000000000000000000000000000000000000000000110000001001000000111
000000000000000000000000000000000000000000000000000101010000101100001000
000000000000000000000000000000000000000000000000000101100000110000001000
000000000000000000000000000000000000000000000000000111100010001100010001
000000000000000000000000000000000000000000000000001001110011001000011011
000000000000000000000000000000000000000000000000001100110011010000011110
000000000000000000000000000000000000000000000000000111010010000000001101
000000000000000000000000000000000000000000000000000101000000100100000101
000000000000000000000000000000000000000000000000000101100000100100000111
000000000000000000000000000000000000000000000000000110110001000100001110
000000000000000000000000000000000000000000000000000101100000100000000111
000000000000000000000000000000000000000000000000000101110000100100001000
000000000000000000000000000000000000000000000000011001010110010101100101
000000000000000000000000000000000000000000000000000110000000101000001010
000000000000000000000000000000000000000000000000000101010000100100000101
000000000000000000000000000000000000000000000000001000010001010000001010
000000000000000000000000000000000000000000000000001000000001001100001100
000000000000000000000000000000000000000000000000000111000000101100001001
000000000000000000000000000000000000000000000000000111000000101100010000
000000000000000000000000000000000000000000000000001101010010100100100010
000000000000000000000000000000000000000000000000100110010111010101110010
000000000000000000000000000000000000000000000000101110001010100010110000
000000000000000000000000000000000000000000000000101001101000111110101010
000000000000000000000000000000000000000000000000110000111010100110110111
000000000000000000000000000000000000000000000000110111011100001111001010
000000000000000000000000000000000000000000000000111101001110101111100011
000000000000000000000000000000000000000000000000111010001101011011001110
000000000000000000000000000000000000000000000000100110111000100001111100
000000000000000000000000000000000000000000000000001001010001010000010001
000000000000000000000000000000000000000000000000000110010000111100001011
000000000000000000000000000000000000000000000000001001010001111000010100
000000000000000000000000000000000000000000000000001010010010001000010111
000000000000000000000000000000000000000000000000001100010010011100011010
000000000000000000000000000000000000000000000000001100110010011100011011
000000000000000000000000000000000000000000000000001011110010010000010101
000000000000000000000000000000000000000000000000001000000001010000001111
000000000000000000000000000000000000000000000000001000000001110100001101
000000000000000000000000000000000000000000000000000110010001000100001011
000000000000000000000000000000000000000000000000000111000001010100001110
000000000000000000000000000000000000000000000000001100100011100100100000
000000000000000000000000000000000000000000000000001010110010111000010101
000000000000000000000000000000000000000000000000000111010010011000010011
000000000000000000000000000000000000000000000000001100000010100000010111
000000000000000000000000000000000000000000000000000111000001100000001101
000000000000000000000000000000000000000000000000000110010000111000001000
000000000000000000000000000000000000000000000000001000100010001100010000
000000000000000000000000000000000000000000000000001001000010110100011001
000000000000000000000000000000000000000000000000001001100010011100011010
000000000000000000000000000000000000000000000000001001000010011100010111
000000000000000000000000000000000000000000000000001001100010010000100111
000000000000000000000000000000000000000000000000001011110011100100101101
000000000000000000000000000000000000000000000000001100000100001000101001
000000000000000000000000000000000000000000000000001011100011001100011011
000000000000000000000000000000000000000000000000000111100001111100010101
000000000000000000000000000000000000000000000000000101010000100100001010
000000000000000000000000000000000000000000000000000110000000111100001100
000000000000000000000000000000000000000000000000001011000011010100011001
000000000000000000000000000000000000000000000000001101110010111100100000
000000000000000000000000000000000000000000000000010000100011100100101001
000000000000000000000000000000000000000000000000001101000010101000100010
000000000000000000000000000000000000000000000000000110110001100100010001
000000000000000000000000000000000000000000000000001011000010111000011001
000000000000000000000000000000000000000000000000000110100010000000001100
000000000000000000000000000000000000000000000000000110010000111100001001
000000000000000000000000000000000000000000000000000110000000101100001010
000000000000000000000000000000000000000000000000000110010001010100001101
000000000000000000000000000000000000000000000000000111110010000000010001
000000000000000000000000000000000000000000000000000110000000101100001100
000000000000000000000000000000000000000000000000000110000000011100000100
000000000000000000000000000000000000000000000000000101100000101100001000
000000000000000000000000000000000000000000000000000110010001011100001100
000000000000000000000000000000000000000000000000000101110000111000001000
000000000000000000000000000000000000000000000000000101110001000000001100
000000000000000000000000000000000000000000000000000110110001011100000101
000000000000000000000000000000000000000000000000000111100001100000001011
000000000000000000000000000000000000000000000000000111000001011100001100
000000000000000000000000000000000000000000000000000110010001001100001011
000000000000000000000000000000000000000000000000000110000001000100001001
000000000000000000000000000000000000000000000000000101110000101100001010
000000000000000000000000000000000000000000000000001100000011001000011011
000000000000000000000000000000000000000000000000001001110010100100010001
000000000000000000000000000000000000000000000000001010000010100100010111
000000000000000000000000000000000000000000000000000111100001100100011001
000000000000000000000000000000000000000000000000000101110000100100001110
000000000000000000000000000000000000000000000000000101110000100000000110
000000000000000000000000000000000000000000000000000101110000100100000111
000000000000000000000000000000000000000000000000000110000000110100001011
000000000000000000000000000000000000000000000000011001010110010101100101
000000000000000000000000000000000000000000000000000101110000100100000110
000000000000000000000000000000000000000000000000000111000000111100001011
000000000000000000000000000000000000000000000000000110100000101100000110
000000000000000000000000000000000000000000000000001000100001011000001110
000000000000000000000000000000000000000000000000000111000000110000001011
000000000000000000000000000000000000000000000000001011100001011000011011
000000000000000000000000000000000000000000000000011011100100101101001000
000000000000000000000000000000000000000000000000110100111011011110110101
000000000000000000000000000000000000000000000000101011011001010010100111
000000000000000000000000000000000000000000000000110001111010010110110101
000000000000000000000000000000000000000000000000111001101100101111001011
000000000000000000000000000000000000000000000000111101011110010111011111
000000000000000000000000000000000000000000000000111110111110111111101001
000000000000000000000000000000000000000000000000111110101111000011100111
000000000000000000000000000000000000000000000000111001001100111111000101
000000000000000000000000000000000000000000000000010000000010110000100101
000000000000000000000000000000000000000000000000001000000001000100001111
000000000000000000000000000000000000000000000000000110100000101100001100
000000000000000000000000000000000000000000000000001000100001101000010001
000000000000000000000000000000000000000000000000001010110010010000010001
000000000000000000000000000000000000000000000000001011000010010000010011
000000000000000000000000000000000000000000000000001010010010001000010011
000000000000000000000000000000000000000000000000001010110010100100100000
000000000000000000000000000000000000000000000000001000100001101000001101
000000000000000000000000000000000000000000000000001000010001101000001110
000000000000000000000000000000000000000000000000000111100001000100001110
000000000000000000000000000000000000000000000000000111100001011100001100
000000000000000000000000000000000000000000000000001011010011010100011011
000000000000000000000000000000000000000000000000001010100010111000010110
000000000000000000000000000000000000000000000000001001100010011100010011
000000000000000000000000000000000000000000000000001100000010100100010111
000000000000000000000000000000000000000000000000000111110001001000001100
000000000000000000000000000000000000000000000000000111010010100000010110
000000000000000000000000000000000000000000000000000111000010011100001111
000000000000000000000000000000000000000000000000000111110010010100010000
000000000000000000000000000000000000000000000000001001010001111100011000
000000000000000000000000000000000000000000000000001001100010001000011111
000000000000000000000000000000000000000000000000000111000011010000011010
000000000000000000000000000000000000000000000000001010110011011000011011
000000000000000000000000000000000000000000000000001010110011001100011101
000000000000000000000000000000000000000000000000001110100110001000111011
000000000000000000000000000000000000000000000000001010100100101000100111
000000000000000000000000000000000000000000000000001000100010110100010110
000000000000000000000000000000000000000000000000001100010100010100101001
000000000000000000000000000000000000000000000000001101110011000100100010
000000000000000000000000000000000000000000000000001110100011011100100101
000000000000000000000000000000000000000000000000001110010011110000101100
000000000000000000000000000000000000000000000000001101010011000000100001
000000000000000000000000000000000000000000000000001010100010110100011001
000000000000000000000000000000000000000000000000001000000010000100001100
000000000000000000000000000000000000000000000000001010110010010100010011
000000000000000000000000000000000000000000000000000110010000111100001001
000000000000000000000000000000000000000000000000000110100001001000001010
000000000000000000000000000000000000000000000000000111110001111000010111
000000000000000000000000000000000000000000000000000111000001000000001111
000000000000000000000000000000000000000000000000000110000001000000001110
000000000000000000000000000000000000000000000000000101110000110000000111
000000000000000000000000000000000000000000000000000110100011010000011100
000000000000000000000000000000000000000000000000000111000001110000001110
000000000000000000000000000000000000000000000000000111110001100000001111
000000000000000000000000000000000000000000000000000110010001000000001001
000000000000000000000000000000000000000000000000001000110001101100001110
000000000000000000000000000000000000000000000000001001110010000000010110
000000000000000000000000000000000000000000000000000111100001101000010000
000000000000000000000000000000000000000000000000001010100010010100010000
000000000000000000000000000000000000000000000000000111100001010000001100
000000000000000000000000000000000000000000000000000101100000101000001010
000000000000000000000000000000000000000000000000001010100010110000011011
000000000000000000000000000000000000000000000000001010000010100100010010
000000000000000000000000000000000000000000000000001001110010101000010101
000000000000000000000000000000000000000000000000000111000000111100010100
000000000000000000000000000000000000000000000000000111110001100000001100
000000000000000000000000000000000000000000000000000111100001001000010001
000000000000000000000000000000000000000000000000000110010000110100010011
000000000000000000000000000000000000000000000000011001010110010101100101
000000000000000000000000000000000000000000000000000110000000101100000110
000000000000000000000000000000000000000000000000000110110001000100001000
000000000000000000000000000000000000000000000000001011010001110100011000
000000000000000000000000000000000000000000000000010011010011001100101111
000000000000000000000000000000000000000000000000100100010111000001101000
000000000000000000000000000000000000000000000000100111110111111001111001
000000000000000000000000000000000000000000000000110111001011111110111000
000000000000000000000000000000000000000000000000110110101100011011000100
000000000000000000000000000000000000000000000000110111001011111011000001
000000000000000000000000000000000000000000000000111100011101101111010110
000000000000000000000000000000000000000000000000111111011110110011100101
000000000000000000000000000000000000000000000000111111011111000011101001
000000000000000000000000000000000000000000000000111111111111001111101010
000000000000000000000000000000000000000000000000111111011111001111101010
000000000000000000000000000000000000000000000000111111001111000011100111
000000000000000000000000000000000000000000000000011010000100100101001011
000000000000000000000000000000000000000000000000001010110001110100011010
000000000000000000000000000000000000000000000000001001000001100000010001
000000000000000000000000000000000000000000000000001011000010011000010111
000000000000000000000000000000000000000000000000001011010010010000010111
000000000000000000000000000000000000000000000000001011100010010100010111
000000000000000000000000000000000000000000000000001010100010001100010101
000000000000000000000000000000000000000000000000001110010010001100011001
000000000000000000000000000000000000000000000000010010100011011000110000
000000000000000000000000000000000000000000000000001010100010010000011100
000000000000000000000000000000000000000000000000000110110000110100001010
000000000000000000000000000000000000000000000000000110110001010000001100
000000000000000000000000000000000000000000000000001111000011101000100010
000000000000000000000000000000000000000000000000001101010011100000011111
000000000000000000000000000000000000000000000000001000010001111000010001
000000000000000000000000000000000000000000000000000110000000101000001011
000000000000000000000000000000000000000000000000000111010001010000010010
000000000000000000000000000000000000000000000000001100000011111000100010
000000000000000000000000000000000000000000000000001010110011100100100001
000000000000000000000000000000000000000000000000001000100010010100001110
000000000000000000000000000000000000000000000000000111100001111100001111
000000000000000000000000000000000000000000000000001001010010001000010111
000000000000000000000000000000000000000000000000000110100010010100010000
000000000000000000000000000000000000000000000000001011110011100000100010
000000000000000000000000000000000000000000000000001010100010111000011011
000000000000000000000000000000000000000000000000001010110100110100100111
000000000000000000000000000000000000000000000000001101110101001000110011
000000000000000000000000000000000000000000000000001011110011101100100101
000000000000000000000000000000000000000000000000001011110100100100101011
000000000000000000000000000000000000000000000000001011010010100000010111
000000000000000000000000000000000000000000000000001110100011100000100110
000000000000000000000000000000000000000000000000001110100011011100100101
000000000000000000000000000000000000000000000000000110100001000100001010
000000000000000000000000000000000000000000000000001010110010100100011101
000000000000000000000000000000000000000000000000001110010011111100101101
000000000000000000000000000000000000000000000000010001100100100000110110
000000000000000000000000000000000000000000000000001011010010101100011000
000000000000000000000000000000000000000000000000001001010010010100010101
000000000000000000000000000000000000000000000000000111010001100000010001
000000000000000000000000000000000000000000000000000110100000111100001111
000000000000000000000000000000000000000000000000001000000001100000001111
000000000000000000000000000000000000000000000000000101110000101000000111
000000000000000000000000000000000000000000000000001000100010100000010111
000000000000000000000000000000000000000000000000000110000011001100011001
000000000000000000000000000000000000000000000000001100000100010100101000
000000000000000000000000000000000000000000000000001011000010011100010111
000000000000000000000000000000000000000000000000001001010001111000001101
000000000000000000000000000000000000000000000000001010000010001000010111
000000000000000000000000000000000000000000000000000111000001111000001111
000000000000000000000000000000000000000000000000001001110010100100010111
000000000000000000000000000000000000000000000000001011100010010100010101
000000000000000000000000000000000000000000000000001000000001011100010001
000000000000000000000000000000000000000000000000000110110000111100010011
000000000000000000000000000000000000000000000000000101110001000000001010
000000000000000000000000000000000000000000000000000110010001001100000110
000000000000000000000000000000000000000000000000000110100000111100001100
000000000000000000000000000000000000000000000000000110110000101100001001
000000000000000000000000000000000000000000000000000110100001010000001010
000000000000000000000000000000000000000000000000001000100001011100001100
000000000000000000000000000000000000000000000000011001010110010101100101
000000000000000000000000000000000000000000000000000110100000101000001011
000000000000000000000000000000000000000000000000000111110001001000001100
000000000000000000000000000000000000000000000000001011110001101000011000
000000000000000000000000000000000000000000000000100000000101111101011101
000000000000000000000000000000000000000000000000110111101100011010111110
000000000000000000000000000000000000000000000000111010011101001111001100
000000000000000000000000000000000000000000000000111010101101010111001111
000000000000000000000000000000000000000000000000111010011101000111001011
000000000000000000000000000000000000000000000000111101011110000011011000
000000000000000000000000000000000000000000000000111111011110110111100011
000000000000000000000000000000000000000000000000111111111110111111100111
000000000000000000000000000000000000000000000000111111111111001111101010
000000000000000000000000000000000000000000000000111111111111010011101011
000000000000000000000000000000000000000000000000111111111111010011101011
000000000000000000000000000000000000000000000000111111111111010011101011
000000000000000000000000000000000000000000000000111111011110111111100110
000000000000000000000000000000000000000000000000110011011010111110101000
000000000000000000000000000000000000000000000000010010000010101000101101
000000000000000000000000000000000000000000000000001100100010011100011111
000000000000000000000000000000000000000000000000011110010101110001010111
000000000000000000000000000000000000000000000000011010010101001101001111
000000000000000000000000000000000000000000000000110010011011001010110000
000000000000000000000000000000000000000000000000110100111100010011000101
000000000000000000000000000000000000000000000000111000111101010111010101
000000000000000000000000000000000000000000000000010000010011000000100111
000000000000000000000000000000000000000000000000001010100010001100011100
000000000000000000000000000000000000000000000000000111010001010100001100
000000000000000000000000000000000000000000000000000111010010010000001100
000000000000000000000000000000000000000000000000001010000010101100010101
000000000000000000000000000000000000000000000000000111000001011100001100
000000000000000000000000000000000000000000000000001001100010001000010111
000000000000000000000000000000000000000000000000000111110001101000010011
000000000000000000000000000000000000000000000000001001100011001000011001
000000000000000000000000000000000000000000000000001001000010111100011000
000000000000000000000000000000000000000000000000001010100010111100011001
000000000000000000000000000000000000000000000000000111100010100100001101
000000000000000000000000000000000000000000000000000111110001101100001101
000000000000000000000000000000000000000000000000000110100001000000010001
000000000000000000000000000000000000000000000000001010110011010100011011
000000000000000000000000000000000000000000000000001000100010100100010011
000000000000000000000000000000000000000000000000000111000011010000011000
000000000000000000000000000000000000000000000000001010110011101100100010
000000000000000000000000000000000000000000000000001110000100001000101101
000000000000000000000000000000000000000000000000001100010100101100101011
000000000000000000000000000000000000000000000000001100010011101000100011
000000000000000000000000000000000000000000000000001110010011010000100001
000000000000000000000000000000000000000000000000001110100011101000100111
000000000000000000000000000000000000000000000000000111000001011100001010
000000000000000000000000000000000000000000000000001001000001110000010101
000000000000000000000000000000000000000000000000001011010011101000100101
000000000000000000000000000000000000000000000000001111100100001000101011
000000000000000000000000000000000000000000000000001110110011111100101001
000000000000000000000000000000000000000000000000001001010010100100011000
000000000000000000000000000000000000000000000000000101110011000100010111
000000000000000000000000000000000000000000000000001000010010010100010011
000000000000000000000000000000000000000000000000000111010001110000001100
000000000000000000000000000000000000000000000000001001000011000100010111
000000000000000000000000000000000000000000000000001101000011010100011100
000000000000000000000000000000000000000000000000001011000010110000011001
000000000000000000000000000000000000000000000000001000110100100000100011
000000000000000000000000000000000000000000000000001000010011011000010110
000000000000000000000000000000000000000000000000000101010000110000001000
000000000000000000000000000000000000000000000000000111100001101000001111
000000000000000000000000000000000000000000000000000111110001101100010010
000000000000000000000000000000000000000000000000000111000001101000010010
000000000000000000000000000000000000000000000000000111110010001000010010
000000000000000000000000000000000000000000000000001000010001101000010101
000000000000000000000000000000000000000000000000001010110010100000011110
000000000000000000000000000000000000000000000000001011000010100100011000
000000000000000000000000000000000000000000000000001010110010001100010100
000000000000000000000000000000000000000000000000001000000010011100010100
000000000000000000000000000000000000000000000000000110100001011000001011
000000000000000000000000000000000000000000000000000110100001110000001000
000000000000000000000000000000000000000000000000000111000001000100010011
000000000000000000000000000000000000000000000000011001010110010101100101
000000000000000000000000000000000000000000000000001010110010000000010011
000000000000000000000000000000000000000000000000001010110001110000010111
000000000000000000000000000000000000000000000000101010111001001010001011
000000000000000000000000000000000000000000000000110110101100000010110111
000000000000000000000000000000000000000000000000111001011100111011000111
000000000000000000000000000000000000000000000000111100001101111011010111
000000000000000000000000000000000000000000000000111000111100111011001001
000000000000000000000000000000000000000000000000111100011101100011010010
000000000000000000000000000000000000000000000000111110101110011111011101
000000000000000000000000000000000000000000000000111111011110110011100101
000000000000000000000000000000000000000000000000111110111110111111100111
000000000000000000000000000000000000000000000000111111011111000111101000
000000000000000000000000000000000000000000000000111111101111001011101001
000000000000000000000000000000000000000000000000111111011111001111101010
000000000000000000000000000000000000000000000000111111111111010011101011
000000000000000000000000000000000000000000000000111111111111010011101011
000000000000000000000000000000000000000000000000111111111111010011101011
000000000000000000000000000000000000000000000000111110111110111111100011
000000000000000000000000000000000000000000000000111100111101111111010101
000000000000000000000000000000000000000000000000111001101101011011001111
000000000000000000000000000000000000000000000000110011111100000010111110
000000000000000000000000000000000000000000000000101010011001101110100011
000000000000000000000000000000000000000000000000101010101001010010100010
000000000000000000000000000000000000000000000000110110011100101011000111
000000000000000000000000000000000000000000000000010000110011100000100110
000000000000000000000000000000000000000000000000001011000010110000011100
000000000000000000000000000000000000000000000000000111110010010000001110
000000000000000000000000000000000000000000000000001000100010100100010010
000000000000000000000000000000000000000000000000000111100010010100001011
000000000000000000000000000000000000000000000000000111010001110000001100
000000000000000000000000000000000000000000000000001111000100000000101001
000000000000000000000000000000000000000000000000001101100011110100100011
000000000000000000000000000000000000000000000000001001100001110000010001
000000000000000000000000000000000000000000000000001001010010010000010110
000000000000000000000000000000000000000000000000001001000010110000010010
000000000000000000000000000000000000000000000000001011000011011100100010
000000000000000000000000000000000000000000000000000111000001111100010010
000000000000000000000000000000000000000000000000000110100001010100010001
000000000000000000000000000000000000000000000000001000110010100100010101
000000000000000000000000000000000000000000000000001010100011100100011110
000000000000000000000000000000000000000000000000000110110010001000010110
000000000000000000000000000000000000000000000000001000010010100100010111
000000000000000000000000000000000000000000000000001010010011010000011110
000000000000000000000000000000000000000000000000001011100100011000101011
000000000000000000000000000000000000000000000000000110110010100000011001
000000000000000000000000000000000000000000000000000101110010001100001100
000000000000000000000000000000000000000000000000000110110010110100010010
000000000000000000000000000000000000000000000000000111100010100100010111
000000000000000000000000000000000000000000000000001100010011001000011110
000000000000000000000000000000000000000000000000000110110010000100001100
000000000000000000000000000000000000000000000000000101110010011100010100
000000000000000000000000000000000000000000000000001101110011111100100010
000000000000000000000000000000000000000000000000000101110001101000010001
000000000000000000000000000000000000000000000000000101110001110000001101
000000000000000000000000000000000000000000000000001101000100001100101001
000000000000000000000000000000000000000000000000001100010011011100011111
000000000000000000000000000000000000000000000000001101010011100000100101
000000000000000000000000000000000000000000000000001110010011011100100001
000000000000000000000000000000000000000000000000001011000011111000100001
000000000000000000000000000000000000000000000000000110010001011000001001
000000000000000000000000000000000000000000000000001000110011100100011110
000000000000000000000000000000000000000000000000000110000000101100001010
000000000000000000000000000000000000000000000000001010010010101000010100
000000000000000000000000000000000000000000000000000110100000101100001101
000000000000000000000000000000000000000000000000000110110001010000010001
000000000000000000000000000000000000000000000000001000000001110000010111
000000000000000000000000000000000000000000000000000110100010111000010010
000000000000000000000000000000000000000000000000001000100010011000010010
000000000000000000000000000000000000000000000000001001010001101100001101
000000000000000000000000000000000000000000000000000111000011000000010100
000000000000000000000000000000000000000000000000001000010010011000010010
000000000000000000000000000000000000000000000000001011110010001100010100
000000000000000000000000000000000000000000000000000111000001110100001011
000000000000000000000000000000000000000000000000000101110010001000001100
000000000000000000000000000000000000000000000000011001010110010101100101
000000000000000000000000000000000000000000000000000111110001010100001011
000000000000000000000000000000000000000000000000001011100001111100011010
000000000000000000000000000000000000000000000000100011100111011101101111
000000000000000000000000000000000000000000000000110010101011001010101110
000000000000000000000000000000000000000000000000111010011101000111001001
000000000000000000000000000000000000000000000000111011101101101011010011
000000000000000000000000000000000000000000000000111010111101010011001010
000000000000000000000000000000000000000000000000111011001101011011001110
000000000000000000000000000000000000000000000000111101111110011011011110
000000000000000000000000000000000000000000000000111110101110100011100001
000000000000000000000000000000000000000000000000111110001110110011100101
000000000000000000000000000000000000000000000000111110011110111011100101
000000000000000000000000000000000000000000000000111111001111000011100111
000000000000000000000000000000000000000000000000111110111111000111101001
000000000000000000000000000000000000000000000000111111101111001011101001
000000000000000000000000000000000000000000000000111111111111001111101010
000000000000000000000000000000000000000000000000111111101111001111101001
000000000000000000000000000000000000000000000000111110101110111011100101
000000000000000000000000000000000000000000000000111100101110001011011010
000000000000000000000000000000000000000000000000110011001100000111000010
000000000000000000000000000000000000000000000000101000111001011010101110
000000000000000000000000000000000000000000000000100011000111111110011001
000000000000000000000000000000000000000000000000100111111000101110100010
000000000000000000000000000000000000000000000000110110001100111111001000
000000000000000000000000000000000000000000000000010000000011010000101010
000000000000000000000000000000000000000000000000001001000010100100010110
000000000000000000000000000000000000000000000000001010010010011000010011
000000000000000000000000000000000000000000000000001011100011000000011011
000000000000000000000000000000000000000000000000001000000010001100001101
000000000000000000000000000000000000000000000000000111100001111100001100
000000000000000000000000000000000000000000000000001110100011101000100111
000000000000000000000000000000000000000000000000001010010011000000010111
000000000000000000000000000000000000000000000000001000000001110100010011
000000000000000000000000000000000000000000000000001000100010010000010101
000000000000000000000000000000000000000000000000001001000010110100010111
000000000000000000000000000000000000000000000000001010010010111100011011
000000000000000000000000000000000000000000000000000111010001101100010100
000000000000000000000000000000000000000000000000000111000001010000010011
000000000000000000000000000000000000000000000000000111110010001000011000
000000000000000000000000000000000000000000000000000111010001111100011101
000000000000000000000000000000000000000000000000000111010001101100010111
000000000000000000000000000000000000000000000000001010110011011000011110
000000000000000000000000000000000000000000000000001010010011100100011100
000000000000000000000000000000000000000000000000001010110100011100101000
000000000000000000000000000000000000000000000000000111010010100000010101
000000000000000000000000000000000000000000000000000110100010101100010110
000000000000000000000000000000000000000000000000001010000011000000011101
000000000000000000000000000000000000000000000000000111000011001100011010
000000000000000000000000000000000000000000000000001010110011000100011011
000000000000000000000000000000000000000000000000001011100011000000011111
000000000000000000000000000000000000000000000000000110010010011100010010
000000000000000000000000000000000000000000000000000111000001101100010011
000000000000000000000000000000000000000000000000001110000100010100101001
000000000000000000000000000000000000000000000000001110100100001000101100
000000000000000000000000000000000000000000000000000111010010001000010011
000000000000000000000000000000000000000000000000001000000010111100100010
000000000000000000000000000000000000000000000000001101000011111000100111
000000000000000000000000000000000000000000000000001110000011011000101000
000000000000000000000000000000000000000000000000001001100011000100010111
000000000000000000000000000000000000000000000000000111010010010100010011
000000000000000000000000000000000000000000000000001101000011000000011101
000000000000000000000000000000000000000000000000001000100001110100010111
000000000000000000000000000000000000000000000000001000000001111000010011
000000000000000000000000000000000000000000000000000111000001100000001100
000000000000000000000000000000000000000000000000000110100001001000001100
000000000000000000000000000000000000000000000000001101000011011000100011
000000000000000000000000000000000000000000000000001101010011010100100101
000000000000000000000000000000000000000000000000001010010010011100011101
000000000000000000000000000000000000000000000000000111010001100100001101
000000000000000000000000000000000000000000000000000110110010000000001110
000000000000000000000000000000000000000000000000001010010011001000011010
000000000000000000000000000000000000000000000000001101000010111100011101
000000000000000000000000000000000000000000000000000111110001100100010001
000000000000000000000000000000000000000000000000001101010100010000101000
000000000000000000000000000000000000000000000000011001010110010101100101
000000000000000000000000000000000000000000000000000111110001101000010100
000000000000000000000000000000000000000000000000000111010000110100001110
000000000000000000000000000000000000000000000000011101000101111101011101
000000000000000000000000000000000000000000000000110000101010101010101000
000000000000000000000000000000000000000000000000111001001100110011001000
000000000000000000000000000000000000000000000000110011101011100110110011
000000000000000000000000000000000000000000000000010111100011011100111100
000000000000000000000000000000000000000000000000110111001100000010111101
000000000000000000000000000000000000000000000000111100011110000011011001
000000000000000000000000000000000000000000000000111101111110011111011111
000000000000000000000000000000000000000000000000111100101110010011011011
000000000000000000000000000000000000000000000000111101011110011111100001
000000000000000000000000000000000000000000000000111101111110110111100011
000000000000000000000000000000000000000000000000111101111110110011100100
000000000000000000000000000000000000000000000000111110001110110011100100
000000000000000000000000000000000000000000000000111110111110111111100101
000000000000000000000000000000000000000000000000111110111110111111100101
000000000000000000000000000000000000000000000000111101001110100011100000
000000000000000000000000000000000000000000000000111001101101011111010100
000000000000000000000000000000000000000000000000101011001001110010110011
000000000000000000000000000000000000000000000000100011000111111110100110
000000000000000000000000000000000000000000000000100001110111101110100011
000000000000000000000000000000000000000000000000100111011000110010101010
000000000000000000000000000000000000000000000000110110111101010011001110
000000000000000000000000000000000000000000000000011000100101011001001000
000000000000000000000000000000000000000000000000001100000010111000011001
000000000000000000000000000000000000000000000000001100110011001100100000
000000000000000000000000000000000000000000000000001011010011001000011111
000000000000000000000000000000000000000000000000001011000010110100011010
000000000000000000000000000000000000000000000000000111000001101000001100
000000000000000000000000000000000000000000000000001000110010000100010010
000000000000000000000000000000000000000000000000000111100010011100010001
000000000000000000000000000000000000000000000000001000110001011000001100
000000000000000000000000000000000000000000000000000111000001100100001100
000000000000000000000000000000000000000000000000001001100010110100010111
000000000000000000000000000000000000000000000000001001000010100100010110
000000000000000000000000000000000000000000000000001010110010111100110011
000000000000000000000000000000000000000000000000000110110001101000010001
000000000000000000000000000000000000000000000000001001100010011000011110
000000000000000000000000000000000000000000000000001000010010001000010110
000000000000000000000000000000000000000000000000001101000011010000110101
000000000000000000000000000000000000000000000000001010100011001100011010
000000000000000000000000000000000000000000000000001101110011100100100111
000000000000000000000000000000000000000000000000000110010100001000011110
000000000000000000000000000000000000000000000000000111010011110000011101
000000000000000000000000000000000000000000000000001110010011111000101001
000000000000000000000000000000000000000000000000001111110011110100101011
000000000000000000000000000000000000000000000000001110000011010100100000
000000000000000000000000000000000000000000000000001110010011011100100111
000000000000000000000000000000000000000000000000001110010100100000111001
000000000000000000000000000000000000000000000000001001110011010100010111
000000000000000000000000000000000000000000000000001111000100001100101010
000000000000000000000000000000000000000000000000001100000011010100011101
000000000000000000000000000000000000000000000000000111110010001000011001
000000000000000000000000000000000000000000000000001000100010101000011000
000000000000000000000000000000000000000000000000001011010011011100100011
000000000000000000000000000000000000000000000000001011000011010000100001
000000000000000000000000000000000000000000000000000111110010010100001101
000000000000000000000000000000000000000000000000001101100011011100100101
000000000000000000000000000000000000000000000000001110010100101100101101
000000000000000000000000000000000000000000000000001110010011011000100101
000000000000000000000000000000000000000000000000001001000010100000010101
000000000000000000000000000000000000000000000000001010110001110100010011
000000000000000000000000000000000000000000000000000111100001011000001100
000000000000000000000000000000000000000000000000001001110010000100010111
000000000000000000000000000000000000000000000000001110110011110100101100
000000000000000000000000000000000000000000000000001100000011001100100001
000000000000000000000000000000000000000000000000001011110100000100100010
000000000000000000000000000000000000000000000000001010110010111100100001
000000000000000000000000000000000000000000000000001110000011100000101010
000000000000000000000000000000000000000000000000001000000010011000010101
000000000000000000000000000000000000000000000000001010010010110000011110
000000000000000000000000000000000000000000000000000110010001001000001100
000000000000000000000000000000000000000000000000000111000000111100010000
000000000000000000000000000000000000000000000000011001010110010101100101
000000000000000000000000000000000000000000000000000111000001001100001100
000000000000000000000000000000000000000000000000001011100010000100010111
000000000000000000000000000000000000000000000000101001111000110110001011
000000000000000000000000000000000000000000000000111000001100001010111110
000000000000000000000000000000000000000000000000111011001101100011001111
000000000000000000000000000000000000000000000000110101101011100110110011
000000000000000000000000000000000000000000000000110000111001001110011001
000000000000000000000000000000000000000000000000111110101110101011100001
000000000000000000000000000000000000000000000000111110101110111011100100
000000000000000000000000000000000000000000000000111110001110101011100010
000000000000000000000000000000000000000000000000111100011110000011011001
000000000000000000000000000000000000000000000000111101001110001111011100
000000000000000000000000000000000000000000000000111100111110010111011100
000000000000000000000000000000000000000000000000111101011110011011011101
000000000000000000000000000000000000000000000000111100101110011111011111
000000000000000000000000000000000000000000000000111101111110101111100010
000000000000000000000000000000000000000000000000111101011110100011100001
000000000000000000000000000000000000000000000000111011011110000011011010
000000000000000000000000000000000000000000000000111000111101000111001110
000000000000000000000000000000000000000000000000101100001010010010110001
000000000000000000000000000000000000000000000000100101001000110110100100
000000000000000000000000000000000000000000000000011111100111010110011110
000000000000000000000000000000000000000000000000101010001001001010101000
000000000000000000000000000000000000000000000000110111011101011011010101
000000000000000000000000000000000000000000000000101110001010101010100010
000000000000000000000000000000000000000000000000010010010011101100101110
000000000000000000000000000000000000000000000000001001010010010000010100
000000000000000000000000000000000000000000000000001000000010100100010101
000000000000000000000000000000000000000000000000000111000000111000001101
000000000000000000000000000000000000000000000000000110100001000100001101
000000000000000000000000000000000000000000000000001001010010011000010011
000000000000000000000000000000000000000000000000000111110010011100010011
000000000000000000000000000000000000000000000000001001100010001000010000
000000000000000000000000000000000000000000000000001000010001100100010100
000000000000000000000000000000000000000000000000000111010010100000010000
000000000000000000000000000000000000000000000000000111010001111100010000
000000000000000000000000000000000000000000000000001000010001101000011001
000000000000000000000000000000000000000000000000001001010010001100101000
000000000000000000000000000000000000000000000000001010110010011100011010
000000000000000000000000000000000000000000000000001011000011001000011011
000000000000000000000000000000000000000000000000001101100011011100111010
000000000000000000000000000000000000000000000000001001000010100100011100
000000000000000000000000000000000000000000000000000111000011100100010111
000000000000000000000000000000000000000000000000000110000011111000011101
000000000000000000000000000000000000000000000000001110010100011000110000
000000000000000000000000000000000000000000000000001110010011101000100101
000000000000000000000000000000000000000000000000001110010100010100101101
000000000000000000000000000000000000000000000000001111100011101100101011
000000000000000000000000000000000000000000000000001110100011011100100111
000000000000000000000000000000000000000000000000001111010100111100110001
000000000000000000000000000000000000000000000000001011000100000100100110
000000000000000000000000000000000000000000000000001110110100111100111000
000000000000000000000000000000000000000000000000001100000011010100100011
000000000000000000000000000000000000000000000000001010100010001000011101
000000000000000000000000000000000000000000000000001001010010110000011010
000000000000000000000000000000000000000000000000001010010010110000100000
000000000000000000000000000000000000000000000000001101010011011100101001
000000000000000000000000000000000000000000000000001101010011100100100111
000000000000000000000000000000000000000000000000001011010011000000100001
000000000000000000000000000000000000000000000000001101000110000000111101
000000000000000000000000000000000000000000000000010000100110011000111100
000000000000000000000000000000000000000000000000001101100011001100011111
000000000000000000000000000000000000000000000000001011110010011000011001
000000000000000000000000000000000000000000000000001000110001100000010100
000000000000000000000000000000000000000000000000001011110010100100100010
000000000000000000000000000000000000000000000000001100100010110000011111
000000000000000000000000000000000000000000000000001010000010100100010111
000000000000000000000000000000000000000000000000000111000001111100010010
000000000000000000000000000000000000000000000000001000100001101000010110
000000000000000000000000000000000000000000000000000111000001110000010110
000000000000000000000000000000000000000000000000000111000010001100010100
000000000000000000000000000000000000000000000000000111000001010000010010
000000000000000000000000000000000000000000000000000111010010111100100011
000000000000000000000000000000000000000000000000001011010010011000101001
000000000000000000000000000000000000000000000000011001010110010101100101
000000000000000000000000000000000000000000000000001010110010010000010111
000000000000000000000000000000000000000000000000010011010011110100110110
000000000000000000000000000000000000000000000000101110001010000110011100
000000000000000000000000000000000000000000000000110111111100010010111101
000000000000000000000000000000000000000000000000111100011101011011001110
000000000000000000000000000000000000000000000000111101111110010011011011
000000000000000000000000000000000000000000000000111110111110110011100010
000000000000000000000000000000000000000000000000111111101110111011100110
000000000000000000000000000000000000000000000000111110111110111111100110
000000000000000000000000000000000000000000000000111110101110110111100101
000000000000000000000000000000000000000000000000111010001101011011001111
000000000000000000000000000000000000000000000000110101011100000110111110
000000000000000000000000000000000000000000000000111001001101000111001011
000000000000000000000000000000000000000000000000111100001101111111011000
000000000000000000000000000000000000000000000000111100011110010011011101
000000000000000000000000000000000000000000000000111100101110011111011111
000000000000000000000000000000000000000000000000111100001110001111011100
000000000000000000000000000000000000000000000000111011001110000011011011
000000000000000000000000000000000000000000000000111000111101000111001110
000000000000000000000000000000000000000000000000101110011010100110110010
000000000000000000000000000000000000000000000000011000110101100010000010
000000000000000000000000000000000000000000000000010110110101000010001001
000000000000000000000000000000000000000000000000101100111010010110101110
000000000000000000000000000000000000000000000000110100011100110011001100
000000000000000000000000000000000000000000000000110110101100101111000101
000000000000000000000000000000000000000000000000100010110111100101110001
000000000000000000000000000000000000000000000000001110100010101100100011
000000000000000000000000000000000000000000000000001000000010000000010100
000000000000000000000000000000000000000000000000000111010001101000011001
000000000000000000000000000000000000000000000000001000100010011000011100
000000000000000000000000000000000000000000000000001000000010001100010100
000000000000000000000000000000000000000000000000001000000010001000010001
000000000000000000000000000000000000000000000000001010010010001000011010
000000000000000000000000000000000000000000000000001000000010010100010010
000000000000000000000000000000000000000000000000000111110010100000010001
000000000000000000000000000000000000000000000000001110110100100100101110
000000000000000000000000000000000000000000000000001011000011011100100010
000000000000000000000000000000000000000000000000001000010010011100010111
000000000000000000000000000000000000000000000000001110110011111100111000
000000000000000000000000000000000000000000000000001001010010110000011000
000000000000000000000000000000000000000000000000001011000011010100101001
000000000000000000000000000000000000000000000000001001100010110100011011
000000000000000000000000000000000000000000000000001001010011000100010101
000000000000000000000000000000000000000000000000001000110100001000011101
000000000000000000000000000000000000000000000000001011010100100000100110
000000000000000000000000000000000000000000000000001111000011100100101001
000000000000000000000000000000000000000000000000001111000100010100101110
000000000000000000000000000000000000000000000000001101110011010100100100
000000000000000000000000000000000000000000000000001111010011101100101010
000000000000000000000000000000000000000000000000001110110011100100101000
000000000000000000000000000000000000000000000000001101000100000100101001
000000000000000000000000000000000000000000000000001011000100101100101011
000000000000000000000000000000000000000000000000001001000011111100011100
000000000000000000000000000000000000000000000000001110100101001100110000
000000000000000000000000000000000000000000000000000111000011000100010110
000000000000000000000000000000000000000000000000001001010010111100100000
000000000000000000000000000000000000000000000000001001100010101100100001
000000000000000000000000000000000000000000000000001101000011100000101001
000000000000000000000000000000000000000000000000001010000010010100011111
000000000000000000000000000000000000000000000000001100000100101100100110
000000000000000000000000000000000000000000000000001111100110010100110111
000000000000000000000000000000000000000000000000010001000110100101000001
000000000000000000000000000000000000000000000000000110110001011000001111
000000000000000000000000000000000000000000000000001000100011000100100100
000000000000000000000000000000000000000000000000001110100011100100111100
000000000000000000000000000000000000000000000000001001100001111000011110
000000000000000000000000000000000000000000000000001000010010001100010111
000000000000000000000000000000000000000000000000000111000001000000010010
000000000000000000000000000000000000000000000000000110000000111000001111
000000000000000000000000000000000000000000000000000111010001011100010111
000000000000000000000000000000000000000000000000001001010010001000100110
000000000000000000000000000000000000000000000000001010100010010100101101
000000000000000000000000000000000000000000000000001010010010011000101000
000000000000000000000000000000000000000000000000001100000011111100101010
000000000000000000000000000000000000000000000000011001010110010101100101
000000000000000000000000000000000000000000000000001111100011011000101000
000000000000000000000000000000000000000000000000011111110111010101101011
000000000000000000000000000000000000000000000000010011110011011001000001
000000000000000000000000000000000000000000000000011010100101001101011111
000000000000000000000000000000000000000000000000011110000101011101100001
000000000000000000000000000000000000000000000000110110011011010010110001
000000000000000000000000000000000000000000000000111101101110001011011011
000000000000000000000000000000000000000000000000111110111110101111100011
000000000000000000000000000000000000000000000000111110011110110111100111
000000000000000000000000000000000000000000000000111010101101101111010101
000000000000000000000000000000000000000000000000100011111000001110000101
000000000000000000000000000000000000000000000000010001110011100100111111
000000000000000000000000000000000000000000000000100011110111001101110101
000000000000000000000000000000000000000000000000111011111101111111011000
000000000000000000000000000000000000000000000000111011001101111011010110
000000000000000000000000000000000000000000000000111011101110000011011001
000000000000000000000000000000000000000000000000111011111110000111011100
000000000000000000000000000000000000000000000000111010011101110111010111
000000000000000000000000000000000000000000000000111001101101010011010010
000000000000000000000000000000000000000000000000110100001011100110111100
000000000000000000000000000000000000000000000000011001010100111001110110
000000000000000000000000000000000000000000000000011101110101111110000111
000000000000000000000000000000000000000000000000110000111011111010111110
000000000000000000000000000000000000000000000000110001111100001111000101
000000000000000000000000000000000000000000000000110110001100111011000111
000000000000000000000000000000000000000000000000110000011010111010101000
000000000000000000000000000000000000000000000000010101100101000101000001
000000000000000000000000000000000000000000000000001000110001101100010101
000000000000000000000000000000000000000000000000001000100010001100011111
000000000000000000000000000000000000000000000000000111000001001000010000
000000000000000000000000000000000000000000000000001000100001101100010011
000000000000000000000000000000000000000000000000001001100010001000010111
000000000000000000000000000000000000000000000000001000010001100000010000
000000000000000000000000000000000000000000000000000111110010001100001110
000000000000000000000000000000000000000000000000001000010010011100010000
000000000000000000000000000000000000000000000000001111010100001000101100
000000000000000000000000000000000000000000000000001011100011001100100000
000000000000000000000000000000000000000000000000000110110010000000010010
000000000000000000000000000000000000000000000000001010110010111100011101
000000000000000000000000000000000000000000000000001010010011000000010111
000000000000000000000000000000000000000000000000001111010100100100110011
000000000000000000000000000000000000000000000000001111110100101000101111
000000000000000000000000000000000000000000000000001100010011011100100011
000000000000000000000000000000000000000000000000001001000011000000011111
000000000000000000000000000000000000000000000000001001010010110100011101
000000000000000000000000000000000000000000000000001010110011000000100010
000000000000000000000000000000000000000000000000001000010001110100001101
000000000000000000000000000000000000000000000000000110110001010100010000
000000000000000000000000000000000000000000000000000111000001100100001101
000000000000000000000000000000000000000000000000001100100011001100100001
000000000000000000000000000000000000000000000000001110010011100000100110
000000000000000000000000000000000000000000000000001101110101000100101111
000000000000000000000000000000000000000000000000001011110100100000100011
000000000000000000000000000000000000000000000000001100000100000000100010
000000000000000000000000000000000000000000000000001100000100101000101010
000000000000000000000000000000000000000000000000000111010011010000010110
000000000000000000000000000000000000000000000000001100010100000000101000
000000000000000000000000000000000000000000000000001110100011101000111010
000000000000000000000000000000000000000000000000001010010100100100101010
000000000000000000000000000000000000000000000000010001010100111000110010
000000000000000000000000000000000000000000000000001101100011110100101101
000000000000000000000000000000000000000000000000001000110101001100110001
000000000000000000000000000000000000000000000000001110100011011000111010
000000000000000000000000000000000000000000000000001101110011110100111100
000000000000000000000000000000000000000000000000001100110100100101000000
000000000000000000000000000000000000000000000000001110010011100000111111
000000000000000000000000000000000000000000000000001111110011101101000100
000000000000000000000000000000000000000000000000001110010011001100111110
000000000000000000000000000000000000000000000000001100110010101100110010
000000000000000000000000000000000000000000000000001101010010111000110010
000000000000000000000000000000000000000000000000001100110010101000110010
000000000000000000000000000000000000000000000000001101010010111000111000
000000000000000000000000000000000000000000000000001100110011100000100011
000000000000000000000000000000000000000000000000001111110011101100101110
000000000000000000000000000000000000000000000000011001010110010101100101
000000000000000000000000000000000000000000000000010010000011100100110001
000000000000000000000000000000000000000000000000010001010011001000110010
000000000000000000000000000000000000000000000000001011010010000100100010
000000000000000000000000000000000000000000000000001011100001101000100010
000000000000000000000000000000000000000000000000010011010011110001000011
000000000000000000000000000000000000000000000000110011111010101010100110
000000000000000000000000000000000000000000000000111011101101101011010101
000000000000000000000000000000000000000000000000111101111110011111011111
000000000000000000000000000000000000000000000000111100001110001111011100
000000000000000000000000000000000000000000000000111100011110001111011111
000000000000000000000000000000000000000000000000101010101001000010011001
000000000000000000000000000000000000000000000000010101000011110001001010
000000000000000000000000000000000000000000000000010000000011010101000010
000000000000000000000000000000000000000000000000101111111010011110100111
000000000000000000000000000000000000000000000000111011011101110111010111
000000000000000000000000000000000000000000000000111011001101111011011000
000000000000000000000000000000000000000000000000111010111101111011011001
000000000000000000000000000000000000000000000000111001111101101111010100
000000000000000000000000000000000000000000000000111010001101011111010001
000000000000000000000000000000000000000000000000111001001101000111001111
000000000000000000000000000000000000000000000000101110111010011110101110
000000000000000000000000000000000000000000000000110001111011101010111111
000000000000000000000000000000000000000000000000101111111011111111000110
000000000000000000000000000000000000000000000000110101011100111111010000
000000000000000000000000000000000000000000000000111000111101010011001111
000000000000000000000000000000000000000000000000101001001001001110001001
000000000000000000000000000000000000000000000000010000110011100100101101
000000000000000000000000000000000000000000000000010101110100101000111111
000000000000000000000000000000000000000000000000001101110011000000011110
000000000000000000000000000000000000000000000000001000010001101000001110
000000000000000000000000000000000000000000000000001001110010100000010101
000000000000000000000000000000000000000000000000001100010011100000100100
000000000000000000000000000000000000000000000000001001110010110100011111
000000000000000000000000000000000000000000000000001011100010011100011011
000000000000000000000000000000000000000000000000001000000010000100001100
000000000000000000000000000000000000000000000000001100000010100100011110
000000000000000000000000000000000000000000000000000111110010010000001110
000000000000000000000000000000000000000000000000000110100001011000001010
000000000000000000000000000000000000000000000000001011000011000100100001
000000000000000000000000000000000000000000000000001110100011101000101011
000000000000000000000000000000000000000000000000001101110100001000101101
000000000000000000000000000000000000000000000000010000100100010000101111
000000000000000000000000000000000000000000000000001101100100001000101010
000000000000000000000000000000000000000000000000000111000000111100001110
000000000000000000000000000000000000000000000000000111110001110100011000
000000000000000000000000000000000000000000000000001100000011001100100000
000000000000000000000000000000000000000000000000001101100011100000100001
000000000000000000000000000000000000000000000000000111110001100000001101
000000000000000000000000000000000000000000000000001001100010011000011010
000000000000000000000000000000000000000000000000001101000011010000100010
000000000000000000000000000000000000000000000000001011010010100100011110
000000000000000000000000000000000000000000000000001011100100000100101000
000000000000000000000000000000000000000000000000001101010100100000101000
000000000000000000000000000000000000000000000000001101110100010100101010
000000000000000000000000000000000000000000000000000111010011010100011001
000000000000000000000000000000000000000000000000000111010010110000011011
000000000000000000000000000000000000000000000000000111100010111100011110
000000000000000000000000000000000000000000000000001000000010100100100010
000000000000000000000000000000000000000000000000001001010010111100100110
000000000000000000000000000000000000000000000000001101100101001100111001
000000000000000000000000000000000000000000000000001100100010110000110011
000000000000000000000000000000000000000000000000001000100100000000101010
000000000000000000000000000000000000000000000000001010000100000000111000
000000000000000000000000000000000000000000000000001111000011010100111110
000000000000000000000000000000000000000000000000001101000010100000110010
000000000000000000000000000000000000000000000000001101110010111000110110
000000000000000000000000000000000000000000000000001101000010110000101110
000000000000000000000000000000000000000000000000001110110011001000110111
000000000000000000000000000000000000000000000000010000010011110001000011
000000000000000000000000000000000000000000000000010011100100111101010111
000000000000000000000000000000000000000000000000001111100011100101000011
000000000000000000000000000000000000000000000000001111000100100101001000
000000000000000000000000000000000000000000000000010000000101011101010101
000000000000000000000000000000000000000000000000010001110100011000110110
000000000000000000000000000000000000000000000000011001010110010101100101
000000000000000000000000000000000000000000000000010011010011110000110111
000000000000000000000000000000000000000000000000010101010100010001000011
000000000000000000000000000000000000000000000000001010000001100000011011
000000000000000000000000000000000000000000000000010001110011001100111000
000000000000000000000000000000000000000000000000011001010100101101010100
000000000000000000000000000000000000000000000000110010011010001010011101
000000000000000000000000000000000000000000000000111011101101100111010010
000000000000000000000000000000000000000000000000111100101110010111011101
000000000000000000000000000000000000000000000000111101111110101011100001
000000000000000000000000000000000000000000000000111100001110001111011100
000000000000000000000000000000000000000000000000111010101101011111010010
000000000000000000000000000000000000000000000000111000001100111011000111
000000000000000000000000000000000000000000000000110101011100000110111110
000000000000000000000000000000000000000000000000110000011010110010101101
000000000000000000000000000000000000000000000000111000101101011011001111
000000000000000000000000000000000000000000000000111011011101111011010110
000000000000000000000000000000000000000000000000111011011110000011011001
000000000000000000000000000000000000000000000000111011011110000011011010
000000000000000000000000000000000000000000000000111011001101110111010110
000000000000000000000000000000000000000000000000110111101100110011000110
000000000000000000000000000000000000000000000000110000011011010110111100
000000000000000000000000000000000000000000000000101010101010001010110010
000000000000000000000000000000000000000000000000110101011101000111010101
000000000000000000000000000000000000000000000000111000001101100111010101
000000000000000000000000000000000000000000000000111010011101110011010110
000000000000000000000000000000000000000000000000110011111011111110110101
000000000000000000000000000000000000000000000000010110010100110101000011
000000000000000000000000000000000000000000000000001100010010101000011010
000000000000000000000000000000000000000000000000010100110101000101000000
000000000000000000000000000000000000000000000000001100100010111100011101
000000000000000000000000000000000000000000000000001010100010010100011000
000000000000000000000000000000000000000000000000001011100100100100101011
000000000000000000000000000000000000000000000000001010110011001100011010
000000000000000000000000000000000000000000000000001100110011001100011010
000000000000000000000000000000000000000000000000001100010011000000011111
000000000000000000000000000000000000000000000000001010000010100100010110
000000000000000000000000000000000000000000000000000111110001100100001111
000000000000000000000000000000000000000000000000001000000001011000001001
000000000000000000000000000000000000000000000000001011010011000000011010
000000000000000000000000000000000000000000000000001101010011001000100101
000000000000000000000000000000000000000000000000001110000100000100101101
000000000000000000000000000000000000000000000000001100000011100100100001
000000000000000000000000000000000000000000000000001011010011001000011111
000000000000000000000000000000000000000000000000000111010001011000010111
000000000000000000000000000000000000000000000000001010010010100100100111
000000000000000000000000000000000000000000000000001010110010110100011010
000000000000000000000000000000000000000000000000001010110010101000011001
000000000000000000000000000000000000000000000000001111110011100100110101
000000000000000000000000000000000000000000000000010000100011101000101111
000000000000000000000000000000000000000000000000001001110001111100011000
000000000000000000000000000000000000000000000000001100010011000100100001
000000000000000000000000000000000000000000000000001100100011011100100001
000000000000000000000000000000000000000000000000001101110011100100110000
000000000000000000000000000000000000000000000000001101010011100000110101
000000000000000000000000000000000000000000000000001001000011100100011101
000000000000000000000000000000000000000000000000000110010010010000010111
000000000000000000000000000000000000000000000000001010100011101000100100
000000000000000000000000000000000000000000000000001010110011101100100111
000000000000000000000000000000000000000000000000001100110100010000101010
000000000000000000000000000000000000000000000000001101110100000100101111
000000000000000000000000000000000000000000000000001111000011111001000110
000000000000000000000000000000000000000000000000010001110100001101001111
000000000000000000000000000000000000000000000000001110100011010000111011
000000000000000000000000000000000000000000000000010001010100000001001011
000000000000000000000000000000000000000000000000010000100011111101000111
000000000000000000000000000000000000000000000000010000010100000001001010
000000000000000000000000000000000000000000000000010001100100000101010001
000000000000000000000000000000000000000000000000010010100100010001010100
000000000000000000000000000000000000000000000000010010110100011101001111
000000000000000000000000000000000000000000000000001111110011101001000100
000000000000000000000000000000000000000000000000001101010011100000111011
000000000000000000000000000000000000000000000000010000100011110001001000
000000000000000000000000000000000000000000000000010000110011111001000111
000000000000000000000000000000000000000000000000010001000100011001000010
000000000000000000000000000000000000000000000000011001010110010101100101
000000000000000000000000000000000000000000000000010000010011111100110101
000000000000000000000000000000000000000000000000010111010100101001001101
000000000000000000000000000000000000000000000000010001110011001100111000
000000000000000000000000000000000000000000000000010111000100100001010100
000000000000000000000000000000000000000000000000100010100110110001110001
000000000000000000000000000000000000000000000000110010001010100110100101
000000000000000000000000000000000000000000000000110111111100100111000100
000000000000000000000000000000000000000000000000111100111110001111011011
000000000000000000000000000000000000000000000000111100011110010011011101
000000000000000000000000000000000000000000000000111100001110010011011100
000000000000000000000000000000000000000000000000111100011110011011011111
000000000000000000000000000000000000000000000000111010001101101011010011
000000000000000000000000000000000000000000000000110111001101001011001101
000000000000000000000000000000000000000000000000110110101100111111001001
000000000000000000000000000000000000000000000000110111011100111111001110
000000000000000000000000000000000000000000000000111000011101010011010001
000000000000000000000000000000000000000000000000111011011110000011011010
000000000000000000000000000000000000000000000000111100111110011111011110
000000000000000000000000000000000000000000000000111100111110010111011101
000000000000000000000000000000000000000000000000111010011101110011010101
000000000000000000000000000000000000000000000000110101101100110011001101
000000000000000000000000000000000000000000000000110100111100111011001110
000000000000000000000000000000000000000000000000110110011101011111010101
000000000000000000000000000000000000000000000000111000111101110011010110
000000000000000000000000000000000000000000000000111011011110000011011001
000000000000000000000000000000000000000000000000111010011101101011010000
000000000000000000000000000000000000000000000000011101010110001001010111
000000000000000000000000000000000000000000000000001110010011001000100011
000000000000000000000000000000000000000000000000001101010010100100011010
000000000000000000000000000000000000000000000000001101110010111000100011
000000000000000000000000000000000000000000000000001010000010001000011011
000000000000000000000000000000000000000000000000000111000001101000010000
000000000000000000000000000000000000000000000000001100000100000000100100
000000000000000000000000000000000000000000000000001011000010100100011010
000000000000000000000000000000000000000000000000001101010011011100100100
000000000000000000000000000000000000000000000000001111000011111100101011
000000000000000000000000000000000000000000000000001000100010000100010000
000000000000000000000000000000000000000000000000000111100001011000010011
000000000000000000000000000000000000000000000000000111100010000100010000
000000000000000000000000000000000000000000000000001100010011011000100010
000000000000000000000000000000000000000000000000001011100011100100100001
000000000000000000000000000000000000000000000000001011000011000100100000
000000000000000000000000000000000000000000000000001001000010100100010100
000000000000000000000000000000000000000000000000001010010010101000011010
000000000000000000000000000000000000000000000000001000010001110000100011
000000000000000000000000000000000000000000000000000110110001011000010101
000000000000000000000000000000000000000000000000001100010010110100100001
000000000000000000000000000000000000000000000000000111010001101000010001
000000000000000000000000000000000000000000000000001011000010100100010111
000000000000000000000000000000000000000000000000001100100010111100011001
000000000000000000000000000000000000000000000000001101100011110100100111
000000000000000000000000000000000000000000000000001110000011100100101011
000000000000000000000000000000000000000000000000000111000001111000010000
000000000000000000000000000000000000000000000000001100010011000000101001
000000000000000000000000000000000000000000000000001101110011100000100110
000000000000000000000000000000000000000000000000001100110011000000110010
000000000000000000000000000000000000000000000000001110100011110100101101
000000000000000000000000000000000000000000000000001101010100111100110001
000000000000000000000000000000000000000000000000001111100100100000101011
000000000000000000000000000000000000000000000000001011000010110100101101
000000000000000000000000000000000000000000000000001100110010111100110111
000000000000000000000000000000000000000000000000001101010011011000111000
000000000000000000000000000000000000000000000000001110100011010100111101
000000000000000000000000000000000000000000000000010010100100011001010100
000000000000000000000000000000000000000000000000001110100011011001000000
000000000000000000000000000000000000000000000000001110110011101001000011
000000000000000000000000000000000000000000000000010010110100100001010100
000000000000000000000000000000000000000000000000010011110100110001011010
000000000000000000000000000000000000000000000000010011110100101101010100
000000000000000000000000000000000000000000000000010011000100010101001101
000000000000000000000000000000000000000000000000010001110100001101001101
000000000000000000000000000000000000000000000000010001000011110101001010
000000000000000000000000000000000000000000000000010001010100010101001111
000000000000000000000000000000000000000000000000010000110100010001001001
000000000000000000000000000000000000000000000000011001010110010101100101
000000000000000000000000000000000000000000000000010000100011111000110000
000000000000000000000000000000000000000000000000101001001001001010001101
000000000000000000000000000000000000000000000000100110101001001110001110
000000000000000000000000000000000000000000000000010101110100011101001101
000000000000000000000000000000000000000000000000100001000110101001110000
000000000000000000000000000000000000000000000000101011111001100110011000
000000000000000000000000000000000000000000000000110100111011111110111000
000000000000000000000000000000000000000000000000111001111101011111010000
000000000000000000000000000000000000000000000000111011001110000011011001
000000000000000000000000000000000000000000000000111011011110000011011010
000000000000000000000000000000000000000000000000111001011101100111010101
000000000000000000000000000000000000000000000000111001001101101011010100
000000000000000000000000000000000000000000000000111001011101100011010101
000000000000000000000000000000000000000000000000111010001101101111010100
000000000000000000000000000000000000000000000000111001111101100011010011
000000000000000000000000000000000000000000000000111010111110000011011000
000000000000000000000000000000000000000000000000111100001110011111011101
000000000000000000000000000000000000000000000000111010111110000011010111
000000000000000000000000000000000000000000000000111011011110000111011001
000000000000000000000000000000000000000000000000111011011110001011011010
000000000000000000000000000000000000000000000000110101111100111011001111
000000000000000000000000000000000000000000000000110100011100111011001101
000000000000000000000000000000000000000000000000110100101100111111010001
000000000000000000000000000000000000000000000000111001001101110111011000
000000000000000000000000000000000000000000000000111100001110010011011011
000000000000000000000000000000000000000000000000111101001110011111011101
000000000000000000000000000000000000000000000000111000011100110111000010
000000000000000000000000000000000000000000000000011100100101110101010111
000000000000000000000000000000000000000000000000001101000010101000011100
000000000000000000000000000000000000000000000000001110010010101000100010
000000000000000000000000000000000000000000000000001000110001110000010001
000000000000000000000000000000000000000000000000000111100001011000010000
000000000000000000000000000000000000000000000000001010000010001100010100
000000000000000000000000000000000000000000000000001011000010111100011011
000000000000000000000000000000000000000000000000000111000000111000001010
000000000000000000000000000000000000000000000000000111000001001100001100
000000000000000000000000000000000000000000000000001010100010101100011000
000000000000000000000000000000000000000000000000001010000001111100010010
000000000000000000000000000000000000000000000000000111100001110100001111
000000000000000000000000000000000000000000000000001010110010100100010101
000000000000000000000000000000000000000000000000001100110011100100100111
000000000000000000000000000000000000000000000000001001000010101100010110
000000000000000000000000000000000000000000000000000110110001101000001100
000000000000000000000000000000000000000000000000000111100001101100010101
000000000000000000000000000000000000000000000000001011000010100100110000
000000000000000000000000000000000000000000000000001111100011010000100101
000000000000000000000000000000000000000000000000001100000011000100011101
000000000000000000000000000000000000000000000000010000000011011100100000
000000000000000000000000000000000000000000000000001010100010100100010111
000000000000000000000000000000000000000000000000001010110010011100010111
000000000000000000000000000000000000000000000000001011110011100000100111
000000000000000000000000000000000000000000000000001011110010100100011111
000000000000000000000000000000000000000000000000001010110010001100010100
000000000000000000000000000000000000000000000000001011010010101000011011
000000000000000000000000000000000000000000000000001111110100011000110101
000000000000000000000000000000000000000000000000001101100011100100101001
000000000000000000000000000000000000000000000000001100100011100101000000
000000000000000000000000000000000000000000000000001111000100101000101101
000000000000000000000000000000000000000000000000001111010100010100101010
000000000000000000000000000000000000000000000000001110010011010000111010
000000000000000000000000000000000000000000000000001110110100000101000011
000000000000000000000000000000000000000000000000001111000011110001001000
000000000000000000000000000000000000000000000000001100010010110100101111
000000000000000000000000000000000000000000000000001100010010100100101101
000000000000000000000000000000000000000000000000001110100011110001000101
000000000000000000000000000000000000000000000000001111000011101101000011
000000000000000000000000000000000000000000000000010001000011110101001001
000000000000000000000000000000000000000000000000001101100010111000110011
000000000000000000000000000000000000000000000000001110100011001100111010
000000000000000000000000000000000000000000000000001111000011011101000011
000000000000000000000000000000000000000000000000001110110011011101000010
000000000000000000000000000000000000000000000000001110000011001000111011
000000000000000000000000000000000000000000000000001110110011010100111110
000000000000000000000000000000000000000000000000001101000011000100110110
000000000000000000000000000000000000000000000000011001010110010101100101
000000000000000000000000000000000000000000000000010011010100001100111001
000000000000000000000000000000000000000000000000011101110110110110000100
000000000000000000000000000000000000000000000000001111110010100101001110
000000000000000000000000000000000000000000000000001010010001101000101110
000000000000000000000000000000000000000000000000010001010011100101001010
000000000000000000000000000000000000000000000000100011001000010010000100
000000000000000000000000000000000000000000000000101100001010010010100011
000000000000000000000000000000000000000000000000110011001100000110111011
000000000000000000000000000000000000000000000000110111101101010011001011
000000000000000000000000000000000000000000000000111000001101010111010000
000000000000000000000000000000000000000000000000111001001101101111010101
000000000000000000000000000000000000000000000000110101011100110111000111
000000000000000000000000000000000000000000000000110111101101001111001111
000000000000000000000000000000000000000000000000111000101101010011001110
000000000000000000000000000000000000000000000000111001001101100011010000
000000000000000000000000000000000000000000000000111001111101101011010101
000000000000000000000000000000000000000000000000111010001101111111010111
000000000000000000000000000000000000000000000000111000101101100111010100
000000000000000000000000000000000000000000000000110111101101000111001110
000000000000000000000000000000000000000000000000111010001101110011010101
000000000000000000000000000000000000000000000000110101011100110011001011
000000000000000000000000000000000000000000000000110110101101001111010010
000000000000000000000000000000000000000000000000111001001101101011010110
000000000000000000000000000000000000000000000000111010011110000111011101
000000000000000000000000000000000000000000000000111100011110011011100000
000000000000000000000000000000000000000000000000111101001110011111100000
000000000000000000000000000000000000000000000000111101001110001111011011
000000000000000000000000000000000000000000000000110100011011100010101111
000000000000000000000000000000000000000000000000010111010101000001000011
000000000000000000000000000000000000000000000000001101000010100000011111
000000000000000000000000000000000000000000000000001010110010000100010101
000000000000000000000000000000000000000000000000001001100001111000011010
000000000000000000000000000000000000000000000000001000010001111100010011
000000000000000000000000000000000000000000000000001001110010000000010111
000000000000000000000000000000000000000000000000001000100001101100010101
000000000000000000000000000000000000000000000000000110100001010000001101
000000000000000000000000000000000000000000000000001001000010010000010111
000000000000000000000000000000000000000000000000000101100000101100001000
000000000000000000000000000000000000000000000000000111110001111100001110
000000000000000000000000000000000000000000000000001110000011011000100011
000000000000000000000000000000000000000000000000001100000010100100011100
000000000000000000000000000000000000000000000000001000100001101000001100
000000000000000000000000000000000000000000000000001101100010110000100010
000000000000000000000000000000000000000000000000001111110011111000101001
000000000000000000000000000000000000000000000000001101010011101100100011
000000000000000000000000000000000000000000000000001101010011010000011110
000000000000000000000000000000000000000000000000010000000011100100101100
000000000000000000000000000000000000000000000000001110110011000100100011
000000000000000000000000000000000000000000000000001010110010010100010010
000000000000000000000000000000000000000000000000001000000001111100001110
000000000000000000000000000000000000000000000000001001110010010100010110
000000000000000000000000000000000000000000000000001101100011001000100100
000000000000000000000000000000000000000000000000001011110010100000010110
000000000000000000000000000000000000000000000000001010100010010000010111
000000000000000000000000000000000000000000000000001000000001100100001100
000000000000000000000000000000000000000000000000000111110010001100010110
000000000000000000000000000000000000000000000000001101010011010100101111
000000000000000000000000000000000000000000000000001100100011011000110010
000000000000000000000000000000000000000000000000001110100100001100110011
000000000000000000000000000000000000000000000000001010110010100100101111
000000000000000000000000000000000000000000000000001110010011111100111010
000000000000000000000000000000000000000000000000001110100011100000111000
000000000000000000000000000000000000000000000000001100100011011100110000
000000000000000000000000000000000000000000000000001111000011100100111110
000000000000000000000000000000000000000000000000010000000100010001000110
000000000000000000000000000000000000000000000000001111100011101101000100
000000000000000000000000000000000000000000000000001101100011001000111010
000000000000000000000000000000000000000000000000001101100011000000110111
000000000000000000000000000000000000000000000000001101000011000000111001
000000000000000000000000000000000000000000000000001111110011101101000011
000000000000000000000000000000000000000000000000001110110011010101000000
000000000000000000000000000000000000000000000000001100000010101100110001
000000000000000000000000000000000000000000000000010011000100110001011011
000000000000000000000000000000000000000000000000001110010011010000111111
000000000000000000000000000000000000000000000000011001010110010101100101
000000000000000000000000000000000000000000000000011000110100101001101110
000000000000000000000000000000000000000000000000011110100101011010010101
000000000000000000000000000000000000000000000000011000110100011001111011
000000000000000000000000000000000000000000000000010101100011101001111010
000000000000000000000000000000000000000000000000001111100011001101011101
000000000000000000000000000000000000000000000000001101110010100101001110
000000000000000000000000000000000000000000000000010100110100110001011111
000000000000000000000000000000000000000000000000100010001000011110001011
000000000000000000000000000000000000000000000000101001011010010010100100
000000000000000000000000000000000000000000000000101100111010111110101011
000000000000000000000000000000000000000000000000101011011010011110101000
000000000000000000000000000000000000000000000000110010011100000110111110
000000000000000000000000000000000000000000000000110100011100010011000001
000000000000000000000000000000000000000000000000110101101100100011000101
000000000000000000000000000000000000000000000000110110101100111011001000
000000000000000000000000000000000000000000000000111000001101010011001101
000000000000000000000000000000000000000000000000111001011101101111010101
000000000000000000000000000000000000000000000000111001001101100111010100
000000000000000000000000000000000000000000000000111000011101010111010010
000000000000000000000000000000000000000000000000111000111101011111010100
000000000000000000000000000000000000000000000000110110111101001011010010
000000000000000000000000000000000000000000000000111001011101111011010111
000000000000000000000000000000000000000000000000111001011101110011011011
000000000000000000000000000000000000000000000000111011001110000111011101
000000000000000000000000000000000000000000000000111100101110100111100010
000000000000000000000000000000000000000000000000111101001110100111100000
000000000000000000000000000000000000000000000000111101011110100111100000
000000000000000000000000000000000000000000000000111100011110000011010110
000000000000000000000000000000000000000000000000101111001010011110011101
000000000000000000000000000000000000000000000000010011100100100100111011
000000000000000000000000000000000000000000000000001010110010000100011100
000000000000000000000000000000000000000000000000001101000011101100100101
000000000000000000000000000000000000000000000000001001100010100100010110
000000000000000000000000000000000000000000000000000111100001001100010000
000000000000000000000000000000000000000000000000000111010001011000010011
000000000000000000000000000000000000000000000000000110110001011000001100
000000000000000000000000000000000000000000000000001010100010100000011101
000000000000000000000000000000000000000000000000001111110011010000100101
000000000000000000000000000000000000000000000000001101000010010100011010
000000000000000000000000000000000000000000000000001001110001111000010101
000000000000000000000000000000000000000000000000000111010001110100001100
000000000000000000000000000000000000000000000000001000100001011000001100
000000000000000000000000000000000000000000000000001101100011000000100000
000000000000000000000000000000000000000000000000010000000011100000101001
000000000000000000000000000000000000000000000000001111000011001000100001
000000000000000000000000000000000000000000000000001111000011101100100111
000000000000000000000000000000000000000000000000001110010011011000100000
000000000000000000000000000000000000000000000000001110010011101000101011
000000000000000000000000000000000000000000000000001001000001110100011001
000000000000000000000000000000000000000000000000001100010011110100101011
000000000000000000000000000000000000000000000000001010100010000100010000
000000000000000000000000000000000000000000000000001011110001111000010010
000000000000000000000000000000000000000000000000001101110011001000100010
000000000000000000000000000000000000000000000000001011000010101100011011
000000000000000000000000000000000000000000000000001001110010100000011010
000000000000000000000000000000000000000000000000001101010011001000101101
000000000000000000000000000000000000000000000000001101010011000100110000
000000000000000000000000000000000000000000000000010000100011111101001000
000000000000000000000000000000000000000000000000001111100100010101000110
000000000000000000000000000000000000000000000000010000110011111101000011
000000000000000000000000000000000000000000000000001110010100010000111000
000000000000000000000000000000000000000000000000001101010011110100101101
000000000000000000000000000000000000000000000000010000100101000101000010
000000000000000000000000000000000000000000000000001010110011110100101101
000000000000000000000000000000000000000000000000001101100011100100110110
000000000000000000000000000000000000000000000000001110100100000101000011
000000000000000000000000000000000000000000000000010000110100001001001101
000000000000000000000000000000000000000000000000001111100011110001000110
000000000000000000000000000000000000000000000000001101010100000100110101
000000000000000000000000000000000000000000000000010100010101000101011001
000000000000000000000000000000000000000000000000010010110100011101010100
000000000000000000000000000000000000000000000000010000100100000001001001
000000000000000000000000000000000000000000000000001100000010110100111000
000000000000000000000000000000000000000000000000001110010011001001000000
000000000000000000000000000000000000000000000000011001010110010101100101
000000000000000000000000000000000000000000000000010010110011101101000000
000000000000000000000000000000000000000000000000011001110100110010010010
000000000000000000000000000000000000000000000000100000000110000010100011
000000000000000000000000000000000000000000000000010111010111001110001110
000000000000000000000000000000000000000000000000001100100010100001001100
000000000000000000000000000000000000000000000000001110010010111101011000
000000000000000000000000000000000000000000000000010010100101100001111001
000000000000000000000000000000000000000000000000010010110110001110000110
000000000000000000000000000000000000000000000000001111110100100101110010
000000000000000000000000000000000000000000000000010000000010110101000011
000000000000000000000000000000000000000000000000010101010100111001100100
000000000000000000000000000000000000000000000000101000101001100010011010
000000000000000000000000000000000000000000000000101110111011001110110010
000000000000000000000000000000000000000000000000110000111011010110110010
000000000000000000000000000000000000000000000000110101011100100011000010
000000000000000000000000000000000000000000000000110101011100110011001001
000000000000000000000000000000000000000000000000111001001101100111010100
000000000000000000000000000000000000000000000000111010101101111011010111
000000000000000000000000000000000000000000000000111010001101110111010110
