memory_initialization_radix=2;
memory_initialization_vector=
000000000000000000000000000000000000000000000000000111100001000100001100
000000000000000000000000000000000000000000000000000101010000100000000111
000000000000000000000000000000000000000000000000000101100000100000001000
000000000000000000000000000000000000000000000000000101010000101000000101
000000000000000000000000000000000000000000000000000110110000100000001001
000000000000000000000000000000000000000000000000000110000000100100001011
000000000000000000000000000000000000000000000000000101110000101100001100
000000000000000000000000000000000000000000000000000110110000101100001010
000000000000000000000000000000000000000000000000100010110110011001100101
000000000000000000000000000000000000000000000000110001111011100110111001
000000000000000000000000000000000000000000000000101100011001101110101011
000000000000000000000000000000000000000000000000110001111011001010110111
000000000000000000000000000000000000000000000000101001101001111010010001
000000000000000000000000000000000000000000000000000111100001100100001110
000000000000000000000000000000000000000000000000000111000001010000001100
000000000000000000000000000000000000000000000000001000000001010000010001
000000000000000000000000000000000000000000000000000101110000101000000110
000000000000000000000000000000000000000000000000000101110000100000001000
000000000000000000000000000000000000000000000000001001010010010000011000
000000000000000000000000000000000000000000000000001010100010100100011001
000000000000000000000000000000000000000000000000000111110001101000010000
000000000000000000000000000000000000000000000000001001010001110000010010
000000000000000000000000000000000000000000000000001010110010011100011001
000000000000000000000000000000000000000000000000001010000010011100010111
000000000000000000000000000000000000000000000000001010110010001100010110
000000000000000000000000000000000000000000000000001010100010011000011001
000000000000000000000000000000000000000000000000000110010001010000001100
000000000000000000000000000000000000000000000000001001010010000100010110
000000000000000000000000000000000000000000000000001010110011100000011011
000000000000000000000000000000000000000000000000000101110000111100001000
000000000000000000000000000000000000000000000000001010110011000000011110
000000000000000000000000000000000000000000000000001001110011010000011111
000000000000000000000000000000000000000000000000001001110011110000100010
000000000000000000000000000000000000000000000000001010010011000100011011
000000000000000000000000000000000000000000000000001101000010111000011110
000000000000000000000000000000000000000000000000001010110010111000011010
000000000000000000000000000000000000000000000000001000100011001000101001
000000000000000000000000000000000000000000000000001101000011001000110101
000000000000000000000000000000000000000000000000001010110010010000100110
000000000000000000000000000000000000000000000000001100000010101000110001
000000000000000000000000000000000000000000000000000110000000101100001110
000000000000000000000000000000000000000000000000001000000001111000010001
000000000000000000000000000000000000000000000000001001010010001100010001
000000000000000000000000000000000000000000000000001100000011000000011111
000000000000000000000000000000000000000000000000000110110001010100001010
000000000000000000000000000000000000000000000000000101010000111100000100
000000000000000000000000000000000000000000000000000101110000100000000110
000000000000000000000000000000000000000000000000000110110001010000001100
000000000000000000000000000000000000000000000000000101100000100000000111
000000000000000000000000000000000000000000000000000101100000100100001011
000000000000000000000000000000000000000000000000000110010010101000001100
000000000000000000000000000000000000000000000000001001000011000000010111
000000000000000000000000000000000000000000000000000101100000100000000101
000000000000000000000000000000000000000000000000000110000000110000001011
000000000000000000000000000000000000000000000000000101010000100100000111
000000000000000000000000000000000000000000000000000101100000011100000011
000000000000000000000000000000000000000000000000000101010000011100000101
000000000000000000000000000000000000000000000000000101100000101100000101
000000000000000000000000000000000000000000000000000101100000101000000100
000000000000000000000000000000000000000000000000000110110001010100001100
000000000000000000000000000000000000000000000000001010000010000000010100
000000000000000000000000000000000000000000000000000110100001000100001001
000000000000000000000000000000000000000000000000000111010001010100001100
000000000000000000000000000000000000000000000000001101000011100000100011
000000000000000000000000000000000000000000000000000101110000100100001011
000000000000000000000000000000000000000000000000000101110000100100000110
000000000000000000000000000000000000000000000000000110010001001100001010
000000000000000000000000000000000000000000000000000101000000011100000110
000000000000000000000000000000000000000000000000000101110000110100001111
000000000000000000000000000000000000000000000000000110000000111000001101
000000000000000000000000000000000000000000000000000101100000100000000110
000000000000000000000000000000000000000000000000000101100000100000000100
000000000000000000000000000000000000000000000000000101100000011100000100
000000000000000000000000000000000000000000000000000101100000100000000101
000000000000000000000000000000000000000000000000011001010110010101100101
000000000000000000000000000000000000000000000000000110100001000000001100
000000000000000000000000000000000000000000000000000110100000101100000111
000000000000000000000000000000000000000000000000000110110000111000001101
000000000000000000000000000000000000000000000000000110010000101100001100
000000000000000000000000000000000000000000000000000110100000110000001010
000000000000000000000000000000000000000000000000000110000000100100001001
000000000000000000000000000000000000000000000000000110000000110100001000
000000000000000000000000000000000000000000000000000111100000111000001011
000000000000000000000000000000000000000000000000110010001011011010110011
000000000000000000000000000000000000000000000000101010011001010010100110
000000000000000000000000000000000000000000000000101001101001001110101000
000000000000000000000000000000000000000000000000101110101010011110110001
000000000000000000000000000000000000000000000000111000111101101111010011
000000000000000000000000000000000000000000000000001101010010010100100011
000000000000000000000000000000000000000000000000001000000001101000001101
000000000000000000000000000000000000000000000000000111110001101000010011
000000000000000000000000000000000000000000000000000110010000101000001000
000000000000000000000000000000000000000000000000000111000001001100001110
000000000000000000000000000000000000000000000000000110010000110100001100
000000000000000000000000000000000000000000000000000111000001000000001010
000000000000000000000000000000000000000000000000000111000001000000001010
000000000000000000000000000000000000000000000000001001010001110100010101
000000000000000000000000000000000000000000000000001001000010001000010011
000000000000000000000000000000000000000000000000001000110010001000001101
000000000000000000000000000000000000000000000000001010010010001100010011
000000000000000000000000000000000000000000000000001000010001110100010000
000000000000000000000000000000000000000000000000000111000001100100001100
000000000000000000000000000000000000000000000000000111100010000100010000
000000000000000000000000000000000000000000000000001011110011011100100100
000000000000000000000000000000000000000000000000001100110011110000100101
000000000000000000000000000000000000000000000000001111000100100100110011
000000000000000000000000000000000000000000000000001100000011101000011011
000000000000000000000000000000000000000000000000001010110011100000011001
000000000000000000000000000000000000000000000000001011000011011100011011
000000000000000000000000000000000000000000000000001000100001110100010100
000000000000000000000000000000000000000000000000001001010011000000011000
000000000000000000000000000000000000000000000000001001000010011000100110
000000000000000000000000000000000000000000000000001011010010011100101010
000000000000000000000000000000000000000000000000001010100010100000100110
000000000000000000000000000000000000000000000000001000100010100000010101
000000000000000000000000000000000000000000000000000101100000101000001011
000000000000000000000000000000000000000000000000001000000001110000011001
000000000000000000000000000000000000000000000000001000100001110000001111
000000000000000000000000000000000000000000000000001011010011000000011100
000000000000000000000000000000000000000000000000000110100001000100001010
000000000000000000000000000000000000000000000000000110000000111100001010
000000000000000000000000000000000000000000000000000101110000101100001011
000000000000000000000000000000000000000000000000001001000010010100001110
000000000000000000000000000000000000000000000000000111010010000100001100
000000000000000000000000000000000000000000000000000101100000101000000010
000000000000000000000000000000000000000000000000000101010000100000000100
000000000000000000000000000000000000000000000000001010010010110100011011
000000000000000000000000000000000000000000000000000111000000111100001011
000000000000000000000000000000000000000000000000000101100000101000000100
000000000000000000000000000000000000000000000000000101010000100100001000
000000000000000000000000000000000000000000000000000101100000011100000011
000000000000000000000000000000000000000000000000000101000000101100000111
000000000000000000000000000000000000000000000000000110000000110000000111
000000000000000000000000000000000000000000000000000101100000101100000110
000000000000000000000000000000000000000000000000001001110001111100001110
000000000000000000000000000000000000000000000000001011010010000100010110
000000000000000000000000000000000000000000000000001000110001101100001010
000000000000000000000000000000000000000000000000000110000001000000001000
000000000000000000000000000000000000000000000000000110110001011100001100
000000000000000000000000000000000000000000000000000101010000101100001100
000000000000000000000000000000000000000000000000001000000010110100010000
000000000000000000000000000000000000000000000000001000100010100000010010
000000000000000000000000000000000000000000000000001011000010101000011011
000000000000000000000000000000000000000000000000000110100001000100001001
000000000000000000000000000000000000000000000000000101010000100000000011
000000000000000000000000000000000000000000000000000101100000110100001000
000000000000000000000000000000000000000000000000000110000000111100001001
000000000000000000000000000000000000000000000000000101010000100100000011
000000000000000000000000000000000000000000000000000101100000100000000101
000000000000000000000000000000000000000000000000011001010110010101100101
000000000000000000000000000000000000000000000000000101010000101000001010
000000000000000000000000000000000000000000000000000110110000101100001001
000000000000000000000000000000000000000000000000000110110000110000001011
000000000000000000000000000000000000000000000000000111000000111000001011
000000000000000000000000000000000000000000000000000110010000101000001001
000000000000000000000000000000000000000000000000000110010000100000001011
000000000000000000000000000000000000000000000000001000010001001100010010
000000000000000000000000000000000000000000000000001110110001101000011111
000000000000000000000000000000000000000000000000101110111010110110110010
000000000000000000000000000000000000000000000000101001111001001010101100
000000000000000000000000000000000000000000000000101010011001010010101100
000000000000000000000000000000000000000000000000110001101011000110111110
000000000000000000000000000000000000000000000000111011101110010011100000
000000000000000000000000000000000000000000000000101110001010000010011011
000000000000000000000000000000000000000000000000011000110100100001000110
000000000000000000000000000000000000000000000000001000000000111100001111
000000000000000000000000000000000000000000000000000111110001001100001100
000000000000000000000000000000000000000000000000001001100010010000010111
000000000000000000000000000000000000000000000000001001010010010000010111
000000000000000000000000000000000000000000000000001000010001000100001111
000000000000000000000000000000000000000000000000001100010010010100011010
000000000000000000000000000000000000000000000000001000000001110100001111
000000000000000000000000000000000000000000000000000111010001011100001101
000000000000000000000000000000000000000000000000001001010010000000010001
000000000000000000000000000000000000000000000000000110000001000100001001
000000000000000000000000000000000000000000000000001001110010000100011010
000000000000000000000000000000000000000000000000001011000011000000011100
000000000000000000000000000000000000000000000000001010000010100000010011
000000000000000000000000000000000000000000000000000111000001101000001110
000000000000000000000000000000000000000000000000001000010001010000001100
000000000000000000000000000000000000000000000000000110000000111100001001
000000000000000000000000000000000000000000000000001001000010101000010100
000000000000000000000000000000000000000000000000001010110011010000010111
000000000000000000000000000000000000000000000000001100110100011000101011
000000000000000000000000000000000000000000000000001000110001101000010100
000000000000000000000000000000000000000000000000001001100010100100011110
000000000000000000000000000000000000000000000000001000010011010100100111
000000000000000000000000000000000000000000000000001011110010100100101011
000000000000000000000000000000000000000000000000001100000100001000101101
000000000000000000000000000000000000000000000000001001100010101000011000
000000000000000000000000000000000000000000000000000101100000110100001001
000000000000000000000000000000000000000000000000000101000000100100000101
000000000000000000000000000000000000000000000000000111000001101000001111
000000000000000000000000000000000000000000000000001011000011010000011101
000000000000000000000000000000000000000000000000001010110010010000010110
000000000000000000000000000000000000000000000000001110010011001000100100
000000000000000000000000000000000000000000000000000110100001000100010001
000000000000000000000000000000000000000000000000001001000010010000010010
000000000000000000000000000000000000000000000000001010000010100100010101
000000000000000000000000000000000000000000000000000111000010000000001111
000000000000000000000000000000000000000000000000000101010000100000000101
000000000000000000000000000000000000000000000000000110000000110000001000
000000000000000000000000000000000000000000000000000111100001111000010100
000000000000000000000000000000000000000000000000000110010000111000001010
000000000000000000000000000000000000000000000000000101010000100000000111
000000000000000000000000000000000000000000000000000101000000011100000101
000000000000000000000000000000000000000000000000000101110000110100000011
000000000000000000000000000000000000000000000000000110010001010000001001
000000000000000000000000000000000000000000000000000101000000110100000011
000000000000000000000000000000000000000000000000000101110001000100000101
000000000000000000000000000000000000000000000000001001010010000100001111
000000000000000000000000000000000000000000000000001000000001101000001011
000000000000000000000000000000000000000000000000000110100001010100001010
000000000000000000000000000000000000000000000000000110100001000100001011
000000000000000000000000000000000000000000000000000110110001000000001010
000000000000000000000000000000000000000000000000000111010001100000001010
000000000000000000000000000000000000000000000000001010000010111100010111
000000000000000000000000000000000000000000000000001011110011000100011101
000000000000000000000000000000000000000000000000000111010001111100001100
000000000000000000000000000000000000000000000000000101110000100100000111
000000000000000000000000000000000000000000000000000101100000101000001000
000000000000000000000000000000000000000000000000000110100000110100001100
000000000000000000000000000000000000000000000000000101000000100100000011
000000000000000000000000000000000000000000000000000101010000100100001011
000000000000000000000000000000000000000000000000011001010110010101100101
000000000000000000000000000000000000000000000000000110000000101100001010
000000000000000000000000000000000000000000000000000110010000101000001000
000000000000000000000000000000000000000000000000001000010001010100001100
000000000000000000000000000000000000000000000000000111000001000000001100
000000000000000000000000000000000000000000000000000110110000100000001010
000000000000000000000000000000000000000000000000000111000000101000010001
000000000000000000000000000000000000000000000000001111010010110000101011
000000000000000000000000000000000000000000000000101111101001110110011001
000000000000000000000000000000000000000000000000101101001010000110101011
000000000000000000000000000000000000000000000000101001111000101010101000
000000000000000000000000000000000000000000000000110100101011010110111110
000000000000000000000000000000000000000000000000111001101101000111010011
000000000000000000000000000000000000000000000000111101101110111011100110
000000000000000000000000000000000000000000000000111100011110001011011100
000000000000000000000000000000000000000000000000101010111001010110001110
000000000000000000000000000000000000000000000000001100000001111100011000
000000000000000000000000000000000000000000000000000110100001000000001011
000000000000000000000000000000000000000000000000000111000001010000001101
000000000000000000000000000000000000000000000000001010010010001100010110
000000000000000000000000000000000000000000000000001010110010011100010111
000000000000000000000000000000000000000000000000001011110010100000011010
000000000000000000000000000000000000000000000000001101110010100100011010
000000000000000000000000000000000000000000000000001000100001101000001111
000000000000000000000000000000000000000000000000000110110001011000001100
000000000000000000000000000000000000000000000000000111000001001100001011
000000000000000000000000000000000000000000000000000111000001011100001010
000000000000000000000000000000000000000000000000001010110010111000011001
000000000000000000000000000000000000000000000000001010110010111000010111
000000000000000000000000000000000000000000000000001001110010110100011000
000000000000000000000000000000000000000000000000001011110010101000011001
000000000000000000000000000000000000000000000000001001000001111100010011
000000000000000000000000000000000000000000000000000110010000101100001100
000000000000000000000000000000000000000000000000000111000001011100001100
000000000000000000000000000000000000000000000000000111100010010100010010
000000000000000000000000000000000000000000000000001000000010001100010000
000000000000000000000000000000000000000000000000001000110010010100010111
000000000000000000000000000000000000000000000000001010000010010000100010
000000000000000000000000000000000000000000000000001010110100001100101110
000000000000000000000000000000000000000000000000001011100100000100100100
000000000000000000000000000000000000000000000000001011000011011000011011
000000000000000000000000000000000000000000000000001100110100100000101111
000000000000000000000000000000000000000000000000000110000000111100001010
000000000000000000000000000000000000000000000000000110010000111000001001
000000000000000000000000000000000000000000000000001010110011010100011100
000000000000000000000000000000000000000000000000001101000010110100100000
000000000000000000000000000000000000000000000000010000110011101100101100
000000000000000000000000000000000000000000000000001101100011001100101000
000000000000000000000000000000000000000000000000001001000010000000011010
000000000000000000000000000000000000000000000000001011100011000000011111
000000000000000000000000000000000000000000000000000110010010011000001011
000000000000000000000000000000000000000000000000000111010001101100001111
000000000000000000000000000000000000000000000000000110000000101000001010
000000000000000000000000000000000000000000000000000111000010001000001100
000000000000000000000000000000000000000000000000001001010010011000010010
000000000000000000000000000000000000000000000000000110000000110000001010
000000000000000000000000000000000000000000000000000110000000100100001010
000000000000000000000000000000000000000000000000000101100000110000000111
000000000000000000000000000000000000000000000000000110010001100100001111
000000000000000000000000000000000000000000000000000110000001001000001010
000000000000000000000000000000000000000000000000000110010001010000001011
000000000000000000000000000000000000000000000000000101010001000000000011
000000000000000000000000000000000000000000000000000111010001100100001011
000000000000000000000000000000000000000000000000000111010001101000001100
000000000000000000000000000000000000000000000000000110100001010100001001
000000000000000000000000000000000000000000000000000111000000111100001000
000000000000000000000000000000000000000000000000000101110000110000001011
000000000000000000000000000000000000000000000000001011000011000000010111
000000000000000000000000000000000000000000000000001001100010110000010111
000000000000000000000000000000000000000000000000001010100010111000010111
000000000000000000000000000000000000000000000000001001010010001100011001
000000000000000000000000000000000000000000000000000110110001001000010110
000000000000000000000000000000000000000000000000000110000000100100001011
000000000000000000000000000000000000000000000000000110000000101100001010
000000000000000000000000000000000000000000000000000110010000111100010011
000000000000000000000000000000000000000000000000011001010110010101100101
000000000000000000000000000000000000000000000000000101100000100000000100
000000000000000000000000000000000000000000000000000110010000110100001011
000000000000000000000000000000000000000000000000000110110000111100001100
000000000000000000000000000000000000000000000000001010000001011100010001
000000000000000000000000000000000000000000000000001010000001001100010001
000000000000000000000000000000000000000000000000010100110011010100110011
000000000000000000000000000000000000000000000000101101001000111010001100
000000000000000000000000000000000000000000000000110101111100000010111100
000000000000000000000000000000000000000000000000101101101001100110101000
000000000000000000000000000000000000000000000000110101111011010110111101
000000000000000000000000000000000000000000000000111011111101011111010100
000000000000000000000000000000000000000000000000111110111110101111100011
000000000000000000000000000000000000000000000000111111011111000111101001
000000000000000000000000000000000000000000000000111110111111001011101001
000000000000000000000000000000000000000000000000111101001110010011011101
000000000000000000000000000000000000000000000000010001110011010100101100
000000000000000000000000000000000000000000000000001000100001010100001111
000000000000000000000000000000000000000000000000000111010000111100001100
000000000000000000000000000000000000000000000000001001100001101100010011
000000000000000000000000000000000000000000000000001010110010010100010101
000000000000000000000000000000000000000000000000001011110010100100010111
000000000000000000000000000000000000000000000000001011000010010100010100
000000000000000000000000000000000000000000000000001010010010011000010110
000000000000000000000000000000000000000000000000001010100010000100010001
000000000000000000000000000000000000000000000000001001000001111000010011
000000000000000000000000000000000000000000000000000110010000110100001001
000000000000000000000000000000000000000000000000000111010001010000001100
000000000000000000000000000000000000000000000000001101100011011000011111
000000000000000000000000000000000000000000000000001011010010110000011000
000000000000000000000000000000000000000000000000001010000010100100010101
000000000000000000000000000000000000000000000000001010110010100100010100
000000000000000000000000000000000000000000000000001001100001101000010001
000000000000000000000000000000000000000000000000001010010011101100100110
000000000000000000000000000000000000000000000000000111110010011000001101
000000000000000000000000000000000000000000000000001000010010011000010010
000000000000000000000000000000000000000000000000001001000010000000010111
000000000000000000000000000000000000000000000000001001110010000000011010
000000000000000000000000000000000000000000000000000111110011000100010111
000000000000000000000000000000000000000000000000001011010011011000011101
000000000000000000000000000000000000000000000000001011000011010000011101
000000000000000000000000000000000000000000000000001110000110000000111000
000000000000000000000000000000000000000000000000001010110100101000101011
000000000000000000000000000000000000000000000000001010010010111000011001
000000000000000000000000000000000000000000000000001100010100011000101100
000000000000000000000000000000000000000000000000001110000011000100100010
000000000000000000000000000000000000000000000000001110100011011000100110
000000000000000000000000000000000000000000000000001111100100011100110100
000000000000000000000000000000000000000000000000001111100011101100101110
000000000000000000000000000000000000000000000000001100110011001100100010
000000000000000000000000000000000000000000000000001010110010010000010101
000000000000000000000000000000000000000000000000001101000010101100011110
000000000000000000000000000000000000000000000000001001010001110000010111
000000000000000000000000000000000000000000000000000110000000101100001000
000000000000000000000000000000000000000000000000000110010001001000010101
000000000000000000000000000000000000000000000000000110110001000100001111
000000000000000000000000000000000000000000000000000110010001000000001111
000000000000000000000000000000000000000000000000000101100000101100000101
000000000000000000000000000000000000000000000000000110100011001100011010
000000000000000000000000000000000000000000000000000110000010111100010011
000000000000000000000000000000000000000000000000001000000001101000010010
000000000000000000000000000000000000000000000000000110110001010000001011
000000000000000000000000000000000000000000000000001001000001110100010100
000000000000000000000000000000000000000000000000001010110010010100010111
000000000000000000000000000000000000000000000000000111000001101100001101
000000000000000000000000000000000000000000000000001011000010100100010110
000000000000000000000000000000000000000000000000001010000010000000010011
000000000000000000000000000000000000000000000000000110000000101100001110
000000000000000000000000000000000000000000000000001000110010001100010010
000000000000000000000000000000000000000000000000001001000010001100010101
000000000000000000000000000000000000000000000000000110110001010100001111
000000000000000000000000000000000000000000000000000110110000111000001111
000000000000000000000000000000000000000000000000000111000001100000001100
000000000000000000000000000000000000000000000000000110110001100000001100
000000000000000000000000000000000000000000000000000110100000111100010100
000000000000000000000000000000000000000000000000011001010110010101100101
000000000000000000000000000000000000000000000000000101110000101100001100
000000000000000000000000000000000000000000000000000111110001001000001101
000000000000000000000000000000000000000000000000001011110001110100011000
000000000000000000000000000000000000000000000000100000000101111101011010
000000000000000000000000000000000000000000000000110011011011000010101000
000000000000000000000000000000000000000000000000101111011001101110011000
000000000000000000000000000000000000000000000000111001101100111011001001
000000000000000000000000000000000000000000000000111000101100101011001000
000000000000000000000000000000000000000000000000111010001100110111001001
000000000000000000000000000000000000000000000000111101111110010011011100
000000000000000000000000000000000000000000000000111111011110111011100101
000000000000000000000000000000000000000000000000111111011111000111101000
000000000000000000000000000000000000000000000000111111111111010011101011
000000000000000000000000000000000000000000000000111111101111010011101011
000000000000000000000000000000000000000000000000111111101111001011101001
000000000000000000000000000000000000000000000000101110001001100110010100
000000000000000000000000000000000000000000000000001110000010000100100000
000000000000000000000000000000000000000000000000001010100001110100010111
000000000000000000000000000000000000000000000000001010110010010000011011
000000000000000000000000000000000000000000000000001011100010001100011001
000000000000000000000000000000000000000000000000001011100010100000011010
000000000000000000000000000000000000000000000000001101100010010100011111
000000000000000000000000000000000000000000000000101001001000010110000100
000000000000000000000000000000000000000000000000101100011001111010011100
000000000000000000000000000000000000000000000000001011000001101100011010
000000000000000000000000000000000000000000000000001001010001101000010011
000000000000000000000000000000000000000000000000000110100001010000001100
000000000000000000000000000000000000000000000000001011000011000100011100
000000000000000000000000000000000000000000000000001100000011001100011100
000000000000000000000000000000000000000000000000000110010001000000001101
000000000000000000000000000000000000000000000000000101110000101100001011
000000000000000000000000000000000000000000000000000111010001000100010000
000000000000000000000000000000000000000000000000001011100011100100100000
000000000000000000000000000000000000000000000000001001110011010100011100
000000000000000000000000000000000000000000000000001001110010101000010110
000000000000000000000000000000000000000000000000001000110010001000010010
000000000000000000000000000000000000000000000000000111110001101000010000
000000000000000000000000000000000000000000000000000110100001110000010010
000000000000000000000000000000000000000000000000001011100011100000011100
000000000000000000000000000000000000000000000000001010010010101000010111
000000000000000000000000000000000000000000000000000111110011111100011101
000000000000000000000000000000000000000000000000001111010101100000111000
000000000000000000000000000000000000000000000000001100100100000100100110
000000000000000000000000000000000000000000000000001100010100100100101101
000000000000000000000000000000000000000000000000001001100010010000010100
000000000000000000000000000000000000000000000000001110100011100000100011
000000000000000000000000000000000000000000000000001101010011010000011111
000000000000000000000000000000000000000000000000000110000001000000001001
000000000000000000000000000000000000000000000000001001010001111000010101
000000000000000000000000000000000000000000000000001011100011100100100011
000000000000000000000000000000000000000000000000001111110100011000101101
000000000000000000000000000000000000000000000000001110010011101000101000
000000000000000000000000000000000000000000000000001010100010111100011111
000000000000000000000000000000000000000000000000000111010010110100010111
000000000000000000000000000000000000000000000000000110100001001000001100
000000000000000000000000000000000000000000000000001000000001100000001111
000000000000000000000000000000000000000000000000000110010000101100001011
000000000000000000000000000000000000000000000000001001010010101000011000
000000000000000000000000000000000000000000000000000111110010110100011000
000000000000000000000000000000000000000000000000001100000101011000110000
000000000000000000000000000000000000000000000000001010010010100100010101
000000000000000000000000000000000000000000000000001000110001101100001101
000000000000000000000000000000000000000000000000000111100001111100010001
000000000000000000000000000000000000000000000000001000000001110100010100
000000000000000000000000000000000000000000000000001001010010001000010010
000000000000000000000000000000000000000000000000001100010010110100100000
000000000000000000000000000000000000000000000000001001100010001000011010
000000000000000000000000000000000000000000000000000111110001000100010010
000000000000000000000000000000000000000000000000000111000001101100010001
000000000000000000000000000000000000000000000000000110110001011100001000
000000000000000000000000000000000000000000000000000111000001001100001001
000000000000000000000000000000000000000000000000000110010000111100001010
000000000000000000000000000000000000000000000000000111000001010000001011
000000000000000000000000000000000000000000000000001000110001100000001011
000000000000000000000000000000000000000000000000011001010110010101100101
000000000000000000000000000000000000000000000000000111100000110100001100
000000000000000000000000000000000000000000000000001000100001010000001100
000000000000000000000000000000000000000000000000010101110011100100110101
000000000000000000000000000000000000000000000000101100111000111010001111
000000000000000000000000000000000000000000000000110110011100000010111001
000000000000000000000000000000000000000000000000111011001101010111010000
000000000000000000000000000000000000000000000000111010101101100111010001
000000000000000000000000000000000000000000000000111010011101000011001001
000000000000000000000000000000000000000000000000111110011110001111011100
000000000000000000000000000000000000000000000000111111011110110111100101
000000000000000000000000000000000000000000000000111111101110111111100110
000000000000000000000000000000000000000000000000111111111111001111101010
000000000000000000000000000000000000000000000000111111101111010011101011
000000000000000000000000000000000000000000000000111111101111010011101011
000000000000000000000000000000000000000000000000111111011111001111101010
000000000000000000000000000000000000000000000000111111011111001011101001
000000000000000000000000000000000000000000000000111101101110101011011111
000000000000000000000000000000000000000000000000100111000111011101110101
000000000000000000000000000000000000000000000000010011100010111100110010
000000000000000000000000000000000000000000000000110000001010100110100010
000000000000000000000000000000000000000000000000101011101001100010001111
000000000000000000000000000000000000000000000000110100001100001110111110
000000000000000000000000000000000000000000000000110001111011100010111001
000000000000000000000000000000000000000000000000110111111101010011001111
000000000000000000000000000000000000000000000000010001000011010000101101
000000000000000000000000000000000000000000000000001010010001111100010111
000000000000000000000000000000000000000000000000001000110001110100010101
000000000000000000000000000000000000000000000000001001010010101000010100
000000000000000000000000000000000000000000000000001010110010110000010100
000000000000000000000000000000000000000000000000000111110010000000001111
000000000000000000000000000000000000000000000000001101010011010000100100
000000000000000000000000000000000000000000000000001001110010100000010101
000000000000000000000000000000000000000000000000001001000010110100010101
000000000000000000000000000000000000000000000000001010010011000000010101
000000000000000000000000000000000000000000000000001001010010111100010101
000000000000000000000000000000000000000000000000001000100010111000011000
000000000000000000000000000000000000000000000000000111100010001100001101
000000000000000000000000000000000000000000000000000111000001000000010001
000000000000000000000000000000000000000000000000001001010010111100011011
000000000000000000000000000000000000000000000000001001000010101000010101
000000000000000000000000000000000000000000000000000111010011001000011010
000000000000000000000000000000000000000000000000001010010011000000011010
000000000000000000000000000000000000000000000000001101110100010100101011
000000000000000000000000000000000000000000000000001110000100111000110000
000000000000000000000000000000000000000000000000001011010011010100011111
000000000000000000000000000000000000000000000000001101110011110100101000
000000000000000000000000000000000000000000000000001110010011100100100110
000000000000000000000000000000000000000000000000000111110001011000001011
000000000000000000000000000000000000000000000000001001100010001000010011
000000000000000000000000000000000000000000000000001001100010111100011111
000000000000000000000000000000000000000000000000001100100011110100100100
000000000000000000000000000000000000000000000000001111010011111000101000
000000000000000000000000000000000000000000000000001000110010010000010111
000000000000000000000000000000000000000000000000000101100010100000010010
000000000000000000000000000000000000000000000000001000100010101000011000
000000000000000000000000000000000000000000000000000111000010100100010010
000000000000000000000000000000000000000000000000001100000100000000100100
000000000000000000000000000000000000000000000000001101000011011100100010
000000000000000000000000000000000000000000000000001000110010001100001111
000000000000000000000000000000000000000000000000000110100011000000010011
000000000000000000000000000000000000000000000000000111000011011100011101
000000000000000000000000000000000000000000000000000101110000101000000101
000000000000000000000000000000000000000000000000000111000001000000001011
000000000000000000000000000000000000000000000000000110000000111100001000
000000000000000000000000000000000000000000000000000110100001010100001111
000000000000000000000000000000000000000000000000001000000001101100001110
000000000000000000000000000000000000000000000000000111000001100000001100
000000000000000000000000000000000000000000000000001001010010011100010111
000000000000000000000000000000000000000000000000001100010010101000011000
000000000000000000000000000000000000000000000000001010010010011000010111
000000000000000000000000000000000000000000000000001000110011101000100000
000000000000000000000000000000000000000000000000001000110010100100010010
000000000000000000000000000000000000000000000000000110110010110000010001
000000000000000000000000000000000000000000000000000110000001011000001101
000000000000000000000000000000000000000000000000011001010110010101100101
000000000000000000000000000000000000000000000000001010110001111100001111
000000000000000000000000000000000000000000000000001001010001100000010100
000000000000000000000000000000000000000000000000101000111000100110000011
000000000000000000000000000000000000000000000000110110111100001110111011
000000000000000000000000000000000000000000000000111010001101001011001011
000000000000000000000000000000000000000000000000111011101101110111010101
000000000000000000000000000000000000000000000000111000101100100011000100
000000000000000000000000000000000000000000000000111100101101101111010100
000000000000000000000000000000000000000000000000111111011110100111011111
000000000000000000000000000000000000000000000000111111001110110011100011
000000000000000000000000000000000000000000000000111110111110111111100110
000000000000000000000000000000000000000000000000111111001111000011100111
000000000000000000000000000000000000000000000000111111011111000111101000
000000000000000000000000000000000000000000000000111111011111001011101001
000000000000000000000000000000000000000000000000111111111111010011101011
000000000000000000000000000000000000000000000000111111111111010011101011
000000000000000000000000000000000000000000000000111111111111010011101011
000000000000000000000000000000000000000000000000111111011110111111100111
000000000000000000000000000000000000000000000000111110011110100011011110
000000000000000000000000000000000000000000000000111000111101011011001111
000000000000000000000000000000000000000000000000110000011011001010111000
000000000000000000000000000000000000000000000000100110001000011110011010
000000000000000000000000000000000000000000000000101000111000110010011111
000000000000000000000000000000000000000000000000110110001100100111000110
000000000000000000000000000000000000000000000000010000100011101000101011
000000000000000000000000000000000000000000000000001010010010100100010101
000000000000000000000000000000000000000000000000001000100010010000010010
000000000000000000000000000000000000000000000000001001010010111000011010
000000000000000000000000000000000000000000000000000111010010010000001100
000000000000000000000000000000000000000000000000000111010001101000001100
000000000000000000000000000000000000000000000000010000100100010000101101
000000000000000000000000000000000000000000000000001101000011101000011111
000000000000000000000000000000000000000000000000001000010001111000010101
000000000000000000000000000000000000000000000000001010000010001100011111
000000000000000000000000000000000000000000000000001010010010111100011000
000000000000000000000000000000000000000000000000001011110011011100100100
000000000000000000000000000000000000000000000000000111000001110000010001
000000000000000000000000000000000000000000000000000111000001010000010011
000000000000000000000000000000000000000000000000001000110010011100010111
000000000000000000000000000000000000000000000000001000110010111100011101
000000000000000000000000000000000000000000000000000110000001110000010001
000000000000000000000000000000000000000000000000001000100011000100011100
000000000000000000000000000000000000000000000000001001110011101000100100
000000000000000000000000000000000000000000000000001011000100001100101000
000000000000000000000000000000000000000000000000000110110010100100011011
000000000000000000000000000000000000000000000000000110010010011100010011
000000000000000000000000000000000000000000000000000101110010100100010110
000000000000000000000000000000000000000000000000000110110010100100010111
000000000000000000000000000000000000000000000000001011100011011000100010
000000000000000000000000000000000000000000000000001000110010100000010100
000000000000000000000000000000000000000000000000000101110010010000001111
000000000000000000000000000000000000000000000000001010000010110100011010
000000000000000000000000000000000000000000000000000111000001111100010101
000000000000000000000000000000000000000000000000000101010001100100001000
000000000000000000000000000000000000000000000000000111110010101000010100
000000000000000000000000000000000000000000000000001110000100000000100101
000000000000000000000000000000000000000000000000001110000011110000101010
000000000000000000000000000000000000000000000000001111100011100100101011
000000000000000000000000000000000000000000000000001100110100001100100101
000000000000000000000000000000000000000000000000000111010001111100010000
000000000000000000000000000000000000000000000000001010010011100100011010
000000000000000000000000000000000000000000000000000111010000111100010010
000000000000000000000000000000000000000000000000001011100011010100011100
000000000000000000000000000000000000000000000000000111100001011100001101
000000000000000000000000000000000000000000000000000110110001001100010000
000000000000000000000000000000000000000000000000000111100001011100001111
000000000000000000000000000000000000000000000000000111000010100000010000
000000000000000000000000000000000000000000000000001001010011001100011011
000000000000000000000000000000000000000000000000000111000001011100001010
000000000000000000000000000000000000000000000000000111010010111100011100
000000000000000000000000000000000000000000000000000111000001100100001011
000000000000000000000000000000000000000000000000001110000010111000011110
000000000000000000000000000000000000000000000000001000110001101000010010
000000000000000000000000000000000000000000000000000111010010110100010101
000000000000000000000000000000000000000000000000011001010110010101100101
000000000000000000000000000000000000000000000000000111010001010000001100
000000000000000000000000000000000000000000000000001010110001101100011010
000000000000000000000000000000000000000000000000011110110110101001100100
000000000000000000000000000000000000000000000000110000101010101110100111
000000000000000000000000000000000000000000000000111000111100110011000110
000000000000000000000000000000000000000000000000111000111100111111001000
000000000000000000000000000000000000000000000000110000101011000010101001
000000000000000000000000000000000000000000000000111000101100101011000011
000000000000000000000000000000000000000000000000111101001110001111011011
000000000000000000000000000000000000000000000000111110001110011111100000
000000000000000000000000000000000000000000000000111101111110101111100011
000000000000000000000000000000000000000000000000111110001110110111100011
000000000000000000000000000000000000000000000000111110101110111111100101
000000000000000000000000000000000000000000000000111110101111000011100111
000000000000000000000000000000000000000000000000111111011111000111101001
000000000000000000000000000000000000000000000000111111101111001011101001
000000000000000000000000000000000000000000000000111111001111000011101000
000000000000000000000000000000000000000000000000111110001110110011100011
000000000000000000000000000000000000000000000000111100011110000111011001
000000000000000000000000000000000000000000000000110001001011011010111110
000000000000000000000000000000000000000000000000100111101001001010101110
000000000000000000000000000000000000000000000000100011101000001010011111
000000000000000000000000000000000000000000000000100111111000101010100101
000000000000000000000000000000000000000000000000110110111101000111001101
000000000000000000000000000000000000000000000000010000010011001000101010
000000000000000000000000000000000000000000000000001000110010011100010111
000000000000000000000000000000000000000000000000001010000010110100010111
000000000000000000000000000000000000000000000000001100000011001000011110
000000000000000000000000000000000000000000000000001001010010100100010011
000000000000000000000000000000000000000000000000000111100001101100001100
000000000000000000000000000000000000000000000000001101010011010100100010
000000000000000000000000000000000000000000000000001001110010110100010111
000000000000000000000000000000000000000000000000000111110001100100001101
000000000000000000000000000000000000000000000000001000010010100000010110
000000000000000000000000000000000000000000000000001010000010110100011000
000000000000000000000000000000000000000000000000001001000010101000011011
000000000000000000000000000000000000000000000000000111100001111100011010
000000000000000000000000000000000000000000000000000111000001001100010101
000000000000000000000000000000000000000000000000001000000001110100011010
000000000000000000000000000000000000000000000000000111110001101000011100
000000000000000000000000000000000000000000000000001010000010010000011010
000000000000000000000000000000000000000000000000001011000011100100100001
000000000000000000000000000000000000000000000000001010000011000000011101
000000000000000000000000000000000000000000000000001011010100100000101010
000000000000000000000000000000000000000000000000000111110010100000010111
000000000000000000000000000000000000000000000000001001010011001000011001
000000000000000000000000000000000000000000000000001110100011100100100111
000000000000000000000000000000000000000000000000001000000011100000011101
000000000000000000000000000000000000000000000000001100000011001000011010
000000000000000000000000000000000000000000000000001100100011100100100101
000000000000000000000000000000000000000000000000000110110010011100010011
000000000000000000000000000000000000000000000000000110110001100000001101
000000000000000000000000000000000000000000000000001011000010110000011011
000000000000000000000000000000000000000000000000001101110011101000101010
000000000000000000000000000000000000000000000000001000000010001000011101
000000000000000000000000000000000000000000000000001000100011000100100001
000000000000000000000000000000000000000000000000001100100100001000101011
000000000000000000000000000000000000000000000000001011000011001100011101
000000000000000000000000000000000000000000000000001010110011111100100000
000000000000000000000000000000000000000000000000001010010010011000010110
000000000000000000000000000000000000000000000000001110000011001000100100
000000000000000000000000000000000000000000000000000111100001101100010011
000000000000000000000000000000000000000000000000000110100000110100001111
000000000000000000000000000000000000000000000000000110100001000000001110
000000000000000000000000000000000000000000000000000110010000110100001100
000000000000000000000000000000000000000000000000001110010011110000101011
000000000000000000000000000000000000000000000000001100110011011000100010
000000000000000000000000000000000000000000000000001011110011101000100010
000000000000000000000000000000000000000000000000001010000001110100011011
000000000000000000000000000000000000000000000000000111000010011000010010
000000000000000000000000000000000000000000000000001011010011100100100001
000000000000000000000000000000000000000000000000001011100011001000011111
000000000000000000000000000000000000000000000000001000010001101000010111
000000000000000000000000000000000000000000000000001011100011100100100101
000000000000000000000000000000000000000000000000011001010110010101100101
000000000000000000000000000000000000000000000000000111100001010100010011
000000000000000000000000000000000000000000000000001001110001101000010110
000000000000000000000000000000000000000000000000011101010110000001011010
000000000000000000000000000000000000000000000000110011001011000110101110
000000000000000000000000000000000000000000000000111010001101001011001001
000000000000000000000000000000000000000000000000101111111010101010100101
000000000000000000000000000000000000000000000000010011000010101100110101
000000000000000000000000000000000000000000000000110111011011111110111110
000000000000000000000000000000000000000000000000111101111110010011011101
000000000000000000000000000000000000000000000000111110001110100011100000
000000000000000000000000000000000000000000000000111100001110000111011010
000000000000000000000000000000000000000000000000111101001110010111100000
000000000000000000000000000000000000000000000000111101101110101111100010
000000000000000000000000000000000000000000000000111101011110100011100000
000000000000000000000000000000000000000000000000111101111110101111100100
000000000000000000000000000000000000000000000000111110011110111011100100
000000000000000000000000000000000000000000000000111101111110101111100010
000000000000000000000000000000000000000000000000111100011110010011011101
000000000000000000000000000000000000000000000000111001001101001011010000
000000000000000000000000000000000000000000000000101100001010001010110011
000000000000000000000000000000000000000000000000100010100111110110100010
000000000000000000000000000000000000000000000000011110110111001010011101
000000000000000000000000000000000000000000000000100110001000011110100101
000000000000000000000000000000000000000000000000110111011101011011010001
000000000000000000000000000000000000000000000000011100100110011001011010
000000000000000000000000000000000000000000000000001101100011000000011100
000000000000000000000000000000000000000000000000001101110011001100100010
000000000000000000000000000000000000000000000000001011010011000000011100
000000000000000000000000000000000000000000000000001010000010101100010111
000000000000000000000000000000000000000000000000000110010001010000001110
000000000000000000000000000000000000000000000000000111110010000000010011
000000000000000000000000000000000000000000000000000111010010011100001111
000000000000000000000000000000000000000000000000000111010001101000001101
000000000000000000000000000000000000000000000000000111110001000100001110
000000000000000000000000000000000000000000000000001010110010111100011111
000000000000000000000000000000000000000000000000000111100010011000001110
000000000000000000000000000000000000000000000000001001100010010000100111
000000000000000000000000000000000000000000000000000111110001100000010101
000000000000000000000000000000000000000000000000001010010010100100011101
000000000000000000000000000000000000000000000000001100100011100000100100
000000000000000000000000000000000000000000000000001011010010111100101111
000000000000000000000000000000000000000000000000001001100010111000011011
000000000000000000000000000000000000000000000000001101000011100100101011
000000000000000000000000000000000000000000000000000101100100000000011000
000000000000000000000000000000000000000000000000001000100011100000011100
000000000000000000000000000000000000000000000000001110110011111100100110
000000000000000000000000000000000000000000000000001110110011110000101001
000000000000000000000000000000000000000000000000001110010011100100101001
000000000000000000000000000000000000000000000000001101100011011000101000
000000000000000000000000000000000000000000000000001101110100100000110011
000000000000000000000000000000000000000000000000001000010011010000010111
000000000000000000000000000000000000000000000000001111010100100000101101
000000000000000000000000000000000000000000000000001010100011000000010111
000000000000000000000000000000000000000000000000000111000010001000010111
000000000000000000000000000000000000000000000000001010010011101000100100
000000000000000000000000000000000000000000000000001001100010111100011101
000000000000000000000000000000000000000000000000001011110011011100100010
000000000000000000000000000000000000000000000000001010010010110000010111
000000000000000000000000000000000000000000000000001101100011100000100011
000000000000000000000000000000000000000000000000001111100110011100111110
000000000000000000000000000000000000000000000000001110100100000100101101
000000000000000000000000000000000000000000000000001011100010100100011000
000000000000000000000000000000000000000000000000001011010010001100001110
000000000000000000000000000000000000000000000000000110100001000100001001
000000000000000000000000000000000000000000000000001010110010101000011010
000000000000000000000000000000000000000000000000001101010011001000011110
000000000000000000000000000000000000000000000000001000000010101000010101
000000000000000000000000000000000000000000000000001001110011010100011110
000000000000000000000000000000000000000000000000001001000010000000011000
000000000000000000000000000000000000000000000000001110010011110000101101
000000000000000000000000000000000000000000000000000111100010011000010101
000000000000000000000000000000000000000000000000001010110011101000100100
000000000000000000000000000000000000000000000000001001000011000000011101
000000000000000000000000000000000000000000000000001000010010000100011010
000000000000000000000000000000000000000000000000011001010110010101100101
000000000000000000000000000000000000000000000000000111000001010000001001
000000000000000000000000000000000000000000000000001101100010011100011110
000000000000000000000000000000000000000000000000101101101001110110011001
000000000000000000000000000000000000000000000000111010001100110011000110
000000000000000000000000000000000000000000000000111010111101001011001010
000000000000000000000000000000000000000000000000111000001100000010111100
000000000000000000000000000000000000000000000000111101101101101111010101
000000000000000000000000000000000000000000000000111111011110111111100111
000000000000000000000000000000000000000000000000111111001110111111100101
000000000000000000000000000000000000000000000000111110011110101111100011
000000000000000000000000000000000000000000000000111100011110000011011001
000000000000000000000000000000000000000000000000111011111101111111011000
000000000000000000000000000000000000000000000000111010101101111011010101
000000000000000000000000000000000000000000000000111100101110001011011011
000000000000000000000000000000000000000000000000111100111110011111100000
000000000000000000000000000000000000000000000000111101101110101011100011
000000000000000000000000000000000000000000000000111101011110011111100000
000000000000000000000000000000000000000000000000111011101110000011011101
000000000000000000000000000000000000000000000000111000011100111111001011
000000000000000000000000000000000000000000000000101001101001100010101001
000000000000000000000000000000000000000000000000011111110111001110011000
000000000000000000000000000000000000000000000000011011100110001110011001
000000000000000000000000000000000000000000000000101100011001110110101011
000000000000000000000000000000000000000000000000110111001101010011010010
000000000000000000000000000000000000000000000000110010101011011110101111
000000000000000000000000000000000000000000000000010111010100110101000010
000000000000000000000000000000000000000000000000001010110010010000010101
000000000000000000000000000000000000000000000000000111000010001000010011
000000000000000000000000000000000000000000000000000110110000111100001110
000000000000000000000000000000000000000000000000000110010001010100001110
000000000000000000000000000000000000000000000000001010110010100100011010
000000000000000000000000000000000000000000000000000111110010010100010100
000000000000000000000000000000000000000000000000001010000010000100010001
000000000000000000000000000000000000000000000000000111010001110100010101
000000000000000000000000000000000000000000000000000111000010001100001101
000000000000000000000000000000000000000000000000001010000010110000011100
000000000000000000000000000000000000000000000000001000010010001000010110
000000000000000000000000000000000000000000000000001000100001101000100001
000000000000000000000000000000000000000000000000001110010011011000110001
000000000000000000000000000000000000000000000000001001000010100100010010
000000000000000000000000000000000000000000000000001110010011101100111010
000000000000000000000000000000000000000000000000001010110010100100101000
000000000000000000000000000000000000000000000000001001010100010100100001
000000000000000000000000000000000000000000000000001001100100011000100010
000000000000000000000000000000000000000000000000001111000100110000110000
000000000000000000000000000000000000000000000000001101110011010000100000
000000000000000000000000000000000000000000000000001110010100101100101011
000000000000000000000000000000000000000000000000010000000011111100101101
000000000000000000000000000000000000000000000000001111010011100100101001
000000000000000000000000000000000000000000000000001110100011111000101001
000000000000000000000000000000000000000000000000001100100100011100101001
000000000000000000000000000000000000000000000000001101010100100000101110
000000000000000000000000000000000000000000000000001011100011100100100011
000000000000000000000000000000000000000000000000001101100100000000101000
000000000000000000000000000000000000000000000000001000100010010000011001
000000000000000000000000000000000000000000000000001001110010100000100000
000000000000000000000000000000000000000000000000001001110010100100011100
000000000000000000000000000000000000000000000000001101110011010100100010
000000000000000000000000000000000000000000000000001010010010101100100100
000000000000000000000000000000000000000000000000001101010101101000110110
000000000000000000000000000000000000000000000000010000100110001100110111
000000000000000000000000000000000000000000000000001101100011010100100001
000000000000000000000000000000000000000000000000001101100010100100011100
000000000000000000000000000000000000000000000000001011010011011000100111
000000000000000000000000000000000000000000000000001010110010000000010111
000000000000000000000000000000000000000000000000001101100011000000100110
000000000000000000000000000000000000000000000000001010010010100000011011
000000000000000000000000000000000000000000000000001000010001110100010010
000000000000000000000000000000000000000000000000000111010001010000010011
000000000000000000000000000000000000000000000000000111000001110000010110
000000000000000000000000000000000000000000000000000111000001011100010111
000000000000000000000000000000000000000000000000001010110010000100101101
000000000000000000000000000000000000000000000000001001110011010100110001
000000000000000000000000000000000000000000000000001010000010100100100100
000000000000000000000000000000000000000000000000011001010110010101100101
000000000000000000000000000000000000000000000000001101000010110100100000
000000000000000000000000000000000000000000000000011000110101000001000111
000000000000000000000000000000000000000000000000100000000110001001110000
000000000000000000000000000000000000000000000000100101110111001110000100
000000000000000000000000000000000000000000000000110110111100000110111010
000000000000000000000000000000000000000000000000111011111101100011001110
000000000000000000000000000000000000000000000000111101111110010011011101
000000000000000000000000000000000000000000000000111111001110110111100101
000000000000000000000000000000000000000000000000111110101110110011100110
000000000000000000000000000000000000000000000000111101011110100011100000
000000000000000000000000000000000000000000000000110101111100010010111110
000000000000000000000000000000000000000000000000101111001010110110101100
000000000000000000000000000000000000000000000000111001101101010111001101
000000000000000000000000000000000000000000000000111100011110001011011001
000000000000000000000000000000000000000000000000111100101110001011011101
000000000000000000000000000000000000000000000000111100011110010111011100
000000000000000000000000000000000000000000000000111100011110010011011100
000000000000000000000000000000000000000000000000111010101101110111011010
000000000000000000000000000000000000000000000000111000101101000111001101
000000000000000000000000000000000000000000000000101111101010110010110101
000000000000000000000000000000000000000000000000010111100101000101111011
000000000000000000000000000000000000000000000000010101010100011010000000
000000000000000000000000000000000000000000000000101110111010111010110100
000000000000000000000000000000000000000000000000110011111100100011001001
000000000000000000000000000000000000000000000000110110111101000011000111
000000000000000000000000000000000000000000000000101001101001110110010010
000000000000000000000000000000000000000000000000010101110101011001000010
000000000000000000000000000000000000000000000000001010110010011100100001
000000000000000000000000000000000000000000000000000111100001101000010101
000000000000000000000000000000000000000000000000000111110001110000011000
000000000000000000000000000000000000000000000000001000000010001000010100
000000000000000000000000000000000000000000000000000111100001111100010100
000000000000000000000000000000000000000000000000001010000010010000011010
000000000000000000000000000000000000000000000000001001000010001100010001
000000000000000000000000000000000000000000000000001000000010011000001111
000000000000000000000000000000000000000000000000001111100100100100101111
000000000000000000000000000000000000000000000000001011010011010100011111
000000000000000000000000000000000000000000000000000111010010011100010011
000000000000000000000000000000000000000000000000001100110011011100100110
000000000000000000000000000000000000000000000000001011100011100000100001
000000000000000000000000000000000000000000000000001100110100001000101000
000000000000000000000000000000000000000000000000001010100011001100011011
000000000000000000000000000000000000000000000000001010010011001000010111
000000000000000000000000000000000000000000000000001011010100001100100101
000000000000000000000000000000000000000000000000001000100100000000011011
000000000000000000000000000000000000000000000000010000110100001100110111
000000000000000000000000000000000000000000000000001101110011100100100101
000000000000000000000000000000000000000000000000001110000011010000100101
000000000000000000000000000000000000000000000000001111010011101000101101
000000000000000000000000000000000000000000000000001110110011101100101010
000000000000000000000000000000000000000000000000001100000011100100100001
000000000000000000000000000000000000000000000000001100100100110000101000
000000000000000000000000000000000000000000000000001010110100100000100010
000000000000000000000000000000000000000000000000001110100101100000110010
000000000000000000000000000000000000000000000000001100010011111000100001
000000000000000000000000000000000000000000000000000111110011011100011001
000000000000000000000000000000000000000000000000001101100011111000110100
000000000000000000000000000000000000000000000000001010110011000000100010
000000000000000000000000000000000000000000000000001010000010110000100000
000000000000000000000000000000000000000000000000001110100100111100110011
000000000000000000000000000000000000000000000000001110010101111000110010
000000000000000000000000000000000000000000000000010000010110100001000000
000000000000000000000000000000000000000000000000001000100001100100011000
000000000000000000000000000000000000000000000000001001000011010100100111
000000000000000000000000000000000000000000000000001110000100110100111111
000000000000000000000000000000000000000000000000001010110010011100100110
000000000000000000000000000000000000000000000000001010100010011000100100
000000000000000000000000000000000000000000000000001011110010010000101010
000000000000000000000000000000000000000000000000001001000001101000011111
000000000000000000000000000000000000000000000000001001000001011000011010
000000000000000000000000000000000000000000000000001011110010100100101111
000000000000000000000000000000000000000000000000001011000010011100101101
000000000000000000000000000000000000000000000000001010110010110100100010
000000000000000000000000000000000000000000000000001110110011110000101101
000000000000000000000000000000000000000000000000011001010110010101100101
000000000000000000000000000000000000000000000000010001110011110100101110
000000000000000000000000000000000000000000000000011010110101110001010110
000000000000000000000000000000000000000000000000010000000010101100110101
000000000000000000000000000000000000000000000000010001010010111100111000
000000000000000000000000000000000000000000000000011001100100101101010011
000000000000000000000000000000000000000000000000110110001011010010110001
000000000000000000000000000000000000000000000000111101001110000111011011
000000000000000000000000000000000000000000000000111110101110100111100010
000000000000000000000000000000000000000000000000111110011110110111100100
000000000000000000000000000000000000000000000000111100001110000111011010
000000000000000000000000000000000000000000000000011011110101111101101010
000000000000000000000000000000000000000000000000001110000010000000101100
000000000000000000000000000000000000000000000000011000110011111100111101
000000000000000000000000000000000000000000000000111010001101100111010000
000000000000000000000000000000000000000000000000111011011110000011011000
000000000000000000000000000000000000000000000000111010111101111111010110
000000000000000000000000000000000000000000000000111011101110000111011011
000000000000000000000000000000000000000000000000111010111101111011010111
000000000000000000000000000000000000000000000000111010011101100011010011
000000000000000000000000000000000000000000000000110110101100010011000100
000000000000000000000000000000000000000000000000011101100110010010000001
000000000000000000000000000000000000000000000000100100010111101010010101
000000000000000000000000000000000000000000000000101111101011111010111111
000000000000000000000000000000000000000000000000110001111100001111001000
000000000000000000000000000000000000000000000000110110111100111011000111
000000000000000000000000000000000000000000000000101010001001110010001111
000000000000000000000000000000000000000000000000100001100111101001110010
000000000000000000000000000000000000000000000000001011110010001100011100
000000000000000000000000000000000000000000000000000111110001100000010100
000000000000000000000000000000000000000000000000000110110001010100001110
000000000000000000000000000000000000000000000000001000110001101100010010
000000000000000000000000000000000000000000000000001010110010010100100000
000000000000000000000000000000000000000000000000001000110001110100010110
000000000000000000000000000000000000000000000000001000010010000100001010
000000000000000000000000000000000000000000000000001000110010100000010101
000000000000000000000000000000000000000000000000001110000011100000100011
000000000000000000000000000000000000000000000000001010010010101100011000
000000000000000000000000000000000000000000000000000111000001110000001110
000000000000000000000000000000000000000000000000001010110011000100011111
000000000000000000000000000000000000000000000000001100000011101100100000
000000000000000000000000000000000000000000000000001110110100011100101111
000000000000000000000000000000000000000000000000010001100100101000110001
000000000000000000000000000000000000000000000000001100100011111000101001
000000000000000000000000000000000000000000000000000111010001101000010010
000000000000000000000000000000000000000000000000000111110001110000010001
000000000000000000000000000000000000000000000000001101010011101000100101
000000000000000000000000000000000000000000000000001110010011001100100100
000000000000000000000000000000000000000000000000000111000001010000001111
000000000000000000000000000000000000000000000000001001100010100100010111
000000000000000000000000000000000000000000000000001100000011001000100001
000000000000000000000000000000000000000000000000001000010010001000001111
000000000000000000000000000000000000000000000000001101000101000100101101
000000000000000000000000000000000000000000000000001100000011111000100010
000000000000000000000000000000000000000000000000001010100011001000010111
000000000000000000000000000000000000000000000000001000100011110100011101
000000000000000000000000000000000000000000000000000111100011100000010111
000000000000000000000000000000000000000000000000001010110011101100100100
000000000000000000000000000000000000000000000000010001100100001100111110
000000000000000000000000000000000000000000000000001010110100101100110011
000000000000000000000000000000000000000000000000010000010101000100110100
000000000000000000000000000000000000000000000000001101010011101000100100
000000000000000000000000000000000000000000000000000111100100010000101111
000000000000000000000000000000000000000000000000010001110100010001001010
000000000000000000000000000000000000000000000000001101010011001100110110
000000000000000000000000000000000000000000000000001101100011110000111111
000000000000000000000000000000000000000000000000001111010011100101000010
000000000000000000000000000000000000000000000000001100100010111100110100
000000000000000000000000000000000000000000000000001110100011001101000000
000000000000000000000000000000000000000000000000001111000011011101000010
000000000000000000000000000000000000000000000000010000010011110101000011
000000000000000000000000000000000000000000000000001110010011001000111000
000000000000000000000000000000000000000000000000001110010011010100111101
000000000000000000000000000000000000000000000000001011110011100000101010
000000000000000000000000000000000000000000000000010000000011100100101101
000000000000000000000000000000000000000000000000011001010110010101100101
000000000000000000000000000000000000000000000000010011010011100100110101
000000000000000000000000000000000000000000000000010000110011001000101111
000000000000000000000000000000000000000000000000001010110001111000011110
000000000000000000000000000000000000000000000000001100010001111000100100
000000000000000000000000000000000000000000000000010010010011100000111111
000000000000000000000000000000000000000000000000110010001010000110100011
000000000000000000000000000000000000000000000000111100011101111011010101
000000000000000000000000000000000000000000000000111101101110011111011111
000000000000000000000000000000000000000000000000111100011110010011011110
000000000000000000000000000000000000000000000000111100001110001011100000
000000000000000000000000000000000000000000000000110110011100000110111111
000000000000000000000000000000000000000000000000100000110101111001100101
000000000000000000000000000000000000000000000000010011010011101001001000
000000000000000000000000000000000000000000000000101010001000101110010001
000000000000000000000000000000000000000000000000111011001101101111010110
000000000000000000000000000000000000000000000000111011011110000011011010
000000000000000000000000000000000000000000000000111011011110000011011001
000000000000000000000000000000000000000000000000111011011110000011011001
000000000000000000000000000000000000000000000000111010011101100011010011
000000000000000000000000000000000000000000000000111001001101001111010000
000000000000000000000000000000000000000000000000110010011011101110111110
000000000000000000000000000000000000000000000000101111101011110011000000
000000000000000000000000000000000000000000000000110010111100011111001010
000000000000000000000000000000000000000000000000110110101101001111010001
000000000000000000000000000000000000000000000000111001101101101011010011
000000000000000000000000000000000000000000000000101110001010011010011011
000000000000000000000000000000000000000000000000010010010100000000110010
000000000000000000000000000000000000000000000000011001110101111001001111
000000000000000000000000000000000000000000000000010000000100010000101101
000000000000000000000000000000000000000000000000001010000010000000010100
000000000000000000000000000000000000000000000000001010100010110000011100
000000000000000000000000000000000000000000000000001101000100010000101101
000000000000000000000000000000000000000000000000001001100010111000011001
000000000000000000000000000000000000000000000000001100110010110100011010
000000000000000000000000000000000000000000000000001000010010010100010001
000000000000000000000000000000000000000000000000001011100010100100011001
000000000000000000000000000000000000000000000000001000000010001100010011
000000000000000000000000000000000000000000000000000111110001100100001100
000000000000000000000000000000000000000000000000001010010010110100011110
000000000000000000000000000000000000000000000000001011110011010000011111
000000000000000000000000000000000000000000000000001100110011110100101000
000000000000000000000000000000000000000000000000001110110100001000101101
000000000000000000000000000000000000000000000000001100100011111000100101
000000000000000000000000000000000000000000000000000111000001000000010001
000000000000000000000000000000000000000000000000001000110010011100100010
000000000000000000000000000000000000000000000000001100000011000100011100
000000000000000000000000000000000000000000000000001011010011000100011100
000000000000000000000000000000000000000000000000001000000001110000001110
000000000000000000000000000000000000000000000000001110110011010100101011
000000000000000000000000000000000000000000000000001000100001110100001111
000000000000000000000000000000000000000000000000001011100010111000100011
000000000000000000000000000000000000000000000000001000100010011000011100
000000000000000000000000000000000000000000000000001011100011111000100100
000000000000000000000000000000000000000000000000001101000100010000101001
000000000000000000000000000000000000000000000000001000100011011000010100
000000000000000000000000000000000000000000000000000110000010100000011001
000000000000000000000000000000000000000000000000000111000010100100011011
000000000000000000000000000000000000000000000000001000000010111100011110
000000000000000000000000000000000000000000000000001010010011100100100010
000000000000000000000000000000000000000000000000001110000101010100111101
000000000000000000000000000000000000000000000000001101000010111100110001
000000000000000000000000000000000000000000000000001101110101011101000000
000000000000000000000000000000000000000000000000001100010011111000111000
000000000000000000000000000000000000000000000000001111100011100101000001
000000000000000000000000000000000000000000000000010000100011101101001001
000000000000000000000000000000000000000000000000010001010100001001001010
000000000000000000000000000000000000000000000000001101010010110100110011
000000000000000000000000000000000000000000000000001110110011000100111100
000000000000000000000000000000000000000000000000001011100010100000101010
000000000000000000000000000000000000000000000000001110100011100100111110
000000000000000000000000000000000000000000000000001110110011100001000010
000000000000000000000000000000000000000000000000001100010011010000110101
000000000000000000000000000000000000000000000000001110110100101001001111
000000000000000000000000000000000000000000000000010010010100100000111111
000000000000000000000000000000000000000000000000011001010110010101100101
000000000000000000000000000000000000000000000000010011010100000100111001
000000000000000000000000000000000000000000000000010110100100101001001011
000000000000000000000000000000000000000000000000001100110010001100100011
000000000000000000000000000000000000000000000000010100100011110001000011
000000000000000000000000000000000000000000000000011110000101110101100110
000000000000000000000000000000000000000000000000110010011010011010100001
000000000000000000000000000000000000000000000000111010101101001111001101
000000000000000000000000000000000000000000000000111100011110001111011011
000000000000000000000000000000000000000000000000111101011110101011100000
000000000000000000000000000000000000000000000000111100011110010111011101
000000000000000000000000000000000000000000000000111011101101111111010111
000000000000000000000000000000000000000000000000110111101100101111001001
000000000000000000000000000000000000000000000000110101001100011011000001
000000000000000000000000000000000000000000000000110101011100101011000100
000000000000000000000000000000000000000000000000110111011100111111001001
000000000000000000000000000000000000000000000000111010101101111011010101
000000000000000000000000000000000000000000000000111011011110000011011001
000000000000000000000000000000000000000000000000111011101110000111011010
000000000000000000000000000000000000000000000000111011111110000011010111
000000000000000000000000000000000000000000000000111000001100111011001010
000000000000000000000000000000000000000000000000110001011011101111000001
000000000000000000000000000000000000000000000000110000011011110011000000
000000000000000000000000000000000000000000000000110101111101001011010101
000000000000000000000000000000000000000000000000111001001101101111010110
000000000000000000000000000000000000000000000000111010101101111011010111
000000000000000000000000000000000000000000000000110100001011101110110100
000000000000000000000000000000000000000000000000011101000110100001011011
000000000000000000000000000000000000000000000000001011100010011100011001
000000000000000000000000000000000000000000000000010101010101001100111111
000000000000000000000000000000000000000000000000001100010011001000100010
000000000000000000000000000000000000000000000000001010110010000100011010
000000000000000000000000000000000000000000000000001011010100110100101100
000000000000000000000000000000000000000000000000001100010011111000100101
000000000000000000000000000000000000000000000000001101100011011000100000
000000000000000000000000000000000000000000000000001101100011011100100011
000000000000000000000000000000000000000000000000001001000010001000010011
000000000000000000000000000000000000000000000000001000100001100100001111
000000000000000000000000000000000000000000000000000111000000111000001001
000000000000000000000000000000000000000000000000001010110010101000011000
000000000000000000000000000000000000000000000000001101110011101000100111
000000000000000000000000000000000000000000000000001101110011110100101001
000000000000000000000000000000000000000000000000001110000100001100101101
000000000000000000000000000000000000000000000000001010010011000000011001
000000000000000000000000000000000000000000000000000111110001110000010111
000000000000000000000000000000000000000000000000001001000010001000011111
000000000000000000000000000000000000000000000000001001010010011000010101
000000000000000000000000000000000000000000000000001010010010101100011001
000000000000000000000000000000000000000000000000010000010011111100110001
000000000000000000000000000000000000000000000000001101110011000000100001
000000000000000000000000000000000000000000000000001101000010101100011011
000000000000000000000000000000000000000000000000001110110100001100101111
000000000000000000000000000000000000000000000000001110010011101100101001
000000000000000000000000000000000000000000000000001011100010111100100000
000000000000000000000000000000000000000000000000001101110011001100101011
000000000000000000000000000000000000000000000000001010110011100100100010
000000000000000000000000000000000000000000000000001001100010001100100011
000000000000000000000000000000000000000000000000001101000011111100101010
000000000000000000000000000000000000000000000000001101000100011000101010
000000000000000000000000000000000000000000000000001100110100001000100100
000000000000000000000000000000000000000000000000001100100100000100101000
000000000000000000000000000000000000000000000000001101010011000100111010
000000000000000000000000000000000000000000000000001110100011011001000011
000000000000000000000000000000000000000000000000001111000011010101000011
000000000000000000000000000000000000000000000000001111000011011101000001
000000000000000000000000000000000000000000000000010000110011111101000111
000000000000000000000000000000000000000000000000001110110011100100111111
000000000000000000000000000000000000000000000000001111000011011101000010
000000000000000000000000000000000000000000000000001110100011010100111101
000000000000000000000000000000000000000000000000010001000011111001000100
000000000000000000000000000000000000000000000000001111010011011001000011
000000000000000000000000000000000000000000000000001110110011100100111110
000000000000000000000000000000000000000000000000010000010011110101000011
000000000000000000000000000000000000000000000000010001100100100001001111
000000000000000000000000000000000000000000000000010001110100100001001111
000000000000000000000000000000000000000000000000011001010110010101100101
000000000000000000000000000000000000000000000000001110010011100100101110
000000000000000000000000000000000000000000000000100010110111101001111010
000000000000000000000000000000000000000000000000010011100011101000111111
000000000000000000000000000000000000000000000000010110110100010101010001
000000000000000000000000000000000000000000000000100010110110111001110010
000000000000000000000000000000000000000000000000101111011001111110011111
000000000000000000000000000000000000000000000000110110101100001011000000
000000000000000000000000000000000000000000000000111011011101111011010101
000000000000000000000000000000000000000000000000111100001110001111011110
000000000000000000000000000000000000000000000000111011101110000011011011
000000000000000000000000000000000000000000000000111011111110000111011101
000000000000000000000000000000000000000000000000111011001110000011011001
000000000000000000000000000000000000000000000000111000101101011111010010
000000000000000000000000000000000000000000000000110111011101000111001011
000000000000000000000000000000000000000000000000111001011101100111010100
000000000000000000000000000000000000000000000000111011011110000111011011
000000000000000000000000000000000000000000000000111010101101110011010111
000000000000000000000000000000000000000000000000111100011110010111011101
000000000000000000000000000000000000000000000000111100101110011011011110
000000000000000000000000000000000000000000000000111001001101100011010100
000000000000000000000000000000000000000000000000110100011100011111001001
000000000000000000000000000000000000000000000000110100111100111011001110
000000000000000000000000000000000000000000000000110100011100111111010001
000000000000000000000000000000000000000000000000111000111101101111010111
000000000000000000000000000000000000000000000000111100001110001111011011
000000000000000000000000000000000000000000000000111011101101111111010111
000000000000000000000000000000000000000000000000100111011000011101111111
000000000000000000000000000000000000000000000000001110100011000000100010
000000000000000000000000000000000000000000000000001101010010011100011111
000000000000000000000000000000000000000000000000001101100010110000100101
000000000000000000000000000000000000000000000000001001000001111100011101
000000000000000000000000000000000000000000000000000111000001011100001110
000000000000000000000000000000000000000000000000001010110010110100011100
000000000000000000000000000000000000000000000000001100110011000000100010
000000000000000000000000000000000000000000000000001000110001111100010100
000000000000000000000000000000000000000000000000001110010011100100100111
000000000000000000000000000000000000000000000000001000110010010000010010
000000000000000000000000000000000000000000000000000111010001011100010000
000000000000000000000000000000000000000000000000000111100001111100010000
000000000000000000000000000000000000000000000000001011100010111100100000
000000000000000000000000000000000000000000000000001011100011100100100010
000000000000000000000000000000000000000000000000001001000010101100010111
000000000000000000000000000000000000000000000000000111010010001100001101
000000000000000000000000000000000000000000000000001001010010010100011100
000000000000000000000000000000000000000000000000001010000010000000101000
000000000000000000000000000000000000000000000000000111000001000100011000
000000000000000000000000000000000000000000000000001011000010100100011011
000000000000000000000000000000000000000000000000001010010010100100010111
000000000000000000000000000000000000000000000000001010000010010000010011
000000000000000000000000000000000000000000000000001011100010100100010111
000000000000000000000000000000000000000000000000001100100011101000100010
000000000000000000000000000000000000000000000000001100110010111100100100
000000000000000000000000000000000000000000000000001010100010101000100000
000000000000000000000000000000000000000000000000001011000010101100100010
000000000000000000000000000000000000000000000000001110110011100100101000
000000000000000000000000000000000000000000000000001101110011010100110010
000000000000000000000000000000000000000000000000001111100011111101000100
000000000000000000000000000000000000000000000000001110000100100000101010
000000000000000000000000000000000000000000000000010000110100110100110000
000000000000000000000000000000000000000000000000001011100010110100110100
000000000000000000000000000000000000000000000000001101010011001100111010
000000000000000000000000000000000000000000000000001011010010100100110100
000000000000000000000000000000000000000000000000001101010011000100110101
000000000000000000000000000000000000000000000000010000010011111101001010
000000000000000000000000000000000000000000000000001110010011011100111110
000000000000000000000000000000000000000000000000010001100100001001001110
000000000000000000000000000000000000000000000000001111000011100001000100
000000000000000000000000000000000000000000000000010001000100000001001110
000000000000000000000000000000000000000000000000001110010011001100111101
000000000000000000000000000000000000000000000000010001110100011001001101
000000000000000000000000000000000000000000000000010100000100100101010101
000000000000000000000000000000000000000000000000010001000100000101001100
000000000000000000000000000000000000000000000000010001110100010101010000
000000000000000000000000000000000000000000000000010010000100011101010001
000000000000000000000000000000000000000000000000011001010110010101100101
000000000000000000000000000000000000000000000000010000000011010000101010
000000000000000000000000000000000000000000000000101000011001001010001101
000000000000000000000000000000000000000000000000011101000111000101110001
000000000000000000000000000000000000000000000000010011000011111101001000
000000000000000000000000000000000000000000000000011101000110011001101010
000000000000000000000000000000000000000000000000101001101001001110010000
000000000000000000000000000000000000000000000000110010011011001010110000
000000000000000000000000000000000000000000000000110111011100111111000111
000000000000000000000000000000000000000000000000111001101101101011010011
000000000000000000000000000000000000000000000000111011101110000111011001
000000000000000000000000000000000000000000000000111000111101011111010100
000000000000000000000000000000000000000000000000111000111101011111010100
000000000000000000000000000000000000000000000000111001011101100111010100
000000000000000000000000000000000000000000000000111010001101101011010011
000000000000000000000000000000000000000000000000111001001101011111010100
000000000000000000000000000000000000000000000000111001111101110011010110
000000000000000000000000000000000000000000000000111011001110001011011001
000000000000000000000000000000000000000000000000111001101101101011010101
000000000000000000000000000000000000000000000000111010101101111011010111
000000000000000000000000000000000000000000000000111011011110000011011001
000000000000000000000000000000000000000000000000110110001101000011010000
000000000000000000000000000000000000000000000000110100111101000111001101
000000000000000000000000000000000000000000000000110101101101001011010100
000000000000000000000000000000000000000000000000111010001110000011011100
000000000000000000000000000000000000000000000000111100001110010111011110
000000000000000000000000000000000000000000000000111100101110011111011110
000000000000000000000000000000000000000000000000111010111101110011010011
000000000000000000000000000000000000000000000000101001111001001010000110
000000000000000000000000000000000000000000000000010000100011001100101011
000000000000000000000000000000000000000000000000001101100010010100100010
000000000000000000000000000000000000000000000000001000010001110000010010
000000000000000000000000000000000000000000000000000111110001100000010110
000000000000000000000000000000000000000000000000001010110010001000010011
000000000000000000000000000000000000000000000000001001100010001100010111
000000000000000000000000000000000000000000000000000110100000111000001011
000000000000000000000000000000000000000000000000000110010001000000001100
000000000000000000000000000000000000000000000000001001100010100000011000
000000000000000000000000000000000000000000000000000111010001100100001100
000000000000000000000000000000000000000000000000001000100001110100001101
000000000000000000000000000000000000000000000000001011110010111100011100
000000000000000000000000000000000000000000000000001100100011010000100010
000000000000000000000000000000000000000000000000000111010010001100010000
000000000000000000000000000000000000000000000000001001110010011000011011
000000000000000000000000000000000000000000000000001100110011000000100011
000000000000000000000000000000000000000000000000001001110010010000100010
000000000000000000000000000000000000000000000000001111010011011100100100
000000000000000000000000000000000000000000000000001101110011100100100011
000000000000000000000000000000000000000000000000010000010011010100100001
000000000000000000000000000000000000000000000000001011010010011000010110
000000000000000000000000000000000000000000000000001001100010001100010010
000000000000000000000000000000000000000000000000001011110011001000100010
000000000000000000000000000000000000000000000000001100110010111100100110
000000000000000000000000000000000000000000000000001100000010011000010111
000000000000000000000000000000000000000000000000001100000010001100010111
000000000000000000000000000000000000000000000000001101010011011100101000
000000000000000000000000000000000000000000000000001110010011111100101100
000000000000000000000000000000000000000000000000001110000011011000111111
000000000000000000000000000000000000000000000000001110010100011100101100
000000000000000000000000000000000000000000000000001101100011111100100100
000000000000000000000000000000000000000000000000001100100010111000110111
000000000000000000000000000000000000000000000000001101100011001100111001
000000000000000000000000000000000000000000000000001110010011011101000001
000000000000000000000000000000000000000000000000001100010011000000110011
000000000000000000000000000000000000000000000000001110100011001100111100
000000000000000000000000000000000000000000000000001110100011110100111111
000000000000000000000000000000000000000000000000001110000011001000111010
000000000000000000000000000000000000000000000000010000010011101101000111
000000000000000000000000000000000000000000000000010000000011101001001010
000000000000000000000000000000000000000000000000001110000011001000111011
000000000000000000000000000000000000000000000000001110010011001000111001
000000000000000000000000000000000000000000000000001101000010111000111000
000000000000000000000000000000000000000000000000001101010010110100110100
000000000000000000000000000000000000000000000000001110010011001000111100
000000000000000000000000000000000000000000000000001110000011000000111000
000000000000000000000000000000000000000000000000011001010110010101100101
000000000000000000000000000000000000000000000000010000110011011100110110
000000000000000000000000000000000000000000000000011001110100101010000110
000000000000000000000000000000000000000000000000010001110010111101011010
000000000000000000000000000000000000000000000000001011110001111000111000
000000000000000000000000000000000000000000000000001011100010000000110100
000000000000000000000000000000000000000000000000011001110110000101101011
000000000000000000000000000000000000000000000000101000101001111010011101
000000000000000000000000000000000000000000000000101111101011100110110011
000000000000000000000000000000000000000000000000110101001100100011000011
000000000000000000000000000000000000000000000000110101011100101011000110
000000000000000000000000000000000000000000000000110111101101010111001110
000000000000000000000000000000000000000000000000110100111100100011000111
000000000000000000000000000000000000000000000000110110101101000011001010
000000000000000000000000000000000000000000000000111000111101010011001111
000000000000000000000000000000000000000000000000111000111101011011001110
000000000000000000000000000000000000000000000000111001001101011111010100
000000000000000000000000000000000000000000000000111001011101110011010111
000000000000000000000000000000000000000000000000111000111101101011010100
000000000000000000000000000000000000000000000000110111001101000111001110
000000000000000000000000000000000000000000000000111010001101110111010111
000000000000000000000000000000000000000000000000110110001101000011001111
000000000000000000000000000000000000000000000000110111001101001111010011
000000000000000000000000000000000000000000000000111001001101110011011000
000000000000000000000000000000000000000000000000111010011110000111011100
000000000000000000000000000000000000000000000000111100101110011111100000
000000000000000000000000000000000000000000000000111101001110011111011111
000000000000000000000000000000000000000000000000111101011110011011011101
000000000000000000000000000000000000000000000000111001011101010011001001
000000000000000000000000000000000000000000000000011110010110001101010111
000000000000000000000000000000000000000000000000001110000010100100011110
000000000000000000000000000000000000000000000000001001010001110000010100
000000000000000000000000000000000000000000000000001011000010101100011110
000000000000000000000000000000000000000000000000000111000001100100010001
000000000000000000000000000000000000000000000000001100000010011000100001
000000000000000000000000000000000000000000000000001010000001111100011000
000000000000000000000000000000000000000000000000000111000001001100001101
000000000000000000000000000000000000000000000000001000100010001000010101
000000000000000000000000000000000000000000000000000110010000110000001100
000000000000000000000000000000000000000000000000001001000010000000001111
000000000000000000000000000000000000000000000000001010110010100100011110
000000000000000000000000000000000000000000000000001001100010100100010111
000000000000000000000000000000000000000000000000001000010001100100001010
000000000000000000000000000000000000000000000000001111000011010000100100
000000000000000000000000000000000000000000000000010000010011100100100110
000000000000000000000000000000000000000000000000001101000011011000011101
000000000000000000000000000000000000000000000000001101010011001000011100
000000000000000000000000000000000000000000000000001111110100000000101101
000000000000000000000000000000000000000000000000001101000011000000011101
000000000000000000000000000000000000000000000000001011110010011100010110
000000000000000000000000000000000000000000000000000111110001110100001011
000000000000000000000000000000000000000000000000001001010001101100010000
000000000000000000000000000000000000000000000000001100110010110000100010
000000000000000000000000000000000000000000000000001010110010011100010100
000000000000000000000000000000000000000000000000001001010010001100010111
000000000000000000000000000000000000000000000000000111100001101000001100
000000000000000000000000000000000000000000000000001010010010011100011010
000000000000000000000000000000000000000000000000001011110011010000100010
000000000000000000000000000000000000000000000000001110010011100100111100
000000000000000000000000000000000000000000000000001111100100011101000101
000000000000000000000000000000000000000000000000001110000011011001000001
000000000000000000000000000000000000000000000000001110100100001100111011
000000000000000000000000000000000000000000000000001110010011101000110000
000000000000000000000000000000000000000000000000001101100011100100111010
000000000000000000000000000000000000000000000000010000000100010001000101
000000000000000000000000000000000000000000000000001110010011101000111100
000000000000000000000000000000000000000000000000010000000011110001000110
000000000000000000000000000000000000000000000000001111110011110001000101
000000000000000000000000000000000000000000000000001101100010111100110111
000000000000000000000000000000000000000000000000001100100011011000110100
000000000000000000000000000000000000000000000000001111010011100101000001
000000000000000000000000000000000000000000000000001111000011011100111111
000000000000000000000000000000000000000000000000001110000011001000111000
000000000000000000000000000000000000000000000000010001110100011001010010
000000000000000000000000000000000000000000000000001110100011001001000000
000000000000000000000000000000000000000000000000011001010110010101100101
000000000000000000000000000000000000000000000000011100100101101110000001
000000000000000000000000000000000000000000000000100000100101101010011110
000000000000000000000000000000000000000000000000011100000100111010001011
000000000000000000000000000000000000000000000000011011000100110110010011
000000000000000000000000000000000000000000000000010010000100010101111000
000000000000000000000000000000000000000000000000001111010011011101100010
000000000000000000000000000000000000000000000000001110010010111001010100
000000000000000000000000000000000000000000000000010000110011101001010100
000000000000000000000000000000000000000000000000011000000110010001110100
000000000000000000000000000000000000000000000000011110010111001001110100
000000000000000000000000000000000000000000000000100001101000000110001000
000000000000000000000000000000000000000000000000101110101011001010110001
000000000000000000000000000000000000000000000000110001111011111010111011
000000000000000000000000000000000000000000000000110101011100011111000011
000000000000000000000000000000000000000000000000110101011100100111000110
000000000000000000000000000000000000000000000000111000111101100011010010
000000000000000000000000000000000000000000000000111010011101111111010111
000000000000000000000000000000000000000000000000111010101101111011010111
000000000000000000000000000000000000000000000000111001101101101011010110
