111011011011011111011011000010100011101000011100111111110000000100000010
111111011111111000000111111111110000010000000000000010010000101000001110
111110001111100011110100000000000000000100000000000101110101111000101110
000000100000000100000010110101010000101111011000000000000000000000000000
000000000000000000000000111101000000000100000111000101110110100100110011
000000000000000000000000000000000000000000000000000000000000000000000001
000001111111011100000010000010000000011111101101111111111111111111111111
000000010000000000000000001101111110111100101011000011010001100000010100
000000100000011000000101111110011110110011110100111111010000011011111111
000011010000011100001000111101010000010100001001111100001011010111101000
000000000000000000000000111111011111111111111011000000001111000100010101
000000000000000000000000000000000000000000000000000000000000000000000000
000000011101010000000001000001100000010100000010000000010000000011111111
000000000000000000000000000000000000001000000001000000101111100000000000
000010110000001100000101000000001111101111111110111111101111000001011011
000000000000000000000000000000000010100111111001111111110000010111111101
110111100000100000000110110001100011010100010000111011011111011000000100
000000010000000100000000000000000010101000100001110100010000010100000000
110011000000001111101110000000001111001000110011110101111101001011110011
000000000000000000000000000000001111100100000001001010001101111111001101
001011000001100011000011110001100000111011101011111110110100101011111111
111111110000000000000000000000001110111100111011110101001111010000000000
000100110011001100001100000000010001000011000011000010001110101100010010
000000000000000000000000000000001111110000010111111110110000100111100011
