memory_initialization_radix=2;
memory_initialization_vector=
111011011011011111011011000010100011101000011100111111110000000100000010,
111111011111111000000111111111110000010000000000000010010000101000001110,
111110001111100011110100000000000000000100000000000101110101111000101110,
000000100000000100000010110101010000101111011000000000000000000000000000,
000000000000000000000000111101000000000100000111000101110110100100110011,
000000000000000000000000000000000000000000000000000000000000000000000001,
000001111111011100000010000010000000011111101101111111111111111111111111,
000000010000000000000000001101111110111100101011000011010001100000010100,
000000100000011000000101111110011110110011110100111111010000011011111111,
000011010000011100001000111101010000010100001001111100001011010111101000,
000000000000000000000000111111011111111111111011000000001111000100010101,
000000011101010000000001000001100000010100000010000000010000000011111111,
000000000000000000000000000000000000001000000001000000101111100000000000,
000010110000001100000101000000001111101111111110111111101111000001011011,
000000000000000000000000000000000010100111111001111111110000010111111101,
110111100000100000000110110001100011010100010000111011011111011000000100,
000000010000000100000000000000000010101000100001110100010000010100000000,
110011000000001111101110000000001111001000110011110101111101001011110011,
000000000000000000000000000000001111100100000001001010001101111111001101,
001011000001100011000011110001100000111011101011111110110100101011111111,
111111110000000000000000000000001110111100111011110101001111010000000000,
000100110011001100001100000000010001000011000011000010001110101100010010,
000000000000000000000000000000001111110000010111111110110000100111100011,
000101111101110011101010111100110000000011001101000001100001010011111101,
000000000000000000010011111000110001000000001000000111111111000000001100,
000011010000100000000001000100000000101011111111111101110000100000001011,
000000000000000000010001000010010000000000000010000001111111110111111111,
000000111110110011011001111101000000111111011001000001111111111000001100,
000000000000000000010000000000100000010000001101111100110000011011101110,
000001000000000100001111010000100000011111110100101111011110101111101000,
000000000000000011110011101110100000010111000011111111001111110000100111,
111111110010000011001000001001000001011011101111111111101111011100001000,
000000000000000011111010000001011110011000100111111011111111010000011001,
000001001110010100000000111100110000011000010001111110010000000000001001,
000000000000000000000001111101101110000100000101000101110000110100010001,
111000110001100100011011000000100000000011110110000011101110111111111000,
000000000000000000001101000000010001011100000111111100011100000000010110,
000010000001011111111111111111101111010011101101111111110000010000001011,
000000000000000011111101000001010000110011110111111101001111101111111110,
000001000000101011111011111110110000010100000000111110001111001011101110,
000000000000000000000110111100111101110100000001110111011111000100000011,
111011111100100000111100001111011110011011001111001010111111011000000111,
000000000000000011010111001111001111011111101011000110110000110100010000,
000101100010101100111100000111000001000001111111000111100001000100100101,
000000000000000011100111000111001101111011011100111001001101101100001101,
000001111101111000000011111101111111100000001001000110111110110011110001,
000010101111101111110001000110101011100000111000111111100000100011111010,
000101110000010000001010000100011100100111110010000011001111100100000010,
111100111111101011111100111010111111001111110001001100010000101000010001,
001111001111100000011000000010101111010000000001001001111110111111111101,
111100011111011111111000000111000011110011000010001110111110111100000110,
010100110000010000000010000001010000001111111000000010001110101011110110,
111101100000111000101001000011101111101100001100010111111110110100001000,
111011100010011111100101111111111111111011111011110101011111010000100110,
000000101111101100000101111111000000011011111011000001111110011100000110,
000000000000000000000000111100111110011100001001111111111111001011011010,
110111011111000111101010000011001100110000111111000101010010110011110110,
000011000000001000010001000111010000010011101010110100010010100100010001,
000011111110101000010111000111010001110000100101111011111100011000011001,
111100000011000111100000110101100001110100101000111011011110011100010101,
110111101111110000111011010000011110011011110010000101000001111100001100,
010000101100010000000101001010011111110100010100000111111101000000000011,
111000110000011100000100000001111111000000000111111010100001101100011010,
111011000000010111101001111011011010100000011000000101101100111111111001,
111110101111110100011011110011111111010000000001001110011110011100011111,
001100101110010111000101000001111110000111010110001011000010101011001011,
000000000000000000000000001011010011100100001011000101001111110011110000,
000010001101110111011111001001101110110111010110111100000000011000001001,
101111111111010111110000111101100001011011111100000111000000000011111011,
111101000000001011110001111001101110010000100010101111010001001000010100,
000001101111011000000010000000100000000100001001000101011111010100001100,
111101100000101111111000111000000000111100111100111100101111111000001111,
000101101101111000010010000111000001010011111110000000010001000011110111,
111110101111000000011100000100000001100101111111000000000000111111011011,
000110110000110100000000111110111101110011101110000011110010000000010100,
000111111111110111100111001000101111101000010101110111111110011111101100,
111111101100111111111111111111110111111100001010000000001111111100101110,
000000000000000000000000111100010000010100010100111000100001001100000010,
000010010010010100011101111101001110010101010100111011101110110000001000,
001001101110011111111101111010011110000111101010000011100000100111111111,
111101010001110000010100111111100000011100000000111000111110101000010001,
111011111110010000100110000011100000001111111010111011110000110111110011,
000001110000111100001100111110000000000011011001111110101110110011111011,
111111101100000000011111000001001110100011010001111001111101110000101111,
111101111001100011011111000011010011001111110100111001001110011111110111,
010011111111101111111010000100000000100011110011111010100000011011011101,
000011001111110000010001000000011111101011111001111101001111011100000010,
000101100010001011101111111000110100001100100001000101101110101000000010,
000000000000000000000000000001011111100100000000110101101110010111110001,
000101101111100000011100111011101111011111100011000000001101110001000001,
000011110000101100101001000011011110111111011100111011110001011000100100,
000000000000000000000000000111101111111011011110001011001111011100011100,
111011010000100100011101000000110000110111111110111101010000010100001000,
111101010000000000010101000101100001001011011010000010101110111000010100,
000000000000000000000000111100001111111011001010000011111111000000010011,
111110110000011000010011000001000000010011101100000000010000011111100011,
000100111110011100010010000001000000111111010010111000011111010100010010,
000000000000000000000000111011100011100000010100111101001111101011100101,
111110011110101000001001000000011111110000000100111111010000101000000001,
111111000000001100001000000000100000000111110100110111110001010011111000,
000000000000000000000000000101100000000011110110111101001111001100000101,
111110001110101110111011110010100011111000001111001000100100101111100010,
000101110100110100001110111110111110111011010001111001010010010111111111,
000000000000000000000000111001010100010110100000000001100100111100100010,
111110101100100011110100000101011111000011111000111110101111110111111011,
000000100000000111111101000111000010001011111011111010000011000011111011,
000000000000000000000000000011110000111011100111000000001110011011111100,
000010000010010011110000000000010000011100001010001000111110111000000010,
111110010000111000010000110110011111101000000010111111111111010000010010,
000000000000000000000000110110110000000100001110001000010010010111110010,
000001010001111000001100000101110000010100001101000110111110010100001100,
111100010000001100001100101101011111001000000100111110001111010000010111,
000000000000000000000000111101010001011100010110000111110010110111011010,
000111010011010000110101111111010010000100010011111000111111101100000101,
111101011110111111111010000100110100110010111011111100000010001000100011,
000000000000000000000000111001110000111011101011000100111111011111100101,
111111000000010100010100111110100000001011110110111111000000001011110010,
000101001110001100001100000000110000110111011011111000001111010000001110,
000000000000000000000000111010010010111000010000111001111111101011100110,
111101000001000100011100111110110001111000000101111100001111011100000010,
111101101101111100000000001101001111001111111111111100110010001000101000,
000000000000000000000000110010010011001000101010000001011111101111101000,
111100011100011111111100111100111101101111111110001100100000101011010011,
111001001110000100010001111101111111000100000001000001010000010011110101,
000000000000000000000000000000000001100100010001000011001110100110111110,
101111111110111101101110001001110011000011100011111000000110011111100101,
000110101111100100011111101100110011101110111011001101000001111011111011,
000000000000000000000000000001001110111000000110001011110000011100001111,
000000110000000100000001111111001111011011111011000001111111000000000001,
000001101111101111111011000001000001010000001011111110010000010000000110,
000000000000000000000000000001010001010000000101111110100001100100100111,
000101110000100011111011110110101100101100000101111001110010111000010010,
111001110011000100100110111010000000111011110000100100000001111011101100,
000000000000000000000000000001000010101000000000001000000011010111100000,
111111111111110100001001111101110000011011111111111110110000011000000100,
000000111111110000000000111101110000011011110000111011111111101000000111,
000000000000000000000000111100100001001100001001111110001111111111110011,
111100000000100000001100000000000010001011110011000010100001110111101010,
000011101110101100100001000101001110000011110001110111100010001111111010,
000011111111011011100110111110111111110111110000111001001111100111101101,
000011000000010000000100000001111111111111101111110111100000001100001100,
111010100001000011100100001101101111001100100101000010001111110111111110,
001011010001010000000100110001001101110111111001000011101111100100001010,
111110011110111011111001111011111111100011111011111100011111100111111001,
001001011111001011101110111000100010100000000101111101110000001000101011,
000010001111110111101100110101100000111011101011111100001111001000011110,
000101101101101000001110111111101111110100010101001100011110110100001011,
000001001110011100011101111011100000000111101101111010111111110011111010,
000011001110001000000011111001100010001111110011000010000000010011110111,
000100111101110100001001000000011111001000000100110111010010010100000010,
111100111111111000010010111111011111101000110001000000100000010100000011,
000001001111111000000001000000011111011000011000000000011110000100000100,
000001101110001100001111001000110000011000011000111011110000101000000100,
000000111110111011100111000001001111100100101000001000000000110111110000,
111111011111100100000111000101111101111111110010000001011011000011110011,
000111111100100000001011000001001110010111100011111101110000100000010100,
000111010000111111100001000001101011110011110110111100101111111011100110,
111101010011101000111001111011000010111011111100000010001110100011111011,
000100000000100011111001000000010000011100000101000011000000111011110100,
000101010001100100000101110101100000101100001110001011000000001100011011,
111110001110001000000001000100010010010111111011000111110010001100010001,
111111111101010000010011000011110000010111010011111111101110111111111111,
001001110001001000010011000101001111101100011001111101011101100111111011,
000101001111111100000000111110001111001111111111000001001111100100001000,
000010110000110100001010000110001110110000101100001011011110101000010000,
000111010001011100000110000100000000111100000010110011100000011100100100,
111101000000110011111100000111000010110100111100111110100000110000010110,
111110110011000100010111000101001111100100100000000001010000100000001110,
111011001111111011011000000100110000110111101011111001010000111000001111,
000000000001010111010001111100011111110100001010000011100001001100000000,
111101110001101100101010000000011111111011110101111011011101101011111101,
000100111110000111101100000100110000111100000011111111001111001000001101,
000011101101000000000101000001101111011111101100000010001110011011111110,
111101010000111000100100000010101110000100000001000001010000000011101101,
000001101111010011100110111100110000110111101101000000000010101100001010,
111100100000101100000011001011001110101011101111000001101111100111110101,
111101010000100000011111001010100000011000000001111011110000001100001001,
000100011111111000011100111101101111011111111010000100101110111100010110,
111011110010101100110111111111000100100000000110000010010000111111100101,
111110010001010111110011000010001110001011111110111011100001011100010010,
111101011111001000000010111111100000110011110011000000000000101011101011,
111100011111101111111101111110000000000011101110111000100000110100001101,
111010110000000010111110000011001111010011111100000101011111001011101111,
000010110000001111111010111111010011010100011000111111100000100000101010,
111011001111011100000101000100000001010100100001111010100010101111111010,
111110111111110011100010111100101111101100100000110111111111001111100000,
000000011111111100001010111000000000101100010100110011110101110100000010,
001010000100101000010100111101111111010111101111001010011111101111110101,
000001101111111000100011000010101110100111101001000000011110011011000101,
000000100010011000001010111110000000111000001100111010010001111111111000,
110110000000101111101001111100101101111110100111001111110001110100001100,
111101100000001100000001111101010001001010111000001100111111001011111100,
000010101100111010110010000010010000111000010010111010111111111011110110,
000011010001110000101001111111110000010100001000111100111101001000100101,
000011010001100000011001111100111101010100100101000001000000010111001101,
000010000000100111011111000011011111001011011011110010110000011000011010,
111101111111001000011011111011101100111011101111111011100000001111111110,
000111001111100000010011111111011111011000001110001110010000011100000101,
110000101111011000100100000101101111101011110000111010101111100011111001,
111100110000010111110110111110011110101011111011000011110010001011001011,
111110101111010100010011001100101011110011001110111101001110110000110000;
