memory_initialization_radix=2;
memory_initialization_vector=
111111101111010111110110111111001111001111110010111111110000000000000001,
111110000000000000001001000000010000001011111100111110111111110100000000,
000000111111110100000011000000001111111100000001000000011111100111111101,
111111110000000011111011000001000010101111110111000000010000000000000000,
000000000000000000000000000101110011000000101000111100101011110111011101,
000000000000000000000000000000000000000000000000000000000000000000000000,
000101011110100111111110111101100000101100000001000000010000000100000011,
000000000000000000000000111100101101110100001000111110011111011111110110,
111111000000011000000000000001000000001100000010111011110000111000000111,
000000010000101000000010111101101111111000000011000011010001100100010111,
000000000000000000000000111111110000001000000000000101011111111011101001,
111111111111011100000000111111110000110111111101000000000000000111111111,
000000000000000000000000000000001111011100000000000001010000010000000000,
111111111111110100000010000000000000001100000000111111100000010000001100,
000000000000000000000000000000000000100100000010000000010000001000000001,
111110011111110100011011010110010000000000010110111101110000100011111111,
000000001111111111111111000000001111000100001001000111010000000000000001,
000010000010001000010101111111111111011111111101111001101101011000111001,
000000000000000000000000000000000001011100100011000010100000010000000110,
001000000000110011110010000010001111101111011100111110011101001111111110,
000000000000001011111111000000011111110101001000000010001111101100000000,
000011101110001000001110000000010000011100100011111100101111001111110000,
000000000000000000000000000000001110111001100110000001100001011100110100,
111111100000011000111000000000011110111011101110000101010000010100011011,
000000000000000011011001110111011110011101001011111111111111101111001000,
111100011111100000000101111111011110111000010010111111100001110100000011,
000000000000000000001000111111110000101111111010000010100000000111111110,
111101010010011111001011111111001110000100001110111011110000001111100000,
000000000000000011110101111101111111000000011010000010111111001100010011,
001001000000101000111001000010011110000100101100111011100000111110111110,
000000000000000011101100111111101111000111100100000010111110100100100000,
111011111110000100001010110110010010111011110101000010110001011000100011,
000000000000000011111010111010011101110000010001000111101110001101000110,
000100100001110000011111001011100010101011011110110010101111111100000100,
000000000000000000011100000111011110011100100101001001011111000111100010,
010100001010000111110101111011001110000000000110111100110000011011110011,
000000000000000000010100111001011100110100000000001010110000111011100111,
111110111111010000010011111100010000111000001110000000110000000011110101,
000000000000000000000100111100100000101100001010000001110000100100000010,
000010001111100111110101000000011111110111111110000000001111111000000010,
000000000000000000000001111111100000101000000110111111110000100100001000,
110110001110010000001011111100010010101100101101111101001110100000011101,
000000000000000011110011111110101100011100010110000101000011000000101001,
111101100000000011110011111110100000001011100101111100011111000111111111,
000000000000000000000101111111001111100100010011000001010000011011101111,
000001001101110000000000000001001111100100000101111011011111001111111000,
000001111110100011111011111100111101111111100101111111010000001011101011,
000000000000000111110111111110010001010011110011000010001111111000000000,
111111011111101011111111111110000001101111111010111010000000100000010010,
000110111111100111111100000011101111110100000001111011001111100011111101,
000010111111110111111100000110100000010100001101000001001111110000000100,
110001000000001100000001000001001111111011111100000000100001000011111100,
111111010000100100010010000001111111111011100110111001101111010100000000,
111110110000111000010101111111101111011100000100000101011111110000001010,
000010111111111100000010110101000000001111111111000001001111001100000110,
000000000000000000000000000011011111100100000101000000001111010100001000,
110100011100011100101110111110100101000111111010111110110010101000101001,
111011001101011001001010111111001111011011110101001110100001001100001011,
001100110000111100001100000001101111111100001110000010110100110011110011,
000000000010011101001000111110001111101011100000111111101110010011101001,
111100010001000100010000000000100100001100010001000101110001100000000001,
000110110010010100011000111111100001001011110101111110000010011111100000,
110111000000001100011001110101000011000011101110111100010010011100001010,
111101111110110100000001111100101110011111010101001010010010001100011110,
000010011110110000101000111110100110000100011101110101100000100000100111,
111100010000100111010011111001110000010111101111110010110000111011111010,
000000000000000000000000111011000000001111101111111001010010110111101011,
101100111111111111100010000110001111010111100111110011011111110100101010,
000111110000010100000011111001011111111111111011001111100000010100010101,
101101010001000100000101001001110010011100010011010011110011011000100011,
000001000110011111010001111111010001100100001011111001010001011000000111,
000000111110111000000000111101100010110111110010000010111111010011101100,
001010011111111011110011111111101101100011111001000011110010000000110011,
000011011110000111100001000101101111100100100110000110001101001111010000,
110111100001010011110101000100000000110011100001110100111101010011111110,
010111101110100110110101111110110001001000011111000001001101111110110011,
111101111111101010111110111111111100110011000011000110001111101100011000,
000000000000000000000000110111101110010000110100111010001110001100000100,
000100110000010111110000000011000001101011111011000011100001011111000100,
111101111100110000001101111101101111000111111111000011100000010111111000,
001101101101010000100010000110100001111100001110111001100100101001000001,
000010011100111111111101000110101111100111111000111100001110100111111010,
000001111111111100011010000001101100011111110101000100001111000000001111,
111101101110010111111101000000011110111011110011111010000000001100001000,
000001110010011011111000110100101111100011011010000010011110010100001111,
001100011111000100000111000110000001100011110001111010001101001011110010,
110011001111000101001010000010100001111001001101001100001111001000110011,
000111110001100000100001111100000010101110101111000000001111100011100111,
000000000000000000000000001001000000010000000011010010101111000011111010,
010100001000010011011110101100000000001111010110101011100000001000000000,
100011000000111100110000110001110010010011100011101010111100100100100111,
000000000000000000000000111100100001101000110011111011010100011011100100,
111101000000011100000001111110010000010011110000111110101111111011110011,
000010001111100011111010000111000000001111111111001110011110011011110110,
000000000000000000000000000100110000010111111011000010111111101100000000,
111111000000011100000101000000010001010100000010000100100000100011111001,
111100000000000011111011111110101110011100001001111111010000011011110000,
000000000000000000000000000110101110100111111000000010011111000100101101,
000101100001010111101000000011100000001011110101111101111101100111110111,
111110101111111011111000000100101111111000010011001111001111001111111111,
000000000000000000000000110111100000001000010101001000001111101111111101,
000001000001100111010010111010000000010100010100101111111110100011101010,
000110010000110111000100111000100000011100110011111101100001110100101111,
000000000000000000000000111101101110111100001100001010101110100011011000,
000000111111110011100110111111101111000000011111111011101111100100000010,
000101001100100000001000111111000000000111010101000011001111111111101010,
000000000000000000000000111110101110100111111101000010110010000100001000,
111101010000100011110100111110001111001000101000111110111110110111111000,
000010101111110000011110000101101110111011101110000100100001010100000010,
000000000000000000000000000010101101001011111010111001100001111011110110,
111111001110111011111001000010001111001000001011111111110000011111110101,
111111100000011100010011000011100010000111101110111100001111101011011101,
000000000000000000000000000111111111000011101000111111111110111100010110,
000010011111110011110110000100011111000111111001111101101110101111111110,
000000001110011011011111000101011111000000100110001010001111011000011000,
000000000000000000000000111010110000000000010111000000001110110111111011,
000001110000010100010010001000000000000011110110111001010000110000001110,
000000010000110000010111000100001110100011100100110111001110101000011011,
000000000000000000000000111100010000001000000001000010111111011011101001,
000101010000011011110101000100001111101011110000000000101111110111101100,
111101011111110011111110000000101101011000001011000011010001101100001001,
000000000000000000000000000100110001011100001101111110001111101000010011,
111010100000011100010111111110110100110001100110001010101011000100010010,
111001011100100111101010001111111101100111100011101011101100000011101011,
000000000000000000000000001010010111000111100000000000111101100111010011,
111111001100101011111111111100101110100011100110111010100000001100000100,
000011010000001000000000000011000001011111111110110111000010010011111110,
000000000000000000000000000110000000110011101110111101111111001011110000,
001011001111110011010000111100001111011000100110111111011100101100010011,
000100011010110111111111000010011110111011110010111001101110010111100001,
000000000000000000000000111100010010001111110000000100001111100100000001,
111110001111000000011011000011111111101111100111111001010010101011101001,
000110110000011111111110110100110010101011111101001010010010010011110101,
000000000000000000000000111010001101110100011101000100100001010100010011,
111101000000010011111100111110111111110000101110111010101111101100000100,
000010001100111100001001000101011110111011001010000011000001111111111100,
000000000000000000000000000000001110101000000100111111000010111011110011,
000000110000011100000111111111101111110111111011111110000000001100001111,
000001101110111011111111111101000000000111111011000010101111001100000000,
111101011111010000000011111111001111010111010110111101101111111011101111,
000000000000100111111000000001001111100111110110000000100000101100001000,
111111111111011111110100000100111111110100000101001011110000010000001101,
000001101111011111111110111010101111000011110010111111111111111111101101,
111110101111001011111110111101111111110000011011111110011111100100001011,
000001011101110011101010111100011111011100000001000001011111111000001001,
111011110010000011111001000100000000001111110000111111101110000111110110,
111111001111100111111100000000000000100100010110000100011111011011110010,
111111001111111000001000111101101111100000000111111010001111111111101010,
111110001111101111111000111111010001001100000000000001000000001011111010,
000101011111101111111101000000001111111000000111000001110000011111110101,
111111010000001000001000111110101111111111011101111010111111001011111101,
111101000000000000000101000000101110010000000011000100101111110000000101,
111110110000110100000010111101100000000000001101111101111111001011101001,
111001010000010000000010000001111110111000011101111010111111101111111101,
000011101111101000000110111010010000111100101001000110100000110000000110,
111100000000100111110101111111011110000111100100000011110000010100000111,
111100111111011011111100111011000100010011111111111111100001110000010011,
010001110010001000100011000011011110110000001000111100000001111100010001,
111011000001001111110101111101110000101000010101111111110010000111100000,
111101011111001011111110000101011111011000011111110101111111001000110010,
111111111111000100001001001010100000110100001001111111010001010000100001,
111000101110101000101110000110110010100000010111111110101111101000000101,
000111101110110111110111000110101111101000101111000000100000110000011011,
111111111111110000100010000111010010010100001011111000010001101100011110,
001101100001001000010010000011010001010100011011001110100000001100001010,
111111010001001111100000000010110010011011111111000011100000010100010010,
111101010000101100000100110011100000100011011101111111000010000011111000,
111001000001001011110111000100101111111000100110110011010010101000100011,
000000000001010011101111001011000011011000001000000100110000100100100010,
111011010000001011111101000010010011101000010001000000001111111111100111,
000000110000100111100110111111011111110011101101111111010010111100000011,
111000110000110100000101111110100000000000001011111001000000010111100000,
000011010000111100010001111111111111111111110101111010011111110011111011,
111110010000101000001000000001111110011100000011000001011111100011001011,
111011100010111011111100000000000000010000001100000101100001000111111100,
111101100000000111111011111111010000001100000101111111100001100111111101,
111101001110111111110101000000011111010111101011111001101110110100001100,
111111010001011011111000111111110000011111110100000010001111110011101111,
001010110000110111101000000001110000000000100111000100011110010100001110,
111111011110110100010001000101000001011111100110111100011110100111111101,
000001110000100111111110000011111111101111011111001010011111100011101111,
111111001111100000100100000000011111111000000001110111001111011111110111,
111111000000000100000101111111011101101000110111000010010000010100000011,
111011011110011011110001000010111111001011010000000000100001000100011101,
111100100000101100000000000010010000110111110000111010001111011000001011,
111011010000110000001001111110101111011100001001111011101110100111101000,
000000011111100000011100000101110000001111110101000010001111110011111101,
111101001110001000011111111011100001010000001010111110101111110000010111,
111100001111110111111111000001010000110000010110000001100000100100000001,
001001101110011111111011111100010001001011110110000101001111101000001011,
000000110000100100100101111110101111011000001011000011010000100000000110,
000001110000111111110000000110011111011100010001111101001110111111110011,
111100000010000011110110111110010000101011110001000011100000000111111001,
000000100001110111111100000001000000111111110111001000110000100000000111,
000100010010001000010011111010110000010100000101000010101111000100000000,
000100100010000000010000111111110001100100011000111100011111101000001000,
000000110001100000001001000001001111100000010011110101111111000100000111,
000001010001010000001000000110000000000100000110111101011111011111111011,
111110001111000100000111110111011111011100101101001101000001000000000100,
111001000000001100100000001001011111110011100100000000100000011100001101,
111010111110010011111000000000000000001111101011111000101110011000001001;
