memory_initialization_radix=2;
memory_initialization_vector=
000000111111110100000000000001010000001000000101111111110000000100000001,
000011100000000011110010111111101111111100000001000001010001000100010010,
000000001111001111111000111111101111100011111010000000000000001000000000,
000000001111111100000011110101100011010011110000000000000000000000000000,
000000000000000000000000111111000000001100000000111110011101001111101111,
000000000000000000000000000000000000000000000000000000000000000000000001,
000011101111001000000000000010100000100011101010111111101111101111111110,
000000000000000000000000001001111101001100010100000010010010011000010110,
000010011111111111111011111111110000001011111110110110001110101000000010,
000100010000101100000010111101011111111000010000000000101110111011111101,
000000000000000000000000111110001111111111111110111100111111001100011011,
111111010000111011111011111110010000101011111110111110100000001111111111,
000000000000000000000000000000001111000100000000000110101110110000000000,
111111000000001000001101000000001111010111111111111101111110111100001110,
000000000000000000000000000000001111100111110100111111110000101111110101,
111001010000100111010010110110111101111001001010000101000110000011111110,
000000010000000100000001000000011111100000001010001101101111011100000000,
111101111100100111111111000000000000110001011001000000100000100100001010,
000000000000000000000000000000001111111011101011000000110000110101010011,
101001010001000111100001111000101111011100010111001100001110100000000010,
000000011111111000000001000000001111101011010101000001010000001000000000,
111110000010101011101010000000001111001100010010000100101101101111001010,
000000000000000000000000000000001111001000100110111100001110001001010010,
111111010000011111101100000001101111111100000100111101101111110011111011,
000000000000000000000110111101111111011100000001111110011111110100000101,
000001010001110111011101111011101111101100100101111101101111111111110101,
000000000000000000001101110110100001111011110001111101000000110100100000,
111111010000100000001100000000111111111100010100000011100000110100000011,
000000000000000000000011111110111111011100000001000000011100011100001101,
000001101111111100000010000011000000000100010001000011110000011100000001,
000000000000000000000010000010110000100111110100111101110000000100010111,
000001101111011100000011111011111110110100000100000010000000011011101111,
000000000000000000001010000001001110110000010100111110100000010011110111,
111100001110011011111111000010010001010000010110000010011111101011101111,
000000000000000000000111111101111111110000010000000011110000010000000001,
000010111111111000010100001010000001011011100100000001011110101111110000,
000000000000000011111011101011101101010111001001111001000000010100000110,
000010000000011111110101111110100000000100000101000001111110001111111110,
000000000000000011101101111110010000010011110100000110001111100011110100,
111111000000101011110101111111110000100111111101111110100000001111111000,
000000000000000011111111111111011111001011111010111100001111100000000001,
111101001101011100000011111010001101100000001001000010111110011100010001,
000000000000000010111101110000101111111000010011110010101111000011101100,
000001101110001000101000000111000001101011100010111001000011000000001001,
000000000000000001000000000011101110100000110000101001010010000100010101,
000001101110000011111011000111001111001011111110000010000000000111111001,
000001011111100111111111111011000001011011111011111011110000000111110010,
111111000000001100010010111111000001110100010101000000011111101000000001,
111110011111110011110100111110011111000111110110111010100000011000101111,
111110110010000011101100000001010000000000000010111011100000010111111110,
000000111111011111110111000011101111100011111101000111010000010100000011,
111101000000001100000100000000110001011011111100000001100000011100000010,
111111110000100011110111111100111111110111111111000001011111101011101000,
111110101111000000010100111111011111011111111011111011110000000000001101,
110011111111111100000100000100010000000111111011000001000000001100000001,
000000000000000000000000001001011111110100000000111111001111101011111111,
000000110000110111011101101011010011011111100100110110100000010000100100,
000000010000011111110010111100111101101000111001110001101111110000011101,
110010111101101011101101001111000100000100001110001000101111111100010100,
111001010001010000100110110111110000100000010110001100000001111000001101,
111000001101111100110000110111100001110111011011001111000010000111100100,
000001001111010111101100111111110010000011100000000100011110111100101001,
001111011111111001011000000101101101010011111101111111010001110011110000,
001001011111010011010011111111011111111011101000000100110000000111100100,
111101101111111011001000000100101111011100010000110111010001100011000111,
111011111111010111110100111000000000011100100110001101010001001100100100,
000000000000000000000000110000000001010100010010001100011100011101000111,
110101010000111111011000111011000000110100000110000001101101001000100110,
000000101111110111100100111111010000010100001000111000010000000100111011,
000011100110011000010101000010110000101000100000111011001111000111111000,
011001000100111111011111010101010010010011110010111101100000001100000111,
010110000011010100101001000010010010100000001000000001111101001100001101,
000100010000101100101001000001011110101000000110000100000000101000010100,
000011011111110100010000111111010011111011111100111010010000001100000001,
111111001111101101000100000010010000001111100111000011001111011000001111,
000100001111000000011010111111000000100111110011000000001101011000011101,
001000110000111010110000000010011110110100001100000110111110100011100110,
000000000000000000000000000000011110110000000100100010111110000000010010,
000001101111011111111100111111101110110100101110110000011111111000000010,
111001000010100011110000110010001101000100000001000011100001011100001000,
110101010010011011110000111001011110100011110000110111000000010111111110,
111011101111010100000011111000101110000101010111001010001101010100011110,
111110001110111100001111000010100001110101001000111101000000010000110101,
110111000000101000001100001011010010010111000010110100100001001100011111,
000010010000011100011110000010111110110011101010111001100010001100010111,
110010111100110011111000110111110010010011101011000111100001000100101010,
001011100010101010111111000000010000000000011100111011100001001011000110,
111110000001110100001011110001110001100011010111001000100000001011001000,
000000000000000000000000110101010010010100001100100111011110001100010100,
000110001110001011111101111011101111111000001100001001001110011000000100,
111100111111100111111010110111010001111011110010001111000010001011100011,
000000000000000000000000111111110001010100001111111100111110001111001011,
000011001111011111101100000110111111100111110101111111001101111111110011,
000000101111101111110101000011110000001100011100001110111111110111111101,
000000000000000000000000111110001111111000000001000101111111110011111110,
000001100000111011111010000001001111101011111100000001110001000111101101,
000001100000100100000111111100001111011011101111110111101110111011011100,
000000000000000000000000001000011110100111110001111100000000010100011011,
111111001110010011111110000001010000001011111101111100110000000000000010,
111111111111110011101110000101010000110000000010000001000000111011110101,
000000000000000000000000000100001111011111110111111110101110001100000111,
111100010011011111100011000011110001100011100011001001011110111100111100,
111011001111001100100010110011100001010111111110110110100000100100001000,
000000000000000000000000111010101111000000011101111110010011001111010010,
111000001111000000110001000110111110101111011001110101010100100011010111,
001000110000010100011000110001110010110011101000010010010011010000000011,
000000000000000000000000111001111100000100001010111110110010100000001111,
110001111111101001000100000011110100000100101101110111001110111000001101,
111011110001101100111101000101001110100111110000111101100001110000010011,
000000000000000000000000000011010000000111001111001111011111011100001101,
000011001111111011110111000010101111111111110110111101111110001101000101,
000001110000110100001011000100110000111100001110000000010001010101000001,
000000000000000000000000111010010001100100010101000111110010111100011111,
000110010000110111110000000000110001111100100101111110010001101111111111,
111000010001101011111110111111101110010111111010001010010010010011110101,
000000000000000000000000000001111110010000000110000111011101010011100101,
111110111111010111110001111110010010100000011001111100100000100000011010,
111111110000111100001011000000100000001000001001000011110000010111100000,
000000000000000000000000111010011101100111101110000110011110010011101010,
000110010001100100000111111110100000001100010101000011110001110011101100,
111101110000001100001110110111001110000111100100111011010000000000001011,
000000000000000000000000111110011110001000000110001000111110000110010001,
000000010010001000001101000100000000111011110011111111000000100111101100,
111110111111100100000101001001101111111011011011111110011110011011001110,
000000000000000000000000111010010000101000010100110111101110011000111010,
000000111111111011111011111110100000011011111001000000001111111011111110,
000011101111111100000101111110010000011111110110111101001111100000000011,
000000000000000000000000111111101111111000000010111111010000010111110111,
111110100001001000000100111110101110100000000001001000011111010000000001,
000011000000001000100010000000010001000100000111111010010000010100110100,
000000000000000000000000000011100010011100100101000100000011101000111111,
111111011111111000000001111111011111101011100001000001100000100111111101,
111110010000111111101111111001110001000100000001000000001111111000000011,
000000000000000000000000111000111111110100001100111010001111010011100101,
001001101111011111111001000110010001000100000110000111111111101000001001,
110010000000000111110100111111100011000011101011000101011111101100001010,
000000000000000000000000111101000000011100000011000001111111101000001111,
111110111111001000000110000000001111010111111011111100110000011100010110,
111111100000011111111011111110101111111100010100000011011111001111111001,
110110011111001000000101111111111111110100101011111101110000000011101101,
000010111111011011110101000001101111010111111001111100000000011100001101,
000001001111001100000011000011001111101000000011000010001111101000000110,
111100011111000100000100000001010000000000011010111100111111111100000001,
111110001111011100000100000000111111101111101100000010111111011100000111,
000000010000010111111100000110000000010000000100000010010000010111101101,
000011101101111100001100111100100010010100001100000000001111110111110101,
111011100000010011111010000001001111011011010101000100000000010111111000,
000011010000010000001110111011011101001000000100111110101110011111100001,
111111111101110000010001111110101111010100000011000001001111011100001110,
000000001111011111111001000000000001010111111000111101110000010000101000,
111111100000010011110000111110111111110000000100111101011111010000000101,
111110101111110100001100111111000000111100001000000001000001010011111001,
111111101111101011111101000001101111100000001100111101101111100000100110,
110110110000001100010001000101110010100111011010000010011110010000101111,
000101001111100000001111001011001111110111110010000000101111000100000001,
000011010000001100001001111010011110100000000110111000110001011111101011,
111111000001011111101100000000010001110011111010110111010011000100000100,
111010010000100000101001111000001111110011100001111011001111110100000110,
000001111110011100100001000000101110000100010001111100010000011011010101,
000011110010000111011011111110000000000000010000000011111111101100000101,
111111001111010000001000000000000001000011101011111100010010000000001111,
000010001111001100011101111100110001000011100110111000101111000011100010,
001110001111101000001101000101101111101100011110111110001110010000000000,
111100010001100000000010111001101111001111111100111010000001011000000011,
000101100100000111111000000100111110111111100011111110011111111111111100,
111110010000100011101111000011010001110011100001110100011110100100011111,
111010010000000011111110111010110001111000001100111001111111111011100101,
111001011110110111010101111100010000000111010001110111010000100100001010,
000000001111000011110111111001110000000100010000000101111111010100011101,
000011000000000011100011000101110000010111110111000000000000010111111100,
000111111111010100000010110011011110101011111110000000011111010000110110,
111111100000100111100000000000000000011111111010111111010001101011101011,
000001101111010111111100000101010000101011101101000011110000111011110011,
000001111110101111111011000110110001101000110001000010000001000000010110,
000001111110111111100000111011000000010000010011000101011111100100001001,
000101010001001000100101000010110000001000010110111110101110010100000000,
001000000000101111110110111111100010001011101000000011110000110000000011,
000000000001100100000001111111100001011111111111111111010000011011111000,
111111110001000000000101001001000000010011101001111011100000010000001011,
000011111110110100010101000101000000001000000110000011001111100111111110,
111111110010000100010001000001111111110000010000000111101111001100000101,
111111010000100011111000000101101111011000000011111111110010110000001001,
000111111111101100010000000001110001010111110011111111000000101100010010,
111101010001100111111011000010011111100000000111000001110000101111101110,
111011101111111011110111111001101111001100000011000010111110101111111011,
000011011110001111011111000001111111110100001111000010101101111000001000,
000010011111110100000001111101001110110111100111111111111010111100001101,
111011011110110011100110000011000000110000001001111001110001000000110110,
111111101111001011101111111110001111010111110101000000111111000000010100,
111110101111100100010011000101001110010011110101000110110000111111011110,
000010010001100011011100000100101110110000000111000000100000110100000011,
111011110000100000000111111101101111101000000110000000111110000100001111,
111101000011100000000100111111100000000011101100111010001111101100001110,
000011000001011000000011111010010000001111111111001000000001011011111011,
111111011111010111101010111110011111000011111010111110101110001000000101,
111100001110010011111000000001110001000111111111000000111111000000100000,
111111000000100100000000000111010000101111101011111101101111000000001000,
000001000000011011100101000011100000111100001100000111001111110100010100,
000001011101100011111101000001001101110100101010000000101111111111011110,
000110001111011111101001111010110001001100011010000010111111111111110100,
000100010000111111110001000001011111110100011111111110111110101000001011;
