memory_initialization_radix=2;
memory_initialization_vector=
111100011101000111100101000000100001100000001010111111110000000000000000,
111110011111011100001110111111001110111111111011111011101000000011000000,
111010111100010111011110000001100001001000001011111100111101000011101010,
111111111111111000000000110011000010111111110010000000010000000000000000,
000000000000000000000000000000000000010100000000000001010010001100010010,
000000000000000000000000000000010000000100000001000000000000000000000000,
000000001111011111111111001001110000010111010011000000010000001000000010,
000000000000000000000000001101111011011100010111000000101111101111111100,
000000011110110111110111000111100110100100111110111001101110001111110100,
111101111101110011101100111010101111111100001110000011011110001000010000,
000000000000000000000000000001000000101100001000111010011101111101000000,
000010000011000111010011110010000000010011110111001100110001101000001000,
000000000000000000000000000000001111000011101001111111010001000100000000,
110111111110100111111011000000000000110011111010111111010001110001000111,
000000000000000000000000000000001101101100010011111111011110101000001110,
001101000011100000110000111000111101111010111011111111111110011100000000,
000000001111111100000000000000000000100011111000001100010000011000000000,
111100110001001100001100111111111111010100101100111011111111101000000001,
000000000000000000000000000000001111101010111100000001111111111100011110,
111111010000100110001101000110001100011100011101111110111100101111111111,
000000001111111111111111000000000000010000000011001011100000101000000000,
111111100000111000001011111111111111011100000011111100010001011000010010,
000000000000000000000000000000001111001011110010000010000000100111000101,
111111001111001100010011000011100000000111110111000000010000000111111001,
000000000000000011111000000110011110110011110000000000001111010011111010,
111100101110100000000000000011000001000000010110000010011111100111101110,
000000000000000000001001111110001111111100001111000011010000001111111111,
111101110000010011111110111111110000011000000101000001100000010100010000,
000000000000000011110010000001110001011100000000000011111111110000000001,
000001001111100100010000000101111111101100000000111100100000111111111100,
000000000000000000001110111111101111100100001101111010010000100000001100,
000100010001011011111001111110100001011111011010000011000011010011001100,
000000000000000011010110000001110001111011111101111010111110101011110001,
111110111110010011101101110100011110110110111010110111011110110111000110,
000000000000000011110100000000101111111100010010000001100010101111101110,
000000111110101000100011111111101111000011101110000110100000000100001100,
000000000000000011101011000110010000000000011011000010100001000111110101,
111111000000011111011110111011000001010111111100000110001111000000011010,
000000000000000011101001111110100001011011110101000100001111011011101110,
111010011110100011110010000011011110100011000011000100011101111011111010,
000000000000000001000100110111100011110000011110000101011101011100000001,
111101001110111000001010111110000000101100010010111111001111100000001011,
000000000000000000000001111110101110101000000011000100000000100100010010,
111111000000001111110001111111100000001100000011111100111111111111110011,
000000000000000000000010111111011111111011101100111110101111101000010000,
000011111101101011110010000010010000000000000001000110010000000011110101,
000000010001100011111000000101110000101100011101111011010000100011110010,
000110000000011111010001010010001110001000110000000000011110110111111010,
111010011111101111111000111101001110001111110010111100110000110001000001,
111101110100001011011100000000111111101100000110001010101111110100000000,
000101011101100011110110001000100010100100110110110010100000010100001100,
000110110000100100001010111101010010101111111011000010111110101100000011,
111110110000001011101111110111111111011000000110000000001111001111011010,
111100001110000111100110111110111111011111110111001000101111111000101000,
000000111111110000001000110110010000101011111000000010100000100000000010,
000000000000000000000000110111111111111000000000111101111111010011001001,
101110001101011000100101001001000001010100000000001001101110110100000000,
000011111101111011101111111001110000101000110101110011100000000100010111,
110011011101100100110101010011010011111011101101000000010010111111110011,
101110000101010111100100110010100000010011011001000110001111110000010100,
110110001101101011111110000011000000111100101000010001011110111100100011,
000010010000110111010101000001000001000100001111000100000001101100011111,
001100100010011011100000110101101100011111110001001011010011001100000000,
111000110001100011000111111101100011000111110001001001101111010011100101,
111010000010010011110101000010111101100011010001000110110000010111100011,
001101010000100111000000000100010001111111010101001010111110110100000110,
000000000000000000000000000101111111111011110101001001101110010101000010,
000001101110011111100110110101100010011000010101000110111111100100001010,
000001011111110000101111111100100001111111101111000010110001101100001001,
000001100100110111010100000101000000111100010010001001010001110100010011,
001000101100010011011010111110111101011011011010111100101111101000011100,
000110000000111011011110111111101111101000011011000100100010010111101101,
000011000000000010110011001000110001011000000111111010001111111111011101,
110101001100011010111100111110100000011000010010010000010000101111100101,
111111111111101100000100111101101111100000000110000010101101010011111111,
111110010011001100000011111100010000000100000000000010100001010111111001,
110100001110110101110100000010101111100011101011101011010001111100011110,
000000000000000000000000000101100001001000100110100011100010101011011010,
111000010001010100101111001011110001110100011010001001001110011111110001,
000001100001110100000011000011001111110000001001111110110001110100010100,
000101100011110111110011000011110000100011011011000100100001011100000011,
000010110010011111101100001001001101100011011111111010000000101100001111,
001000101111110011100110111110111111101111011100000001000001111111100111,
110001111100111011101110001000111110101100001110111100001100111111010110,
111111110111000101011100001000110010010011111101000110001111110011100101,
000110001111110000100110000011001111111000011001111111111110110010110001,
000001011110100100000011111000100001010011110000000001110001000000001101,
111001101111011111101100000001111011111111011001111011011110000100010100,
000000000000000000000000000011100011110100101111101111010000101111111101,
001111101110111100111110000110001011111011111010110110101110100100011100,
000101100000011000010110111101101110101011110011110101101101101011111001,
000000000000000000000000000110111011111100111110001000111101110011001100,
111100110000100000001100111100111111111011111001111111010000010111111110,
000101101110001000001010001010110000100011110011001110101110010000001100,
000000000000000000000000111111010001100000010000000000101111011011011100,
110111100001011110111110101111110001110100000010001001001111110111010010,
110110000000000011111100111001011111111100000101001101000101000000010010,
000000000000000000000000111011110100111010110010111101001111110001001011,
001001011100011100101100110001101101001000000010001101011110100100111010,
000010111111010100101110111000110000110011011001111101000010100000011010,
000000000000000000000000000001011111100100011001000010001101000000001100,
000011000001001011111000111001010000101111111010000001100000010111111101,
000100100001000100011011111100110001010111011110110111010000101111110011,
000000000000000000000000000101100000011111111111000001100000101111111011,
001010010001011100101010000100010000111100001011110011101110110100100010,
000010000001110100101000111110000000111011000001101110011111111111111101,
000000000000000000000000111111001101101011100101001000001110111011000011,
111111011111000111111110111101000000101100001100000010001111001111101110,
001010000001101011110101111101010000000000010111110110001111110111100010,
000000000000000000000000001000010001010100110100000101110010010100101101,
001100110001000011111010111101010000010111110100000000001111110011110100,
000111101111010101001010000000000001010000110010000000001111010011110101,
000000000000000000000000111100110000110111100111111001111110001011110110,
111111001110100000001110111101111110101000001001000000001111010000100010,
000010110000100100001111000000000001010000000100111100111111011000111011,
000000000000000000000000000010010000110011101110000111000011000100011000,
000001001100000100000001000001111111010111101101001011111111000101000100,
000000100000000100011001111000000000111000000000001001110000111000010111,
000000000000000000000000000101100001100111110101000100010010101111011101,
000010101110110000000000111101001111101011111111111011111101111100001100,
000000011111101011111010000010000000010100001100001000000000101000001001,
000000000000000000000000110111110000011000010010000001010000001011110001,
000011000001111111111010000000100000101100000000001010001111000000010100,
111100100000100100010000110001001111011000000101111001011111011100010111,
000000000000000000000000111100111111111100011001001011010010110011100100,
111011111111101111110011110110110010101100111001111000000001010100000001,
001000000010011010111011000010011111110100101100111110011111100100000111,
000000000000000000000000110110101111100011011100000101100001001100010011,
001101000000011111110011111101100000100011011100001000011111101100010000,
000100000000010111100100000010100001000111101001000010001111111111100100,
000000000000000000000000111001101111110100001010111000110001000011010110,
111111100010010000010001000000100000011111101111111110011111100111100100,
000010001111011100000110000100111110111000000001000000111110110011111011,
000000000000000000000000000001011111101000000000000100010000001011111111,
110111011111001100001110111011001111101000011111000100000001011000011100,
000001110000000000000010111110100010101111111101111001001100101011110110,
000000000000000000000000111011111101100011101110111111010000110011110000,
110110001110100011111111111100110010100000001101111101110010011011001010,
000000010010011111111110000011011110111000100111110011110010011000001010,
111111110000011100101010111100110011001011101100110111101111100000001100,
000000011110101100011111010010010000010100010010110101100000101111101110,
111001101101110101011001000010101111111000011011000000111101101111111011,
111011011110111111101110001010010001011011111110110101110110111111010110,
111111000001111000111000001100001111001111110111000010011111110000001010,
000100010000111100010000001011000010100011111111111010011011010011101011,
000001000010101100100010010100101110011000001111000010100010000000100110,
111101011111001101111101000010101110101111100101111100010001111111100110,
110000011101100000101011111111100000011011110111000100000000000111010011,
110100010010110110111101000000101110011011110010000001001110100000010011,
111011100111011100000000001010000000011111100011111100000010000011101011,
111111100000110111101011111111010000000011000000111100111110010000001010,
111100000000111011111000000100100001110000010000111011000001111000100000,
001111111100101011101110010011100001101111000110111100011110010111110010,
001011100000101011101001001110010010000000000110111110111110100011101110,
001000111111011011101101000111011101111000000001110010011100001000001101,
000010001110011011100111000110110000011000001111000000110010010100000110,
001100011111101111101011001100000000001100000010000111010001010111001100,
000011110000010100001110111100110001001000000001111100001111001100001000,
001010110001001000100000000010111110111011000111001100110000000000100110,
000111101101100000001010111100000000100111001111000011010001011011101110,
000001100000110011100001111100100010001000010001111110110011000011100000,
000011110010001000000011001110100000010000000110111111001111000111111011,
111110101111110111110101001001100000010011111111111110010010011111101110,
001010001110000110111101110010110001000111011011111110110001110000010111,
110011001101100100101100111101111110100111110111001010101111000100000100,
111101000010010011101000001000001101101000010101111010001111110100010001,
000000101111101100010101110101011110101111010011111100101111010000000011,
000011111101100100000010111100011111111100010001000011011111001111111001,
000000110000011000110101111100101110011000000101000000111111010011111101,
000000011110010111110000111011000001000111101010111100110001101100110101,
111101000001101111111111111010111101001000000110000000111011001011111111,
000011111111110011100011000111000000010011101010111100101110110100000110,
000100000000010111111011110111001111101011101010000011100010001111101100,
000011000000110000100100000100000011010000000001000010010010011011111111,
111100010001001011100000000101111110110000001100000001000010101000000101,
000111001110111000000110110111110001010000011010000111101111111011110011,
000110101110000011100100000100111101100101011101111010111101111100010111,
111100101110101000011101000001111110111111110011111100001110111100100001,
000001110001000100001100111010001111110100001001110111101111011000001010,
111111011110101011111111000010100001010111101011000000111111001111100001,
000000011111010111011111110010110000110011110001110010110000110111111001,
111010011110001011101100110111011110110000001011110010100000101111101111,
000110001110100011111101110100101111110011111010000111001110110011101000,
111010101101110100000111111001011111111100001001111101000000010100011001,
000101100000101100011011000101011111110111111100000100110000010000001010,
000011100000001011111010110111111111101100001111111111101110101000001110,
110110111111000011111011111000111110110011010111111001100000101000100100,
111101011101110000101101110001111101111100110001001100101101100000010000,
111100010001110011110100111100000001110100111011000101100010000000010011,
000111000001010000010100111000011111010111110010000100000000000111111110,
000001110001010111011001111111000001110111001010110100101110110100001000,
111101011101110111011011111101100010110011000000000111000001111100100101,
111011100001111001001101110100001101100000011000000100001111100111001011,
001001101101110011110101111011101111100011111011001000110001101000000011,
000000110000001011011110001010011111001100000111000100110000001110111111,
111101100000000011011000000100001110101000110001111100101111110000000111,
111010101111100011110000111110101110011000001111000111000010011011111011,
000101101111011000001011110110011110110011101111101010001101110011101100,
101101000011011000000111000001010011001011101101000011010001000000010001,
001111000000011111110000000001000000111011000101000000011100111111010001,
111001001110111000101101000101011110011001011101111000100001100011111001;
