memory_initialization_radix=2;
memory_initialization_vector=
111001111010001011000100111100111011101111011001111111110000000100000001,
000010101111111111110111000000010000101100000110000000000000101100000101,
000000000000000100000001000000010000000011111111000001110001101100001110,
111110101111101011111100111101110010110100000101000000000000000000000000,
000000000000000000000001000000101111110000000001111111001110101011110111,
000000000000000000000000000000000000000000000000000000000000000000000001,
000000101111010000001011000000100000101111110110111111111111110111111101,
000000000000000000000000000100001101010011101101111110001111011011110111,
000000100000110100000010000001100001000000001001111101000000011011111101,
001000110010010100100000111111000000101000000100000100010001101100011000,
000000000000000000000000111111110000001011111110111010101110111000100000,
000000001111011111111111000000011110110111111111111111110000000111111111,
000000000000000000000000000000001111000011111111111101111110110100000000,
111111111111101000010011000000001111100000000011111110001111101011110010,
000000000000000000000000000000000000100111111001111111110000011011111001,
000101001010011000000011000000111101010011010111111100000010110100000000,
000000010000000100000000000000000001001111110000000101011111011100000000,
111000110001011100001011111111110000111000100100000000010000001111100010,
000000000000000000000000000000000001100000010010000110000000101000000110,
001101101110001010111111111111110010101111101001110110101110000100000000,
000000000000000000000000000000001111000111010001110111011101111100000000,
111101101110010100001001000000000010110100001000000001111100010000011111,
000000000000000000000000000000000001001111001011111111011111111101011010,
111001111111111011101001110110101111000100001101000011110001001100000110,
000000000000000011110000000000100001101011100011001001001111011111101110,
111010101110000100000000111011111100110000011001000110100001000000000100,
000000000000000011011001110000010001001011110110110100000001000100010011,
000010101111010100000010111000000000000000001010000011010000000011111101,
000000000000000000001000111110000001001011101011111101110000111100000100,
111101010000000011110010110110000001001100001001001010110000011100010101,
000000000000000000001001001000110000000100001001000101111111100111011011,
111110101111111011111111000101000000000011111101000000111111110000000101,
000000000000000011111001000100011111000100000100111110111111001000000100,
111100110000111000101111110011111100101000000001001011010000110111001110,
000000000000000000100100001000011100000100101010111110110001110111110000,
111111110011100011101000110001100000001000100010110101000000011011011111,
000000000000000000011000110110100000010100001100000000001111101111111110,
000110110000111000010011000110010000010111111011111110011110111111110001,
000000000000000011111110111101111111101100001000111111110000001100001111,
000010111111110011111000111101101111101111111100000000011111111111111011,
000000000000000011111011111101000000011100011010111111100000110000000000,
000001111100001011110010111101101111000100011111101000111110001100011010,
000000000000000011000000000101110100011100111010111011001100101011111011,
000000000000000000000000000000000000000000000000000000000000000000000000,
000000000000000000000000000000000000000000000000000000000000000000000000,
000001001101011000000011111101000000101100000010111111111110111111111101,
000001000000001111111001111101100001000011100010000000100000100000011100,
111111000000011000001000111101100010000111111110000010000000001000000011,
111101001111110100000000111110001011111011111010001000011111101011111011,
000111010000001011111010000001111111100000000010111011111111001111111011,
111110111111110111111010000011110011110100010011110010111111011000000011,
111011010000000111111111111110011111111011111110000001110000100111111011,
111110000000010000011000000000101111100100000100101101001111011000001100,
111101100001101100000110111111010000101011110110000010001111111011001110,
110111111111110000000011001101010000011011111101000001001110100100000100,
000000000000000000000000111110001111101100000110111111111111110000011111,
000100101111110100111100110011100001000011100000000011011110011011111010,
000110000001110000011111000010110000010011111101111011001110111000001100,
001010011110001111111110111000111110100100010011000010011111110100001110,
000101011101011111101011000100100001001100011011000010100010100100010110,
000011010011101000010110111000011111110000010100111100011101111111111011,
110111011011111000110110000000010000111011111100000001001100100000000010,
111111001111011011001010000111000011101000000001111000101111100110111111,
101010000001010000001000000100110010100011110010111111010001110111100100,
111110000001101100110000001001110001011000000111000000001110011100110100,
111111000000011000001010000000101110010111010111000001100010011000101101,
000000000000000000000000000110001101110111111111001111011110110100000000,
000100101111101100000110111000100000011100001111111101101111111111111111,
111010111111011100000101000101011111100011110011110110100001101111110000,
111100011111110011110111111011101111011111110001100000100001101100001111,
111001111110010000100101111111010001000011111100000000011111101100001011,
111101111110101000000011001000000000111011110010111011101111000000101011,
000100000000110100000010000101111111101000010100000101101111111100100101,
000000000001000000000100000010001111100001100000111011111111011011000100,
111111100010011111111110111110110000101000100010111100100000011011110100,
111001011110101000000101111111001111011000000111111110011110110011110001,
111101101100111000001010000011001011101011001000000111001110111111111000,
000000000000000000000000111111110000100011101000111110101110000011111010,
000000000000000000000000000000000000000000000000000000000000000000000000,
000000000000000000000000000000000000000000000000000000000000000000000000,
000000000000000000000000000000000000000000000000000000000000000000000000,
000000000000000000000000000000000000000000000000000000000000000000000000,
000000000000000000000000000000000000000000000000000000000000000000000000,
000000000000000000000000000000000000000000000000000000000000000000000000,
000000000000000000000000000000000000000000000000000000000000000000000000,
000000000000000000000000000000000000000000000000000000000000000000000000,
000000000000000000000000000000000000000000000000000000000000000000000000,
000000000000000000000000000000000000000000000000000000000000000000000000,
000000000000000000000000000000000000000000000000000000000000000000000000,
111111100000111111110010001100011111000100001110111110011110101100001101,
111000000001001000011001000101111110101000100001010001100010001011101100,
000000000000000000000000111110111111110100000100111001100001010111111101,
000010000011001101010001111011010001100000101110000101000000001100000110,
111110111101011111110100111111100011001011111100110100110010111000001101,
000000000000000000000000010101110011001001000011111101010001000000010001,
000110101111111011101001000101001111100111100011000010101110100111111101,
000000001111011000001000000001011101111000001000000110000011100000100100,
000000000000000000000000111110010010100000100101000001001111100111111010,
111111001100110000001000111111001101011111110101111100111111011100001011,
111000100000011011111100000001101101101000111000001000110001101000010101,
000000000000000000000000111101110000110011101111000011010010010111011110,
111111011111010100010111111110010000101011111001111111000000011100000111,
000001011111000111110010111101100000111111110000111010111111101000000001,
000000000000000000000000111101100010000100000010000001011111000111111001,
111100000000111100001001111100111111101111101010111110011111111111111110,
000011101110111111111011000100011110110011111111001110001111101011111100,
000000000000000000000000000111010001001100000100000000101111001111111001,
111101000010001011001101110101001111101111110110000011101111100011011100,
110110100000000100010110110011100001000011101110111101100100100000000110,
000000000000000000000000000101010100001111101100111000011111101000101001,
000010101111100111101101000011001111011100001001111011010000101000000111,
000001111011011111111001111101010000000011010000000011000001000111101010,
000000000000000000000000111101011111100100000110001000010001111100001100,
000010010000010111111100000011011110010011111011111100111111011100010111,
110100111110111000101100000000001101110010110101000100110011110100001010,
000000000000000000000000000011110000111011110111000111101111001100010111,
111101001110100000001001000000100000000000000011000010000000110011111111,
000011100000011111111001000000010000100000000110111101101110110011110111,
000000000000000000000000111100011111100000000000111111110001011100000000,
000010000001001011110100000000100000000111111001000001110000000011101100,
111111110001001000001011111110000000010111110110111100101111010011011000,
000000000000000000000000000100101110011111110011000000101111100100011101,
110100111101011011111110111101001100010000100111010010110001111011010111,
110000111110101100100100000001010010100011101111111111011101110000001110,
000000000000000000000000110111110010001011110101111110101111101111111111,
111010010010000000001010000010110000100100001010000100100000110100001011,
000110111111011011111000000011000000001011111000000010000000110011111001,
000000000000000000000000000000100000111111111110000000111110110011111110,
111010010000001111110010111111001111001100001100111101111110010000000000,
111111011110110111010000000000110000100010101100000001110000001011110110,
000000000000000000000000111110011111010000000110000001000001100111111100,
000111001101010100001000111010011111110011100101010001011110110001011100,
111101011111011000100111001011100000000011111000001001000011010000000101,
000000000000000000000000110000000010000100100100111110000010010111100010,
001110100011000100000100111000010010011100101000000010110001001100001010,
110110110001010111100110111111010000000111110111000111100010011100000110,
000000000000000000000000111010001101110111001111001011011101001111011100,
111110101111001000000101000000001111110011111001111101110000001000011000,
111011001111010011111101000000000000001011110101000010101111010111111011,
111010011110111011111011000000011111100000100110111100110000110011110111,
111101001111000011110111000101011111110100001000111101011111010111110100,
000010101111100111111000000100011111110000001000111111010000001000000010,
111011010000010100000001111100111111110100011100111100111111101100001101,
111110111110001111111111111110111111101111101011111100101111001011110101,
000011000000101100010001111110100000011000000011000000011111110000001110,
111111111111011011110101000001011110111000001001000000110000101011111100,
000010001111110111111101111110111111100011001101000010101111110011111000,
111111001111010000001011111100111110110100001011111111011111111000001001,
000100110001110011111011111100100000011000000101000001011111111111101110,
111111100000111111111000000000100000010100001110111111010000110000011111,
111111001111110011101100111101010000011100000000111011000000111011111010,
111110001111110100000110000000000001001000001001111110000000000011110010,
111110100000010011111011000000001111010100001011111111011111011100101110,
001000101111101111100100000000001101110011111010110001110010000011101011,
000110011111000111101010000100011101000011011010110011101011000100000100,
110101111111011011101101001011111110111111111111001111110000111100010101,
111111111111101100001001000001110000110000001110001000110000111111101110,
000110100000110000001111000101010001101100101101000110010010111000001101,
000110100001011100101100000000110000101011010100000000100001001000010011,
001110010000101100101101111101010010001111011010000001001110001000010001,
000111001111000000000001111011100010111011101111000011011110011011011100,
000110001111101100000010111001100001011111100000000000011111110100011011,
001010000010111000010110111100001110101111100010000010111111110100000110,
000001001100101011110101001001010000001100010000111001101101000000010011,
111000000011000100001110001000101101111100010100000101110001110011100011,
000010111111001100000110000000011110100011110101101100000011011000000111,
000111110010001000000110111100100000111111111101000000001111011100011000,
000000111111101100000110111111000001101001001011000000000000010110011011,
111000110010100000010101001101101011010011111101000101010001001100001001,
111100110000100111101010111110010000110111111001111010111111011000001110,
111100111111000111110111000000110000111100010111000010000010011011111110,
111101011111110000001111111100111111110111111001000000011111000011111011,
111001011110110100000110111100010000011000001000111000110001010011111101,
000110101111010100000000111010010000110111110100111011101111010000001110,
111001100010101000000101000000010000011111110110000011001110110100000011,
001001001111000011110001110111111111101011110101000110011110101100010011,
111101001111000000000000000000101110111111110100111101111110111111111011,
111100100000101011111110111111011111001000010101000101001110011111101010,
000000011110001111101000000011000100110011111111111110001111101000100011,
111001110000000111110101111111100010000011110111111110001110011111101111,
000001100001111111101110000001011110100111110001111100101101111000001100,
000111101111000100010001111110000000011000001011000011001110101000000101,
000001011111110111100100111101001111100111111011111111100010001000010100,
111011011110110111110011111011100010110111011000000011111111110011101100,
111111010000111011111000111100101110111000000001000011010001101100001010,
000000000000000000000000000000000000000000000000000000000000000000000000,
000000000000000000000000000000000000000000000000000000000000000000000000,
000000000000000000000000000000000000000000000000000000000000000000000000,
000000000000000000000000000000000000000000000000000000000000000000000000,
000000000000000000000000000000000000000000000000000000000000000000000000,
000000000000000000000000000000000000000000000000000000000000000000000000,
000000000000000000000000000000000000000000000000000000000000000000000000,
000000000000000000000000000000000000000000000000000000000000000000000000,
000000000000000000000000000000000000000000000000000000000000000000000000,
000000000000000000000000000000000000000000000000000000000000000000000000,
000000000000000000000000000000000000000000000000000000000000000000000000,
000000000000000000000000000000000000000000000000000000000000000000000000,
000000000000000000000000000000000000000000000000000000000000000000000000,
000000000000000000000000000000000000000000000000000000000000000000000000,
000000000000000000000000000000000000000000000000000000000000000000000000,
000000000000000000000000000000000000000000000000000000000000000000000000;
