memory_initialization_radix=2;
memory_initialization_vector=
111100101101011111100110111111111111000011110111111111110000000011111111,
111001001111011100100111111110001101111111101100111000011000000010110100,
111001111100000111010100000001110001110000010001111111101111011111111000,
000010000001100100001110111000010010001011110101000000000000000000000000,
000000000000000000000001111111001111110111111110000001001111111100000110,
000000001111111100000000000000000000000000000000000000000000000000000000,
000001011111101000001101000101010000010011100100000001110000101100001000,
000000000000000011111111000110001101011000100100111110001111010011111001,
111100011110000011101010111010001001100111001000000000110001010000001100,
110110001101001011011101111101100000011011111011111111001111001100000011,
000000000000000000000000000001110000111100001100000010101110001100001110,
111111110000110000110101000010001110111111111010111111111110011000000001,
000000000000000000000000000000000110100000011110111001110001001100000000,
111111101111011011100010000000000000110011101011001110100000010011110101,
000000000000000000000000000000001111101100001010111111101111011100001110,
000111111110101011101010001111100001000111100000010000001111101000000111,
111111110000001100000001111111110010100100110001111111010000000100000010,
111001010000000010110011000000110000100100110010000010010001100111111111,
000000000000000000000000000000000011001111011010111101101010111100000000,
000000000000000000000000000000000000000000000000000000000000000000000000,
000000000000000000000000000000000000000000000000000000000000000000000000,
000000000000000000000000000000000000000000000000000000000000000000000000,
000000000000000000000000000000000000000000000000000000000000000000000000,
000001111111101111101000111110001111100100000010001101101111001111001011,
000000000000000000100010000111111111011010110000111111010010000001000001,
000001001111111000000011000010011111010111101010000101001111101100000000,
000000000000000000011100111101010001101100000011111111011100101111111101,
000011000001001000010010111111111111011000000100000101010000100100000011,
000000000000000011111111111100001111010000011101000010110000100011101101,
111001011110111100000100111110001110101000001011111110100010000100000000,
000000000000000000010001111111110000111011111100000000000000100011111001,
111011011111010000001001000001001110011000000101111100010001110111110111,
000000000000000000001100000000000000011000000001111111010000011000000100,
111010001101101111111000000100010010010000010110000100101111111011100001,
000000000000000011111110111111001111010000011001000011011111111000000010,
111110101111110011110000111100011111110111100001111101101111101111111011,
000000000000000011111100111100101111111100001101000000110000100111110010,
111100110001101110100011010000001110001111111110000011010000100111110000,
000000000000000011101001000100111100001100100001000011111110001100011000,
110111011111111111101011111111110010001111101011110011010000010111011110,
000000000000000000110000000111011101001110011100000101111110010111101110,
000000110000001000000010111011010000000000001101000000110000010011111111,
000000000000000000000110111011000000111111110111111111010000110000000000,
000000000000000000000000000000000000000000000000000000000000000000000000,
000000000000000000000000000000000000000000000000000000000000000000000000,
000010001110000111110010111100100000111011111100110010001111101111111100,
000001000010000111111001111111011101111111100110111111100000100000011010,
111111110000010100001000101111100000010100011001111111101111010100000111,
111010011111110100000000111110000010100111111101010000011111010100100111,
111101110010100000001010111110111111110100001000111011000000000011111110,
000010111111100111111110000101100011001111110001111110011111110100001000,
111100110000010000000101111000110001010000000000000001000000110100000001,
111110100000000011111001111010001111010111111100111110101111110111101110,
111101111111000000000110111110110000100000000011000010010000001011010110,
000100111111101000000101110101000000011111111001000001100000011111111100,
000000000000000000000000111111100000010100000000111110001111100000110011,
111010100010101000111001110101100010011110011111000110101110001111110011,
111011110010101000000011000000001111101011010000111011110000111111101011,
000110001111011000100010111010111111000011100110000111001101110011101001,
111101010001101111001111000001001111100000001010110100001110000000010001,
001000011111001100101110000011101110110000001000110110100000010100001101,
111110010000100000000001111101001101010111111010111011000001110000011000,
111000101111101000001100111001001110101000011111111111111100101011111111,
110110000010101000000001001010011111111000001001110100001101110000000001,
111101110011110000011001001001100001111111011101001001100000010100011110,
001000011101110111101000111110110000100100010100000101011110111100001010,
000000000000000000000000000100110001100001010111000110011110100011010110,
111001110110110000011010000011011111110111010101110010011111000000001111,
111010001110111000011010000111110000101101011100001100011110001100111110,
111100110001001111111000010111000101010111010110110101101110001000011110,
000010010001011100000000111011010000110000000011001100101111011111001010,
000001001111100110111010000011100001110011011001011000111111110111111110,
111010101111110011100001111001000011101000011110001110001100000111010101,
001101110000000000001010111100011111000100010111000100100100100100001110,
010011100001001011111001000010101111110100011011010001001101011000001100,
000101010011001111011100000011110010010001010001111110110000000011100110,
110100101111000000000110001010111110000000000101110011100001100011011111,
000000000000000000000000110100011111001011101010111010110000000101000110,
000000000000000000000000000000000000000000000000000000000000000000000000,
000000000000000000000000000000000000000000000000000000000000000000000000,
000000000000000000000000000000000000000000000000000000000000000000000000,
000000000000000000000000000000000000000000000000000000000000000000000000,
000000000000000000000000000000000000000000000000000000000000000000000000,
000000000000000000000000000000000000000000000000000000000000000000000000,
000000000000000000000000000000000000000000000000000000000000000000000000,
000000000000000000000000000000000000000000000000000000000000000000000000,
000000000000000000000000000000000000000000000000000000000000000000000000,
000000000000000000000000000000000000000000000000000000000000000000000000,
000000000000000000000000000000000000000000000000000000000000000000000000,
111100101110110111110010111010110000110000010000000101000000011100001010,
000001000001011000001000000101110000011000001111000100010001111000011011,
000000000000000000000000000010110001010111011110000100000001001001001111,
000011110001100000100110000100111101110111111011111010001101100100110011,
111111001110110100001111110100100001010000001000111010110000001111110011,
000000000000000000000000001010001101101001001010000001001101010111101001,
111101101101101011110011111010110000011100011101000110010001010011010100,
000111011111111011100111000000010010101100010100111010000011001011110011,
000000000000000000000000000101000000000000010110111101000000110111011101,
000011011111101111101011110000101111010100000111000101111111110011101110,
000010110001000011111101110111100000110011101100000011110010000000010100,
000000000000000000000000111100110011001111100111111111001111101100110110,
000010000000010111111000111011010000101000000011111011011110011000010010,
000101000000110111101100111100010000010100001100111110000000100011111111,
000000000000000000000000000001001111100111110100000100101111010100001011,
111111000010000011111111111010000001001000000101000101000001010000011100,
111111010000100000010010111011111111101011110011111110011111000100011011,
000000000000000000000000110111100000100100100110000101110001100011110101,
000101010000101000011100000001000000100111110110001101101110100101001001,
110001101110001000000110000011010001000000000010001000110001101011101011,
000000000000000000000000000111000000010011110110111100011111111000110000,
110101000010111011100010110011101101011100010001000111001111101100100001,
110001101110000100010100101111110011101100011000110100110100010000011000,
000000000000000000000000000110001111111100000001110111011101010100101100,
000000000001001000100111000100011111000111111111000000111110111100100000,
111100110000010100100000111101111101110111100100000100001111111000011010,
000000000000000000000000000010100000011111011011000001101110100100101000,
111111110000001100010110000110010000101011100100110101111110101100000001,
111011110000101000101111000100011111111011011100000001100001110000100110,
000000000000000000000000111111000001100011000011000111001111010100000111,
111100100010101111011101001001000100011011000111111011101100111101011010,
110011101111001000001110110111000011101000001010111101100010100011001110,
000000000000000000000000111110110001001100000100110111000100100111001101,
000001100000000111101100111111111111100111110001111111001111000011101001,
000100111111001011111111001000000000110011110100000101000000001011110001,
000000000000000000000000111111101111101100000111000000111110110100001101,
000110001111110100011101000101110000111100011010111100110000000011101111,
000110111111010111110011000010101111001100001011111100010010001000010100,
000000000000000000000000001010010000111100100101000010000011011100101011,
000000110001000001000001000110101100010000001000111001001101000000100011,
111101101101000000000001110101010001111100100000110101111111001111111110,
000000000000000000000000010000001100011001001110111111001100010111100110,
110111000001110111110011000010000100000011110000000000011110000001010100,
111010101111011111111000000110000011100000011110111101010001011111110110,
000000000000000000000000111110100000101111110101111101000100010000100000,
111010110010100100000000000010011101110011100111000010011111101000010101,
110100011110010100010110111101000000111111111010111101110000001000001000,
000000000000000000000000000011001110001111101110111111001101100011110100,
000000010000001100001010000011011111100011110100000000110000111000011101,
000001000000101011111111111111001111110011110011000110111111011111111001,
111100111111001100001011000000010000110011010001111100110000100011101110,
111101000000101011110001101111110000001011011110000000111111010111101110,
000010000000001011110101000011011111101000000110001100011111001000000010,
001010011111110011111010000100000000000111101010000000100000110111100011,
111101101111101100001011000000001111011000100001111011111111100011110101,
000000111111111011111101000001111111110111111101000001110001010011110100,
111000111110011000001011110111011110110111111100000101101111111111111100,
111111011111100100000000000000010000000100011111111100000001011011101100,
000111011110111000010101111001011111110000011000110110010001100100111000,
000001101111111000011111000100001111000100000111000001001110110011111011,
111110101100000111111100110101101111010011111001111011100000001011101011,
111111011110110111111011111111100000010100011101111010110000111011100000,
111011111111101000001000111101100000010000001100111110001111111100000001,
000001001111000111110010000101011111111111111011111110001111011100000011,
000011000010010011101101111111101110111111111100111010110000000111000111,
000000110000100011110110000000010001010111110110000010110011000111110111,
000010001111101100001011111100001110111111110100000001000000100100001110,
111100011111011000010100000000110001101011110110111100110001001111101100,
111111010001010111110110000001000001000011110100000001110010001000001000,
111011111110010111111100000101111110111111110000111111000000101100000111,
110101110000100111101111111011000000110011101110111110011111101111111001,
000011001110111111101001000010101111011011110000111111100000010100001010,
111110111111000011110101000000100000011000000011111001001101011000001110,
000111011110110111011011000011010001111111111110000011101110011100000100,
000011111111111111110000111111100001101011110101000100011111010000000101,
111110100000001100001100000000011111011100000100000000000000000011111000,
111010110000010000101011000001111111111011111011010011001111001111110111,
000000101111100011100001111011100000001000000011111100011110110111101011,
000001100000011011111010000100010001110011100110111010101111000011101000,
001000011110111000010010000100011111001011101111111111110010100100001001,
111100100001111111111110000011100001010111111110111110100000010000110000,
001100011111011000100100111110100000000100010100111110100000001100011111,
111101110001111111111000111000101111011111111000001011100010010011101101,
000100011111011011110011000000010010011011110000000110011111010000001010,
000100001111000011110100111111011111010100000110000111110010111000000001,
001001101110100111111101001011010001000111101010111011101101100111110011,
110111111110001100010101110100000010100111110011110101101111000000011010,
001011110000011000010011111110000001100000100000000000010000000011100110,
000001011111101111011100000011000010100100000100111101010000100100000111,
000011101110001011111101111100110000100111110101001010011111011111001010,
001001001111011011110010111011101111110000000100111100110000010100000010,
000001111110011000011001111110101111110011110111000010001110001100000110,
000010100000111110110110000110101111001011110011001110010001101000001000,
111110100000111011101110111001001101111000110011000010010000100000010010,
111101011110101100001011111100100001111000101111000100111111011111111001,
010001111100101111001111111010110000100111111000111001000001010111101100,
000000000000000000000000000000000000000000000000000000000000000000000000,
000000000000000000000000000000000000000000000000000000000000000000000000,
000000000000000000000000000000000000000000000000000000000000000000000000,
000000000000000000000000000000000000000000000000000000000000000000000000,
000000000000000000000000000000000000000000000000000000000000000000000000,
000000000000000000000000000000000000000000000000000000000000000000000000,
000000000000000000000000000000000000000000000000000000000000000000000000,
000000000000000000000000000000000000000000000000000000000000000000000000,
000000000000000000000000000000000000000000000000000000000000000000000000,
000000000000000000000000000000000000000000000000000000000000000000000000,
000000000000000000000000000000000000000000000000000000000000000000000000,
000000000000000000000000000000000000000000000000000000000000000000000000,
000000000000000000000000000000000000000000000000000000000000000000000000,
000000000000000000000000000000000000000000000000000000000000000000000000,
000000000000000000000000000000000000000000000000000000000000000000000000,
000000000000000000000000000000000000000000000000000000000000000000000000;
