memory_initialization_radix=2;
memory_initialization_vector=
001000100111011101000010001001110111111101010010111111101111111011111111,
111010011111000100100110111111001111001011111010000100100111000000101011,
000110100100011000101100000000010000100100000100111110011110010011110010,
000000100000100100000110110001100001101111010101000000000000000000000000,
000000000000000000000001111110011111110011111010000111110111111101000110,
000000000000000000000000000000000000000100000000000000000000000000000000,
111100111111011011101111001001010000011011011000111111110000010100000000,
000000000000000000000000010101101100011000101101111100101101001011101000,
000000001110100011111000000100000011100000100001111101011110111111110111,
111110101110011011110101111010001111100100001000000000101010110111110011,
000000000000000000000000000000100000001100000000111011111110010000111101,
110011111111101000000000000010110000100100011011000000111111110000000000,
000000000000000000000000000000000000010100000001000000100000011100000000,
010011100101000011101100000000000000001011110011111111000000101110000010,
000000000000000000000000000000001111110111111111111110111111111011111110,
000111101100111000001101100110000001101011111000001100011100010111111101,
000000001111111100000001111111111111101011011101111100110001100111111111,
001000010000100100001010000000001101111100110101111000100001010101000001,
000000000000000000000000000000000011011101000111111110100000110000000011,
110100111100101000010010111101010001000100000101111110001101011011111101,
000000011111111100000000000000001110101001000111000001011111100100000000,
000000100001011100011000000000000001001011100010000110000001110011111110,
000000000000000000000000000000000001111010111000111101000010011000011101,
111111001111011000000100000010011111011111101110000001011111110100000011,
000000000000000011111101000000100000011000000011000011000000100100000010,
000000110000110100000011000010111110110111111001000000001111010000001000,
000000000000000000001011000001100001001111111001111101101111111111110001,
111111101111101111111110111101101111100100001001000000010000001100000110,
000000000000000011111000000100110000101000001010000001101111111111110101,
000001000001000000000011111111111111001011110010111111001111110000001011,
000000000000000000000001000001100000011011111000111101111111110011111111,
001001101111011111101000111101011110111100100000000011001111010100000101,
000000000000000011011101000100000100110100110001111001010001000001001111,
000000101111100100000011111111010000000000000010111011111111110100000100,
000000000000000011110100000000000000011100010000111111011111010011110110,
111011011111100111111100111010011110111000001001111111100000111111111011,
000000000000000011111110111111100000110011110101000011100000000111110111,
111110011110001100100010111010100010100000101011111111000000001111000111,
000000000000000000000111111001000001001100010010000100010000110100000111,
000010001111110100000010111110101110111000001011000001010000000100010100,
000000000000000011101110110101100001011100101111111110010000011011110001,
000101111110011101101010101100010010101000000001000000001111100000001001,
000000000000000000100000111111100011100111100010111100110010000111101000,
000000110000111100000101111010010000000111101000111101100000110000011001,
000000000000000011110100111111011111000111111010000000111111101000011110,
000100110010010111110101111101011111011100010111001110101111100111110001,
000010100000110011101111011000000101101110101001111011000000110000010110,
001010100000111011101001101001110101100011100001000110011110010111011110,
001011011111010111110011001101110101111111101110110101110010000000110100,
110111111101100100000101000101001111001000001001101010001111001111111011,
000110101111100111110010001100011001000111011000111011101110000000001101,
100011110000110100001100111110001101011011101011000011111000001011111000,
111010100000111011100000000011001111011000111100001011001110100111111000,
111011001111110110111111111111101110110111101101111011001111010101000001,
001111011111101000001101010110100001000111101100000011101111110100000111,
000000000000000000000000110010111110110000001011111110011110101101011111,
111101001111011011010100000001010000010000010000000000011110110000000001,
111011011111100011000100111011011110101000010011001000100000111000000011,
000110111110101000111110000100000000011000011110110110111101010100001111,
000111010001011111110011000101101111110011001001111011011111010011110111,
000011110001000011110110111011101111001111110111111111000000110000010001,
111101001111100111111001001001001100100111100101111010001011001000110111,
001110011101001011011110111010101110111100101010001010101010111111101001,
000100000000001011110010001110110000100111010011101100100001000011101011,
111100000001001000010101000111000010110011100101111111111111111000100000,
001011011111101011010001111000011011011000011101001101111111101100001100,
000000000000000000000000111011000001000011110100010000001110100000100010,
110010110110111110101111111111000001011011010101000010100010110100000001,
110010010001100100010011111110111111100011011011110111011110001000000010,
111100110010011111110010000011111111110100001111111111011110000100010010,
111011100100000000000001110111001110110111101010110111100001111000100001,
110100100000001011111011111100101111100111000010111111111110011000011001,
110011011010010110100001111111101110111100000110111000101100101011111001,
110101100010000011111101110011100000100000011111010000001111111100001110,
111101011101100111010101101101001111111100001001111110101101111111101001,
000010011011001111101011000001100000001000010101000100001111101011110000,
111111011111111000000110000000101101000011100110111011000010011011100001,
000000000000000000000000000000111110011100011110101111010000110011011100,
110101110000011111101001000000110000011011011100000011111110101100100100,
111111011110110100000001111100001111010011111110111110001110010100000010,
000010010001111100000011111010011110111111100110000000011111010000100000,
000110010010100111110111000110001110110000011100000000101110100011110011,
001010001101011011111001111010100011001011101110111110000010111111110110,
110101011101111000110101111000010000111011101100111011101110011011000101,
111010010001011011000100000000011111000000011011101111110011001100000000,
000011000000111001000001111111111111110111101110001101010000101111001101,
000100000000101000011010001011101111101100000001000000010011111100011000,
000100001110111111010101111111100000010011100000111000111110000000110101,
000000000000000000000000001001000000110111001000110100110001111011110011,
111101100000110000001000111111110000010000000010000011110010000011111100,
111100011111100100001101111110011111010111110011111010000000000111101001,
000000000000000000000000000111011111001011110100111011001111111100001110,
111011101110000100001101111000111111111111101001111110010010011100011010,
111111111111110000010110110100011110111011011101111001001110000100001011,
000000000000000000000000000100000010001100011111110110110000011100000000,
111010000001110000011110111000000010010100100111001011011101111000000001,
111100000010010000001010001100011111111011100011110001111100001100010011,
000000000000000000000000010000000001111111100001111011111111000111010010,
110100111110111100010001000000010000010000001011111000001101101011110110,
000100000000010000001101000000011111110100000101111111001111010100101110,
000000000000000000000000000000000010011011111011001001000001000100100111,
111100000011100011111001111001100000100111110100000011011110111111011001,
001010001111011100001101001100110000110111110010111001000001100100001000,
000000000000000000000000111111001110000100000000000100010001001011101000,
000000110001001111101101111001011100001000100100111011111101010111101010,
001001110010001100100101000100011110100011110100000100100001000100100011,
000000000000000000000000111101111100100011110101100010010011100111010100,
001000001101011000000001001000001111100000010000111010010000011111100000,
000011000010001111110100001000101011110100010010111110011111011100000010,
000000000000000000000000111010010000001011110100001001000000010111110011,
111110001110010011111101111111111111101011110100111101000000110011111101,
000010001111110011111100000110110001001111110100111001100001110011111011,
000000000000000000000000000100000001010111110111111111011110101011111111,
001110111111001111111101000011111110101111011000110101001111000111111111,
000110011111111000000011000000111100110111101000111110000011111111110110,
000000000000000000000000001101010010000000100010111110001101101011101101,
001011010000101000010110111110010010000011111000000010010000111000000001,
000110001110001101010000111111000011100000010101000001111111000111110001,
000000000000000000000000111100010001000011101000000100011101010111111001,
111101001111101000010100000011010000011011110101110011011111000000100011,
000111110000010100010110000111100000001111101011110010100010110100110000,
000000000000000000000000001000001111101011010001000111011110110111111000,
000000010010001111111011111110100000100100010000000101000000000111111010,
111111000000110100010110111010111111110111111011111111001101101111101010,
000000000000000000000000111111011110000111111111000100000000101000001111,
000101001111011111111011000010010000110111101100111000011110101011111000,
000100001111101011101011001011100001101000010000000110100001111111111001,
000000000000000000000000111101100001100011111101000100011110100011111001,
111000000000011000010001001100101101010000010010110110000010000111001011,
111011001110111100001110000100101111100100010111111000101110000100111110,
000000000000000000000000000110100001010000001100000000000000010100011110,
111000000000001100000111111111010000010000001010000001011111001100000001,
111010110001000111011000000011111111101111001010111110000000100000001001,
000000000000000000000000000010000000010000010100000011010000110011111101,
000100111111101111011101111000110000000000101010001001111100101011110110,
000000011111100011100100000110101111010000011001110110011110000011100111,
000000000000000000000000000110110010011100001000111101101111101111110001,
010001000011000111100001001110110010000000110100000101001100010111111011,
101111110000000000000010000101010100001011111010111010011011111001011111,
001111110100000011101011010001111111000101101010111110000011100101001000,
101110100100011000110101100111000000101101111101011100110001111100000000,
100101000010111111011101101000110011000110101000100011100010110110111111,
101111100010110011000011000100010000101100001110001010101001001001000001,
000010010011001110111011000001010000000000000001001001100100001100001101,
101010100000100111111001111100001000000011010101101111010100101011111001,
110111001010001011101001110110000001000100000011111000100000010111101110,
000011100100010010001110010010010010111001010010110010010000101001001010,
010010010111111111110000010010100011101110110100010010100000001001011011,
111011100000001001001001011001001111110111010011111110110011001000001000,
111011001010100101010000110101001110011000000101001000111010110011010100,
010001110010010000111110111001101101010100011101010110001110101001000101,
010110000011000110011111001101001101011111000110110000111110111000111111,
111001100101101100010001110010000011011111110011001010010101010011001110,
000011001111111111111010000111010000010000101011000010001111010010111101,
000110001111001111101111000011101110111000011101001101111110110000000011,
001001110000110100000000111011011111001100000101111100010001011100001111,
001000001111010100001010000111000000011000001100111100101111110000100101,
000010000000010000001010000011111111110111111110111111110010001011101011,
111011000000101100110110000110101110101101100001000000010000100111011011,
000010111100001100010100110110100010000001010010000100000010100000000000,
000010010000110100001100111110011111111011000100000001010000101000100001,
111010010000111111111000000110000001110000000110000000010000000111101001,
111010100000000111110111111010110000100000001011111101111110110111110100,
000000111111100101001010001000111111001100001010111110000000001100000001,
001010011100100000011011000101000001011000001000000011111101110100000110,
111011101111011100110110111111110010011111111101110100100000111011111010,
000100111111101111101001000010110000100111100010111010010000010011111110,
000001010000110011110110000001100001011011110010111111100000100111111001,
000110110000100100010110000101111111000100011100110100100000001000010100,
000000010000001111111100000101011111101011111010000001101101010111100111,
000100001101101100000111111010100000010111101100000101001111100100100001,
111101101111111000001101000011111110100111100110111001010000111000001100,
000110101110100011101111111110100000011100001010000010011111101000011111,
000010100000001011100111111011100011000100001010111111101010111011111110,
000000010000001111110110110010101110011100101100000011001101011111011111,
000110010001010011111101000110000001001100111111000000010001111000001100,
111100100000000011111010111011111110010000010111000010110000111011111111,
111011010001101111101000000111010000101011110001000001100000011111010110,
111111100000000100100000111011011111110111110011111011010000101111111101,
000011110010100000100111111001101111011011110000000000000000100111111100,
001001010000011111110100111010110000100100010101001001001101101111111011,
111011100001011011111100000110010001001011101110010011100000000111111000,
111010000001011011111000111110001111001011011100000111000000110100001001,
111000110000111000001100000001100000101000010000000010001111111011100011,
110010111110000100001101111011101111010111101101000111000000010000010001,
000001110001000101111111111110010001010011111001111011010001100000100010,
111110100001110111111110111010100001100000011111001101000001011111011100,
000100010100001100010111110010110000101100100110101111011111010011101101,
111100001111011111001110111100111110101000010011000001000001100111100111,
000111011111111110111001111110101110011011110100000001110001000000010010,
000000111111010111010001000011101110100001000100111010111111111100011011,
000000001111111011100111111100011111000100111011000010000001101111000000,
000000001111001111110010111110110001010111100011000100110001000000100011,
111111101111000000000010000010100000001011110011001001011101110011011111,
111110010001110111110010001011110010110111101010000001011111111000001011,
111100110000010100101010001010101111101011110011000001011111101000001100,
111001110000010111111000000110010010010000100110000101000010001000000010,
000010100001100011101011000000001110011100000001111000111111110011110000,
111101011110011111101000110111000001001000010010000110011101001011011011,
111101110000011100000000000000011111100111100010111100111110100011111000,
111101111111001000010001000011111101101111000001111101100001101111110101;
