memory_initialization_radix=2;
memory_initialization_vector=
001001110111111101010010110111111000000111000101111111101111111011111110,
111010011111010000100100111110111111000111111000000100110111111101000011,
000110100100001100101111000001000001000100000111111110111110011111110011,
000010110001100100010010111100110011101111111111000000000000000000000000,
000000000000000000000000000010000000000000000000111111001110111011111000,
000000000000000000000000000000000000000000000000000000000000000000000000,
000000110000001100001010000110000000011111100111000000010000100100000011,
000000000000000000000000000101111011110011111101000010101111111100000101,
000000101111000011111010111010111011111111011101000000010000100100000001,
111100101111000011111000111001111111010011110010000110000001001000011000,
000000000000000000000000000000110000010100000010111011101110001100101100,
000000011111110111111100001001101101000111111111111111010000001111111111,
000000000000000100000000000000001111000000000010110110000000110000000000,
111101111111110111110111000000000000001100011001111110010000010000001100,
000000000000000000000000000000001111111000000111111111101111111000000010,
111100010001100011100010010001110011101111111000001000000000110111111010,
000000000000000000000000000000000000000011011110101110100001010100000000,
000001110000010100101000111111111110000101000101111010010011001011101000,
000000000000000000000000000000001110101011100111000011100011011100100100,
000000000000000000000000000000000000000000000000000000000000000000000000,
000000000000000000000000000000000000000000000000000000000000000000000000,
000000000000000000000000000000000000000000000000000000000000000000000000,
000000000000000000000000000000000000000000000000000000000000000000000000,
111111010001011111110110000101000000001011111011000010100010000100000010,
000000000000000011101110111100100000101111111111000111100000000100011111,
000101101111110100001111000100110001111100011111000111100000110000100111,
000000000000000000010010000011011111101111100110111001011111010011111100,
001011100010100011110100111011000010100011111000001001011010110011111000,
000000000000000011001010111011110000100111101000001111001110010011111001,
111001100100011000100101000111000000001011101000001001010010011000000101,
000000000000000000011000110001111100110000000010001111100001001011000000,
000000110000000100010000000100111111101000000010111101110001010111111000,
000000000000000000000010111110110000010000000100111110100000001000001100,
000011011111000101100000110011000001111011111111111101011111011000001100,
000000000000000000011000111101110010111011100011111100010001100111101101,
111101111101110100100111001000000000000111100101000010010000111000001110,
000000000000000011110101001011110000000011110010001011111111101011101001,
000001000001001011101101000101010000101100000011000000101111110100000100,
000000000000000011110100000100110001001000000001111000000001111011011010,
000001011111100000110111111010110000001000000111111111001111100011111111,
000000000000000000001101111110000001111011101110000001110001000011110111,
110001010001111000000010000001110011011100010010111011101111000111101000,
000000000000000011000100000111111111001100001111110111110110101111111000,
000000000000000000000000000000000000000000000000000000000000000000000000,
000000000000000000000000000000000000000000000000000000000000000000000000,
000010100001101011110110111010010010010100000111111011001111000111110110,
000010000001000111110000101111000011111100111100000000000000111010111110,
111110000000101100101000010011011101110111100011000010011110110111110011,
001001101111110011111111000111010001000111110100100100010000001000100000,
111011111101110100101000000011011111001000001010001000111111001111111011,
000000001111110011111000000111011000010001010001010101011110100000000111,
001000100000010000000011111010101111000111111100000011010011011111111011,
111100100000011011110110000011101111100011111000110101011111001011110001,
111100010000000000010110111110110000111011110011001001111111100110100110,
111110111111101100001000110110110000110111110110000010001111111000000110,
000000000000000000000000111101011111111000000110111110001111001010101101,
010001110010011100010110001001110000101011011010111000010001001110111000,
111111110001000111001011001001011101000000110011001010110000010100001101,
000100110001111000100001111110100000010111110111001011100000010011101111,
111010001010001101100100000010010001111000101101001111100000110000000011,
111110101101111100010000111110111110000010110011000111000000100100000000,
111111011111001001001001111110010010100011100001000111000001100100110000,
001011011101000111101101111100000000111100010011100111000100110111110000,
110111111111111100010101111001101111000100011001010010000011101011110010,
111010011100111000011111000000111111100111110110110110111111001100100010,
000111011111010000000100111000111101001011111110001100011101101000001111,
000000000000000000000000000101011111110000101010110011001110101000111011,
111110000001000100001110000001100000000001101101000001110001001111110111,
110110111111011100000111000100101110110111101100111000011110111111110010,
000101111111100000010001111101101111011011110001110111101111011111111101,
111010111111111100000010111000010000011000011010111110110101011111111100,
111110101110000100010000100111010000001100010011111110000000011010100111,
111011000001101100000100000110110000011111111011000000011111110111110111,
111001110010000100011110111001011101000000011101111011000001100111000000,
000100011011111011111101111110001111011111110010000101101110111000010001,
111001010010101100011011110111110000110100001100000110001111010000010011,
000101010000110111110110000010001111110111011110000001110000100100110111,
000000000000000000000000000101001011111100100101111101000000010011101110,
000000000000000000000000000000000000000000000000000000000000000000000000,
000000000000000000000000000000000000000000000000000000000000000000000000,
000000000000000000000000000000000000000000000000000000000000000000000000,
000000000000000000000000000000000000000000000000000000000000000000000000,
000000000000000000000000000000000000000000000000000000000000000000000000,
000000000000000000000000000000000000000000000000000000000000000000000000,
000000000000000000000000000000000000000000000000000000000000000000000000,
000000000000000000000000000000000000000000000000000000000000000000000000,
000000000000000000000000000000000000000000000000000000000000000000000000,
000000000000000000000000000000000000000000000000000000000000000000000000,
000000000000000000000000000000000000000000000000000000000000000000000000,
001111110000111111111001111110010000111011111010110111100000101011100101,
010001111101010111111011000000100001110000110001110111101111100000000100,
000000000000000000000000111100110001111011101000000000100010001000001011,
111011001111111000101000111111100001111011111001111011110100010011110110,
001000101101110000100000110110110010101011001011000110010001010111101111,
000000000000000000000000000010111110100000000001001001010010000100010101,
111100100000000000001001000100110001100011110100000001010000010100001001,
111101011111001111111111000000010000101111100111111100100000110000000011,
000000000000000000000000111100100011011100010100000110011111110011101100,
101111101111001000000100111100101110110100010001111110101100100100000010,
111011100010101010100001000000111111001010100111000000010000110111110110,
000000000000000000000000000001111111001000001111000011010010000011111101,
111110110001000011110111110110110000010000110111001100011011011100000100,
111101110001000111110011001100101101101100001010110011111100011100001001,
000000000000000000000000001011000001011111011111110001001111010111001000,
000101000001000111010000110111100100111100101010111011101111100100100001,
000110110010010011010110111011001111001000110011000110010011100111100010,
000000000000000000000000000010011110010100011100000100111111101111111010,
000010101101110011110111110110011111100100010100001000110000000111100010,
000100111111101111111001111111100011000011111011111110100100000011100010,
000000000000000000000000000110010001101000100110111101101111011111101000,
111111010000011100000101000001011111011011011010000101111111011011110101,
111100010011011111101000000000110000000100001000111101001110001100001111,
000000000000000000000000000000110000110100000011111001001110110111110011,
111111010000011111111100111111001111110011111101000101101110101111111011,
111100010001111111110111000111001111010000001000111010101110100000001110,
000000000000000000000000000001110001011100000000111001111111011111110100,
111100101111001000010110000001000001111100100001111111000000100000001100,
000010110000100111111100000101000000111111111000000110111110010111111110,
000000000000000000000000111011011110000011100011001001001111101011101001,
111110000000010111101101111001111111100000000101000100101111101011110101,
111100100000001100000111111010100000001000000100111101010001110000000010,
000000000000000000000000000000010001001011101010111100100000010000100000,
000000001111100011110001111010110000010000010011000100000000011011100110,
000000110000000011100110111100110001001100010100000000100000111011100011,
000000000000000000000000000001010000100000011110111101001111110111110011,
111101011110111100000110000001100000000100001100000111100000111100001010,
111101011111001000010011000010001111101011110101000100010000001111101110,
000000000000000000000000111101000000010100001011111110010000011011101111,
111110110001000000101111111111101111010110111011111101101110111111100001,
000011000110010111100111111011100011000000001101000111000001010100011001,
000000000000000000000000110101111111011000001111111011011110101100000010,
110101110010000111100111111010101110010000010111110010110001110010101010,
000000011110101111101100111100000000000000011010111001001111000100100011,
000000000000000000000000000100111110001000100001111100101101101111001011,
000110100000001100000011111110011111111000000111111111111111100011100100,
000110101111110000001101000000011101101100000001111111010010000000001111,
000000000000000000000000000110110010111100101110111010100000101000000100,
111101011110100000000111101111110001001011100000001110001110101111000111,
010001110000101100000100000011001110111000000010001000110001111111010111,
000101111111100100100001111111100000011011101011001011111011100111111010,
010101111101000111100000001011110010101111100111111000001101011011100111,
010111010000010111100001110111111111100111110011111111000000110100001010,
111011100000111011111100000001010001100111110010000100001110111111101001,
111100110000000111110100111111111111010111110010111010000000100011010100,
111110000010110000110110111001110010011100000000000101101110111100000110,
000110100011000011110010001000100010111100010110000101000011000011100001,
000100010000001011111110000100001110110100000111111110100001010100000100,
110111010000001011001001000100010001111000101011000010100010011010001101,
001100001101100011100111111111001111000000011111000000101111000111110001,
000000100010111000000110001001111110100100001000111000101111000011111011,
000010001101111111100101010001000010110111001011111101100011100111010111,
111100001110100000100110000000010010010000001111111110111101111100000001,
111101110000100111101111111001110000010111001110111100001110011111111010,
111100000000001000011100000001101111010000101011111110001111101000110001,
111110011111110111100111111100001111101111111101000000101110011111111001,
000000101110110000010110110111111111011000000110111110011110111100001100,
111101011110111111100000000110101110111100000011111111101111100011100011,
000001110001101000001100111100010011001111111100111011101110111011111111,
111110110000010011011010111100010000011111111000000011010000011111111110,
111110111111000111110010000100100000010000000010111111001101100000000011,
110111111111001111111011000011100011000111110000000101100001101100000011,
111110010000011100000001000001111111110000001100111101111111001100001100,
000011111111110111001110110100100000010100010001000101100000101100010101,
111100001111001000001100111101110000000111111000111100100000011000101000,
000000001110011100011100000100111111101100011111111010001111110011110010,
111110100010000010111111000011010000101011111110111100111110101000101010,
110101110000010111111011000000001111101011111101111010001111100100000000,
111110110000111100100000110110101111011100011001111110100001111100001100,
111101100001001100010001000101001111111111111110000001010000100000000111,
000001101101111011101011000000101110111000001110000001111111011111110101,
000001000000011000001100000000110000100100010011000110101101111111111100,
000010111101111000000010111011111110000111110110111110110000011100100000,
111110100000101111110100111111001111110100000010111111010000001100001010,
000101110001000111111110111101010000100011101010000010100000100000001011,
000000010000001011110101000111000000000100001001000001101110111111110100,
111100111111011011111100110101101111101100001001000011101110110100000010,
000000111111100000011101111101010000010111110100000011010000101000001100,
111100110001001011110010000011110000001000001011000010110000111011111100,
111101101110001111101101000100111110101011111010111010101111001011111111,
000001110000011011111011111100100001010000001110000100101111101000000110,
000010001111101000001000000001110000010000010011000011000001101011011001,
111110110000111011110011000011000001010011001111001100011111101100001010,
000011100010110111111000111101010000001100010101000001101110111011101010,
000001000001010000001011000001111110111100001100000101110000111000010010,
001001111110111011101011111101000000010011110111111101011111011111110101,
000000000000000000000000000000000000000000000000000000000000000000000000,
000000000000000000000000000000000000000000000000000000000000000000000000,
000000000000000000000000000000000000000000000000000000000000000000000000,
000000000000000000000000000000000000000000000000000000000000000000000000,
000000000000000000000000000000000000000000000000000000000000000000000000,
000000000000000000000000000000000000000000000000000000000000000000000000,
000000000000000000000000000000000000000000000000000000000000000000000000,
000000000000000000000000000000000000000000000000000000000000000000000000,
000000000000000000000000000000000000000000000000000000000000000000000000,
000000000000000000000000000000000000000000000000000000000000000000000000,
000000000000000000000000000000000000000000000000000000000000000000000000,
000000000000000000000000000000000000000000000000000000000000000000000000,
000000000000000000000000000000000000000000000000000000000000000000000000,
000000000000000000000000000000000000000000000000000000000000000000000000,
000000000000000000000000000000000000000000000000000000000000000000000000,
000000000000000000000000000000000000000000000000000000000000000000000000;
