memory_initialization_radix=2;
memory_initialization_vector=
111111100001000100001001111111100000111011111100111111110000000000000000,
111111011111100000001010000000100000001000000010111110011111000011110110,
111111110000101100000011111111111111110011111111000000011111111111111110,
111111110000001100000001111001010011001111100011000000000000000000000000,
000000000000000000000000111110010000011100000010111001001000000010111101,
000000000000000000000000000000000000000000000000000000000000000000000000,
111100011101110011011110000010010000101011101110000000001111111100000000,
000000000000000000000000001000011100011100011000000000001111010011111001,
000001100000001000000101111111010000011100000100111011101111111100001000,
000001010000010011111110111110001111101100000111000010011110110100001000,
000000000000000000000000111111100000000100000001000010001111010000000100,
000001011111110000000101000001000010101011111110111111111111111111111111,
000000000000000000000000000000000000000000000001001010011111101100000000,
111111010000000100001010000000001111111011111111000000001111101011001100,
000000000000000000000000000000001111110011111011111111100000001111111111,
000100100000111011110101111111100001001111101111100101100000010000000011,
000000000000000100000000000000000010010111101010111111010001100000000000,
110110110001000111101001000000001110111111111011001001110100110000010111,
000000000000000000000000000000001110111100101011111110011110100000111011,
000010111110010011101110111110101111100011110011111100010001011000000010,
000000000000000000000000000000001110110000001111000010000100010000000000,
000101111110111011100011000000001000000011110111111111011111011011111000,
000000000000000000000000000000000000011111110111111010111111011100001110,
110110101110101111110000110010101110001100010110000101000000110100001001,
000000000000000011110001000000000000110011100100000011001111011011011100,
110010000010001111101101111101010000011110101001111110111110010100010001,
000000000000000000000001000001010010111000010010111101100011010000011100,
111111110001100011101111111011000000100100010001111100100000001111111001,
000000000000000000010000111010100000100000000011111110110000000000000000,
000000110000011000000010111001011111111011110101111110000000100000010111,
000000000000000011110100111111001110010011111101000001100000000000100000,
000111110010001000000010111101011100110011101110111011001111010000110000,
000000000000000000001110000010111111111111100101111011000000000111110101,
000011111111110000110110110110100001011000000100111111011111000100001111,
000000000000000000010100000000110010000111101111111011110000111011110111,
000001010000101011110101111101110000001100000010000010101110100111111100,
000000000000000011101010111110100000011011110101000101111111011011111001,
111101110001000000011001110010011101011000001111001011110001010011110000,
000000000000000000010011010000111111100101000110000110010001100011110011,
000000110001001000000111111110001101110111110001111101001110100000111001,
000000000000000000000101000100011110101011101110111101001111111000010010,
000111110000101100000000000001010010001111101001000001011101000100001001,
000000000000000000000001111111001110111100001100111101101111100011111001,
001000110010011100010110000011000000110011111001110110011111100011000010,
000000000000000000110111011000000000010000000011001111000000111000110001,
000010000000110111111100001000001110100100001010111110001111101011110011,
000100001110100011111000111001101111101000011110111100100000000100101001,
111101110000010111110000000011011100110011111101000010011111100011111000,
000010111111011111110100000100011111001011110000001101110000111000101101,
111011001110011111100101000010111111101000000101001001111111100011111011,
000100101111110011110111000111101111011111010001110100011111011000000111,
010001000000010100000011000011111110100111110101000001100100010011111101,
111110100001000011110001000010101111101011001001111111001111000111111010,
111101000000001000011111111111011110110011111100111001011111110000000101,
111111011111110100000110000100100000011111111001000001010000001000000110,
000000000000000000000000001100111111100000000111111111001111001111110111,
000101111110000000010001001000000000010010100101001001100010110000000101,
000110011110111100011111111011001110011011100101111101010000100111110101,
000100010001101011100111000000110000100000001100111111110000100011100011,
000010001101000100000010111000101110001100010010111011000010000111111110,
000000011110101000000010000100001110110111011000000001011011111000111100,
111100010001101100001101111111000000100111101001110100111111111011001001,
110011000000010001011001001100101110001100010110110111000010001011011111,
001101110001011100001101111101010011011100010000001000001111110011110110,
111100000001000100010101001101101110100011101010000010001101000100001111,
111011110000101100011001111000111110100100011111111001000011000111100000,
000000000000000000000000001011010001000011111100110111010100110011010101,
111010010000100000000001110100110000010100110110000010111111110000010011,
001011010001110000011011111101110010001100011101000010010011011011110100,
111111011100011011100100000101010001011111101010001001101100011100000000,
110011111111100100000111111101011111010111011100000101011110001100001100,
111000111011000111101101001010010001000000110011000111011100010011111001,
111000101101111011001110000101100010101000011011000001010000010110111000,
111111101110001111011101000101001101001100011001001010000001111111100000,
111001110010001000000111000111110001010011111110000110101111110111100001,
000100101111011111011000110111110001100011100101111011101100111011101000,
110100000001001100110001001001110010100000100001110000101100100011111010,
000000000000000000000000111001111111110101001000001110110001111100000011,
000101000100100011001001000011100011110111111101111001111111001100000001,
001000010000111111000111000111100000101111100110111101110000111011011100,
111011100000111100000100101100011011010000001010001101100001110000111001,
000010011110010000001110111011100001100000100100000011001111110000001000,
000010011110111011110011001100000010110111001011101111111110011000001001,
000110001101100100111010000100111111011100010010000110001101011100100101,
111110101111011100010011111101101110100111100001110100111111001000010000,
001111000001000000000000000000011111001000101010111100110011110000000111,
000000010010111011111010110101011111111000101000110011011101001111110101,
000001110000011111100111000010000000011111100011001100100001100011100111,
000000000000000000000000000000010000010000101101110110010000011111111011,
111100101111001100010001000101111111011111110001111011000010111111110111,
000001101101111100000100111010010000110011011001000111110001011111111011,
000000000000000000000000111101001110101000001100000100010001101000010011,
000001000001000111100111000001101111111000000001000001011111001111101010,
000000100000110000001001000110110000001100001101000111100000001011101110,
000000000000000000000000000011111101000011111001000001100000011100010010,
111000100010011011010110110110101101001011110011000001001101001000010001,
110100011101110100000000110110110011011000100101111110110011001111111101,
000000000000000000000000000001111111111100001010111001011110001000100011,
000111111111110011101110111011110001011000011011000001101110000111110110,
111110011111110011000001111101000001010000100010000011110011110111110111,
000000000000000000000000111100000000000100001111000101111110101111010100,
101010101111101111111111110111100001011100111101001101110001010011111001,
111001011110111111101101000000100101100100100110111111111111010000000111,
000000000000000000000000110111111111101111100011111111000010100100100111,
000001111111111111101101000010101111111100000011111111111111100011111110,
111101110001000000000111000011101110110000001100000101100001000111111001,
000000000000000000000000000001101111011100010010000010001111101000001011,
111101101101000111101000000001000000001000000100111101000001011000001110,
000111100000010011101001000011000001110100001000111000110011001000011110,
000000000000000000000000000110010001001111110100000010111110110011100001,
111101001111100111110111111110101111100100000111111101100000111111001000,
111011111111010111110110111100101111110100000101111101101111100011110101,
000000000000000000000000000100100000001111111111000000001110100011011001,
000110100000111100000011000000000001011100000011000000000000111011111011,
000011101110100100110011000001110000100100011100111111011111101011111110,
000000000000000000000000111110110001010111111100111110001110111011110100,
111011000001011000011000111000100000011000010111000111101101111000011000,
000101100000011100010110111000010001100100010011111010001111111100011101,
000000000000000000000000000000010000101100001011000111100101001000010010,
000000101111110100000100111101100000011100011011000011111111100111101111,
000101100000000111100101000000100010100000011110111110100000111111101110,
000000000000000000000000000000010000011000100100000000110001111100011111,
110111110000111000001110111110011110100111100101000101101110010011100101,
111101010101110011010101000010100000101111100110111101111110010000011010,
000000000000000000000000000011001111110000000001110100001111111111101100,
001110010000111100110011001000101100110011101100110101100000000000110011,
000110010001010100110011111001101111001011010010100101111111001111111011,
000000000000000000000000010011001100110000110110000110001110110010111101,
111101100001001100011011111110010000010111111011000001101111010111111011,
111110110100001011111000000100110000011000001100000000000000101000100010,
000000000000000000000000111101011111110100010010110111101111011011101111,
111000100000100000010111111101111111001011101110000010101101110111110000,
111110100101010011011011000000100000010111101100000000101111110100010011,
000000000000000000000000000001011111010011110111110110100000001011101010,
001000000001010000001000000000000000010011100101000011010000101111101111,
000101000000011100100011000000110001001000111101111100111101011100001011,
000000000000000000000000111011010001010111100110110101011101111011101100,
111111011111110000000101000001000000101000000110111001011110111011011111,
111110001111110000001011000100111111011011111111000100010010000011001100,
111100111111010100011001000001001111001111101001001000100000110111110010,
111011101111110111011101000001111110110011101010110111110001100100100001,
000110101110001100101111000001101111011011111110111111100000010000101100,
001010011101101000001001111111101101011011110111111000110000000100011001,
111110100000110100000100111111011111011011111001000100111111101000011111,
111110111110001111100100000010000001111000000010001010101111111011101011,
111110000100101100001101111110011100110100001101111010101110011111101100,
111101011111101100000001111011001111111011100000001010001110101011110100,
000000011111001111010100000001111111101000011011111110011101101100100111,
111011010010111011110011111010100000011000010101000001100000111100000011,
000001110000111100001011000000100010011100000110111000111111010100000000,
000001010000000100000010111111000000001000101010111111101111000111111011,
000011001111100100110001000000001111011000010011010011110001100100001110,
111110111111111100010110111111110000010001001110111101001111110111110011,
111101100000000000110000111011111110100100001101000111011101111100011010,
111011111110100111101001111011101110101111111001111110111110001000001000,
000000000000011100001111111100010001111100001001000101111111011000010000,
111101001101110011110110111010001111101000010100000001110000111100010010,
000001011100110100000110111110101111000011110111111111010000010000001111,
111111100000110111110011000011101110111111110101010010111111000000000011,
111010110000110011111010111011111111101111111011000111000000010000001000,
000010000010110111011111111100010000011100100100001000011111010011111100,
000001000101011011101111111110001111110011101010111110010000011000010101,
000101101111010111110000001000000010101000011011111101101110110011110101,
000000001111010111111100000100001111100000101101000011011110110100000011,
000011110000011011110001111111001111110100001011111110101011101100010000,
111011101111000111100101111001100001011100011000110011101111110111111110,
000010100000001000010000001001000100101000010101111011010010111101000000,
000010100010100000001001000010000001001100010000001011110001100000011011,
001000100000100111110001111110101111001111100110111111001101011000001111,
000111111111000011111101000101111111110011100110111001000000111011110001,
001000000000100011110111000001100000001011110101001011010001100111100001,
111010000000001000010000101111100001011100110001110011110001001100011000,
000001001111010011111001111110010000010000110011001010011110110100101001,
000000001101100011110000111101000001011111110101000100110001010111111100,
001011011111000000000001111110110100000000110110000101110100101001000011,
111111001111100111101011001000011101111101000100000011010010001111111111,
110111010010110000000111000010111111010100001100111111000001101100001101,
001000110010010000001110000010000011011111101111000111110010010111011101,
000000110001101100001000111001010000000011011100000001111110111111110100,
000011100000010000101111000100011101111111101100001000000000111100110000,
111110100001111100010010001010110011110011110111111101100000010000000011,
000010100001101011100000000100001111110000001111000001011110111011101101,
110100101110010100010000000011000000000011111001000011001111000000001101,
001011000000100011110010000001000000100011111101000010000000011111101100,
111100000001110100010011001010101101111100010111111111101110100011100100,
111010011111101000000100111010010000000000000011111110000000010000001010,
111110011111001100011000000010000001010011111010001010011110010011111100,
001000001110011111111001000000000001001111110011111100111110110000010101,
111110010001100011110111000000000010111111100111110111000001011100010100,
001000111110001111111111111100111111000111101011111111010000011000000010,
111000101110111011101110000111010000001000100011000101101111001000000101,
111110011110111011110001111101010001001000010100000001101110110100010110,
000100110000111011101010111110111111110011000111111101001110000100011111,
111001110001000111110001111111011110101111011110000101000001101011110101,
111010110000110100100011000101011101111111100110111011100001011111110000,
110101000010011100001110000010100000010000001110110111111111100111110011,
000011011101111111110000000010000000101100000000000010101110010000010010,
111010001110001000010110111011010010000100001001000010100000101100010110,
000100101111010000100000110101101111011111110000001000110010000000011000,
110100111110101011111000110110011111000111110011000010010000100100010001,
000100111100101100100100111101010000001000001110111111001110011011111010;
