memory_initialization_radix=2;
memory_initialization_vector=
00000001
00000000
00000001
00000000
00000000
00000001
11111111
11111111
11111111
11110010
11111100
00000101
11110011
00001110
00000010
11111100
11111110
00000101
11110110
00001001
00000000
11110101
00010001
11111101
11111110
11111110
00000011
00000000
11110110
00010010
11111101
11110000
00010001
11111011
11111001
00000101
11111100
00000010
00000001
00000010
00000010
11111111
00000001
00000010
11111110
00001001
00001010
11110010
00000000
11111000
00000000
11111000
11111101
00001110
11111101
11111110
00000000
11111001
11111111
00000010
00000001
00000001
00000000
00000001
11111111
11111010
11111111
11111100
11111000
00000000
11111111
11111110
00000011
00000011
11111000
11111101
00001011
11110011
00000011
11111111
00000000
00000000
00000000
00000000
00000000
00000000
00000000
00000001
00000000
00000000
11110111
11100011
11110000
00101011
00110011
00110100
00000100
11100101
11010110
11111011
00000001
00000011
00000000
00000011
11111111
11111111
11111111
00000000
11011101
10111101
11101111
10111101
10000000
11010011
11110010
11100100
11111001
00101000
00000010
00000000
00110000
00000111
00000011
00010111
11111001
11111100
00000000
00000000
00000000
00000000
00000000
00000000
00000000
00000000
00000000
00000000
00000000
00000001
00000000
00000000
00000000
00000000
00000000
00000000
00000000
00000000
00000000
00000000
00000000
00000000
00000000
00000000
00000000
00000000
00000000
00000000
00000000
00000000
00000000
00000000
00000000
00000000
00000011
00000000
11111110
00000001
11111111
11111011
00000001
00000000
11111110
00000001
11101110
11101010
00001011
00001010
00001000
11110110
00001001
00001010
11111110
11011110
00000000
11101001
11011100
11110010
00010101
11110001
00001110
11110110
11111001
00010110
11110111
11110100
00100110
11111001
00000000
00001001
00001000
00011000
00010100
11011101
11000111
11010011
11110010
00100001
00100111
00000000
00000000
00000000
00000000
00000000
00000000
00000000
00000000
00000000
00000111
00001000
00000010
00001110
11111111
11101010
11101111
11101110
11011000
00000010
00000100
11111110
00000011
00000111
00000010
00000100
11111101
11111111
00000000
00000101
11111011
00000110
00000010
11111111
11111100
00000110
00001001
00010111
00001000
11111101
00011001
11101101
11101110
00001101
00001001
00000010
00000011
00000111
00010000
11111110
11111011
11111110
11110110
11111000
11110101
00000010
11111110
00000010
00001010
00000100
00001011
00000001
00000101
00010001
11101001
00000100
00011011
11111110
11110100
11110011
00010101
00001000
11110011
00000000
00000001
11111110
00000010
00000001
11111111
11111111
11111110
11111000
