memory_initialization_radix=2;
memory_initialization_vector=
00000010
11111111
00000000
00000001
11111110
00000000
11111111
11111110
11111111
00011100
01010010
00001010
00111010
01111111
00011000
00001010
00100111
00000010
11011011
01000010
11100101
10110111
01110111
11010001
11101101
00100010
11110001
00001110
00101011
11000000
00001010
01110000
10000000
00001001
00010010
11101110
00000000
11111010
11111011
00000100
11110010
11101111
11111111
11111100
11111100
00000111
00100110
00001110
11111110
11110001
11110111
11111101
11101001
11111001
00101110
11110010
11101010
01011110
11100100
11010000
00010111
11111001
11110011
00000000
00000100
00001011
00000001
00001001
00010010
00000000
00000001
00000110
11110100
00101100
11011110
11111000
01000110
11000101
11111000
00011010
11101011
00000000
00000000
00000000
00000000
00000000
00000000
00000000
00000000
00000001
11011000
11010101
11110010
00001011
00011011
00101111
11010101
11000110
11001100
00000010
00000110
00000000
00000001
00001001
11111110
00000010
00000010
11111111
00110011
01000110
00010010
01101001
01111111
00100011
00010111
00011111
00000101
00000111
11111010
00000000
00000001
11111100
00000101
11110100
11111001
00000000
00000000
00000001
00000000
00000000
00000000
00000000
00000000
00000000
00000000
00000001
00000000
00000000
00000000
00000000
00000000
00000000
00000000
00000000
00000000
00000000
00000001
00000000
00000001
00000001
00000000
00000000
00000001
00000000
00000000
00000000
00000000
00000000
00000000
00000000
00000000
00000000
11111111
00000000
00000010
11111111
00000101
00000010
11111111
11111111
00000001
11101101
11011000
11010011
00000111
00000110
00000101
00001000
00100101
00100111
00000010
11101111
11111111
11110111
11110110
11110111
00000111
11110011
00000000
00010100
11101000
11111100
00011000
11010010
11111011
00001101
11110010
00000010
00101011
00101101
00010111
11101111
11000110
10110111
00110111
01010110
00110111
00000000
00000000
00000000
00000000
00000000
00000000
00000001
00000000
00000000
11111111
11110111
11110100
00000110
11101111
11100011
11111101
11110101
11100110
11110100
00100001
00111110
11101100
00111000
01101001
11111001
00010000
00011110
00000101
11111000
11110111
00000110
11101000
11101101
00000010
00000000
00000001
11101000
11110011
00010000
10110101
10101101
11100010
11110000
00000010
00001101
00001001
00001000
00001110
00000101
11111001
11111111
11110101
11101000
11101010
00001000
11110101
11101100
00000111
11100110
11011100
00001101
11111010
11110111
00010101
00111101
01000000
11110001
11100100
11011111
00000000
11101111
11101001
11111011
00000000
00001000
11111111
00000011
00001011
11111101
00000010
00000100
