memory_initialization_radix=2;
memory_initialization_vector=
00000001
11111110
11111111
00000001
11111110
00000000
11111111
11111110
11111111
11011001
11000101
11110111
10111011
10000001
11110000
11110011
11011111
11111111
11000100
01010010
11100110
10100010
01111111
11010111
11100111
00100111
11110010
00000101
01000011
10110100
00001011
01111111
10000000
00000000
00010011
11100001
00000110
11111000
11101100
00001011
11110001
11011111
00000001
11111011
11111000
11110111
00100100
00100111
11111111
11110100
11110111
00001010
11101001
11100100
00001110
11110011
11111000
00011011
11100111
11110111
00000111
11111011
11111110
11111111
00000111
00010001
00000000
00010001
00011100
00000001
00000100
00000111
00000001
00101111
11010100
00000001
01000011
11000001
00000000
00011010
11100111
00000000
00000000
00000000
00000000
00000000
00000000
00000000
00000000
00000000
00000101
11111111
11110101
00101101
00111011
00100010
11110111
11110011
11100001
11111100
00010010
00001110
11111010
00011001
00011001
11111010
00001011
00001000
11110111
11111000
00000110
11101010
11101110
11111111
11111100
11111100
00000100
00000001
00000000
11111110
11111100
00000000
11111101
00000010
00001000
11111100
00000001
00000000
00000001
00000000
00000000
00000000
00000000
00000000
00000000
00000001
00000000
00000000
00000000
00000000
00000000
00000000
00000000
00000000
00000000
00000000
00000000
00000000
00000000
00000000
00000000
00000000
00000000
00000000
00000000
00000000
00000000
00000000
11111111
00000000
00000000
00000000
11111101
00000011
00001000
11111101
00001001
00001011
11111111
00000001
00000111
11110110
11100111
11100100
00001011
00000111
00000100
00000010
00011000
00010101
00001011
00001010
00001101
11110100
00000011
11111010
00000010
00000011
00000101
11110111
00000101
11111001
11110110
11111111
11110100
11111000
00001010
11111000
11101101
11111101
00100100
11010100
10111100
11010110
00010000
00010111
00011000
00000000
00000000
11111111
00000000
00000000
00000000
00000000
00000000
00000000
11111101
00000001
00001100
00000110
00001001
00010100
11110100
00000001
00000011
00001001
11011101
11001000
00010000
10111111
10011001
00000110
11101011
11101000
00000010
11111010
11101010
00001101
11110000
11100000
00000010
00000010
11110001
00011000
00011000
00000011
00011011
00010010
11110011
00010001
00011000
11111100
00000100
11110010
11111011
00001010
11110100
00000110
11111100
11100111
11110110
00100000
11111000
11011101
00100101
11110000
11010010
00100011
11110010
11011000
00100000
00101100
00001110
11101110
11100011
11100011
11101010
11101110
00001010
11111110
00000010
00001100
00000010
00000101
00001111
11111111
00000011
00000111
