001001110111111101010010110111111000000111000101111111101111111011111110
111010011111010000100100111110111111000111111000000100110111111101000011
000110100100001100101111000001000001000100000111111110111110011111110011
000010110001100100010010111100110011101111111111000000000000000000000000
000000000000000000000000000010000000000000000000111111001110111011111000
000000000000000000000000000000000000000000000000000000000000000000000000
000000110000001100001010000110000000011111100111000000010000100100000011
000000000000000000000000000101111011110011111101000010101111111100000101
000000101111000011111010111010111011111111011101000000010000100100000001
111100101111000011111000111001111111010011110010000110000001001000011000
000000000000000000000000000000110000010100000010111011101110001100101100
000000000000000000000000000000000000000000000000000000000000000000000000
000000011111110111111100001001101101000111111111111111010000001111111111
000000000000000100000000000000001111000000000010110110000000110000000000
111101111111110111110111000000000000001100011001111110010000010000001100
000000000000000000000000000000001111111000000111111111101111111000000010
111100010001100011100010010001110011101111111000001000000000110111111010
000000000000000000000000000000000000000011011110101110100001010100000000
000001110000010100101000111111111110000101000101111010010011001011101000
000000000000000000000000000000001110101011100111000011100011011100100100
000000000000000000000000000000000000000000000000000000000000000000000000
000000000000000000000000000000000000000000000000000000000000000000000000
000000000000000000000000000000000000000000000000000000000000000000000000
000000000000000000000000000000000000000000000000000000000000000000000000
