111100101101011111100110111111111111000011110111111111110000000011111111
111001001111011100100111111110001101111111101100111000011000000010110100
111001111100000111010100000001110001110000010001111111101111011111111000
000010000001100100001110111000010010001011110101000000000000000000000000
000000000000000000000001111111001111110111111110000001001111111100000110
000000001111111100000000000000000000000000000000000000000000000000000000
000001011111101000001101000101010000010011100100000001110000101100001000
000000000000000011111111000110001101011000100100111110001111010011111001
111100011110000011101010111010001001100111001000000000110001010000001100
110110001101001011011101111101100000011011111011111111001111001100000011
000000000000000000000000000001110000111100001100000010101110001100001110
000000000000000000000000000000000000000000000000000000000000000000000000
111111110000110000110101000010001110111111111010111111111110011000000001
000000000000000000000000000000000110100000011110111001110001001100000000
111111101111011011100010000000000000110011101011001110100000010011110101
000000000000000000000000000000001111101100001010111111101111011100001110
000111111110101011101010001111100001000111100000010000001111101000000111
111111110000001100000001111111110010100100110001111111010000000100000010
111001010000000010110011000000110000100100110010000010010001100111111111
000000000000000000000000000000000011001111011010111101101010111100000000
000000000000000000000000000000000000000000000000000000000000000000000000
000000000000000000000000000000000000000000000000000000000000000000000000
000000000000000000000000000000000000000000000000000000000000000000000000
000000000000000000000000000000000000000000000000000000000000000000000000
